<pad>	0
<unk>	0
▁the	-3.27975
,	-3.35453
.	-3.40948
▁a	-3.83759
▁and	-3.91376
▁of	-3.97714
s	-3.98536
▁to	-4.03292
'	-4.07834
▁is	-4.27221
br	-4.28533
▁/>	-4.30525
▁in	-4.47156
▁I	-4.51071
▁it	-4.54094
▁that	-4.67831
▁this	-4.7592
<	-4.84086
▁was	-4.99665
t	-5.05512
▁movie	-5.0604
-	-5.08373
▁	-5.15397
▁for	-5.18357
▁with	-5.19402
▁film	-5.22099
▁as	-5.28324
.<	-5.31278
▁but	-5.37553
▁The	-5.38397
▁on	-5.43219
▁"	-5.45848
▁you	-5.46962
▁(	-5.51063
▁are	-5.5642
▁have	-5.57588
▁not	-5.58628
▁be	-5.58679
"	-5.67779
▁his	-5.68228
▁one	-5.72039
▁he	-5.78438
▁all	-5.84839
▁by	-5.88137
▁at	-5.88815
▁an	-5.90058
▁like	-5.92613
)	-5.93122
▁they	-5.94502
▁who	-5.94968
▁from	-5.97711
▁so	-6.00561
▁just	-6.06777
▁about	-6.07381
▁or	-6.09987
▁It	-6.10064
▁out	-6.10448
▁her	-6.10686
ing	-6.1147
▁has	-6.13915
▁good	-6.235
▁some	-6.23707
▁can	-6.24246
▁more	-6.31403
?	-6.35175
!	-6.35293
▁very	-6.36492
▁would	-6.36648
▁This	-6.3705
▁there	-6.38744
▁time	-6.39033
▁what	-6.39517
▁up	-6.40458
▁really	-6.45076
▁only	-6.46788
▁no	-6.46922
▁when	-6.47594
▁me	-6.4801
▁if	-6.48068
▁had	-6.48273
▁story	-6.49044
▁even	-6.49271
▁see	-6.49824
The	-6.5002
▁were	-6.50602
ed	-6.53075
▁she	-6.53741
▁my	-6.56699
▁their	-6.57073
▁bad	-6.59236
▁which	-6.59758
d	-6.61045
▁than	-6.63785
▁much	-6.659
▁-	-6.66306
...	-6.66363
▁get	-6.67893
▁been	-6.68673
:	-6.71488
▁people	-6.71651
▁do	-6.72025
ly	-6.73528
▁because	-6.76095
▁into	-6.766
▁other	-6.76642
I	-6.77375
▁made	-6.77911
▁will	-6.78417
▁we	-6.79101
▁make	-6.79134
▁could	-6.8053
▁well	-6.80839
m	-6.83424
▁first	-6.8425
▁him	-6.84283
▁don	-6.85252
▁way	-6.8572
▁any	-6.87245
▁great	-6.87352
▁most	-6.88782
▁too	-6.90463
▁how	-6.90786
▁them	-6.91088
▁think	-6.92533
▁plot	-6.97176
▁movies	-6.97272
▁also	-6.97855
▁acting	-6.98094
▁character	-6.98307
▁characters	-6.99815
▁watch	-7.00124
▁seen	-7.00459
▁then	-7.0277
▁over	-7.04571
▁'	-7.0654
▁A	-7.06575
▁But	-7.07357
▁being	-7.08066
▁know	-7.08234
▁show	-7.0914
ve	-7.09224
▁did	-7.09641
▁many	-7.1127
▁never	-7.11492
▁two	-7.11884
;	-7.11893
▁And	-7.11973
re	-7.12248
▁ever	-7.12676
▁better	-7.12848
▁off	-7.13792
▁i	-7.14343
▁little	-7.14955
▁your	-7.15076
▁films	-7.15443
▁after	-7.16098
▁where	-7.16486
▁life	-7.17513
▁end	-7.18539
▁does	-7.19606
▁love	-7.19659
▁its	-7.20387
▁<	-7.20438
▁say	-7.2047
▁best	-7.21613
▁There	-7.24618
y	-7.24759
▁scene	-7.26501
▁should	-7.26644
▁here	-7.28724
).	-7.2921
▁scenes	-7.30465
▁something	-7.31742
▁In	-7.32628
▁through	-7.32696
▁He	-7.32747
▁go	-7.32904
▁back	-7.33992
▁thing	-7.34197
▁such	-7.34482
▁still	-7.34853
▁watching	-7.36557
▁doesn	-7.38613
▁didn	-7.38803
▁actors	-7.39532
▁man	-7.3968
▁these	-7.39741
▁If	-7.40155
),	-7.40809
▁funny	-7.41879
▁real	-7.44811
/	-7.44829
▁those	-7.45267
▁work	-7.47532
e	-7.49412
▁years	-7.49581
▁few	-7.5034
▁going	-7.50426
▁actually	-7.50922
▁look	-7.51738
▁find	-7.51847
▁nothing	-7.51928
▁old	-7.52311
▁why	-7.52519
▁same	-7.52988
▁director	-7.54098
▁lot	-7.54858
▁want	-7.5489
▁cast	-7.56566
a	-7.57315
▁before	-7.57371
▁makes	-7.57737
▁part	-7.57918
▁though	-7.58511
ll	-7.58876
▁pretty	-7.61838
▁another	-7.62421
▁got	-7.62644
▁while	-7.62987
▁fact	-7.6376
er	-7.64093
▁thought	-7.64219
▁again	-7.64477
▁seems	-7.64585
and	-7.64974
▁every	-7.65092
▁enough	-7.65453
▁down	-7.65602
▁original	-7.66511
▁around	-7.67255
▁quite	-7.6808
▁script	-7.68955
▁give	-7.69504
▁least	-7.71632
▁long	-7.72879
▁things	-7.73024
the	-7.73306
▁horror	-7.73766
▁minutes	-7.74179
▁take	-7.74454
▁own	-7.75924
▁whole	-7.76075
▁interesting	-7.76099
▁isn	-7.76242
▁saw	-7.7655
▁worst	-7.77077
▁&	-7.77131
▁point	-7.77168
▁role	-7.77219
▁world	-7.77971
▁action	-7.78155
▁now	-7.792
▁right	-7.7925
▁anything	-7.79301
▁guy	-7.79366
▁between	-7.7939
▁must	-7.80098
▁young	-7.80124
▁far	-7.81016
▁done	-7.81065
▁come	-7.81385
▁new	-7.82284
▁comedy	-7.82342
▁bit	-7.8242
▁without	-7.82726
▁gets	-7.82882
▁big	-7.83087
▁might	-7.83361
▁may	-7.83489
▁always	-7.84517
▁almost	-7.84713
▁They	-7.84821
in	-7.85135
▁series	-7.85389
▁us	-7.85695
▁feel	-7.86164
▁You	-7.86696
▁kind	-7.87458
▁times	-7.88561
▁am	-7.90921
▁family	-7.9119
▁music	-7.91215
▁performance	-7.92306
▁girl	-7.9293
▁What	-7.93333
▁both	-7.93339
▁probably	-7.93916
▁making	-7.94361
This	-7.94685
▁found	-7.95054
▁TV	-7.95578
▁last	-7.95645
▁believe	-7.96426
▁She	-7.96642
▁away	-7.96767
▁fun	-7.97242
▁woman	-7.97256
▁reason	-7.97436
▁rather	-7.9767
--	-7.97856
▁money	-7.98105
S	-7.98202
▁trying	-7.9853
▁since	-7.99061
▁hard	-7.99327
▁wasn	-7.99576
▁anyone	-8.00324
▁As	-8.00551
A	-8.0117
▁That	-8.01893
▁actor	-8.02724
▁put	-8.0437
▁sense	-8.04372
▁DVD	-8.04624
▁looks	-8.05068
or	-8.05705
▁ending	-8.06415
▁So	-8.06567
▁watched	-8.06606
▁screen	-8.06879
▁goes	-8.07241
▁comes	-8.07789
▁sure	-8.0786
▁course	-8.07908
▁set	-8.07994
▁book	-8.08335
▁place	-8.0903
▁someone	-8.1002
▁effects	-8.10177
▁main	-8.10893
▁worth	-8.11253
▁seem	-8.1164
▁play	-8.1172
▁played	-8.12147
It	-8.124
▁said	-8.12879
▁idea	-8.13001
n	-8.1314
▁audience	-8.13324
▁each	-8.13327
▁looking	-8.13931
▁day	-8.13948
▁our	-8.14055
▁yet	-8.14107
▁half	-8.14154
▁job	-8.15172
▁having	-8.15584
▁different	-8.17142
▁else	-8.17516
▁When	-8.17875
▁special	-8.18125
▁boring	-8.1819
▁version	-8.18968
▁2	-8.19078
▁together	-8.19126
▁plays	-8.19217
▁shows	-8.20208
▁poor	-8.20621
▁awful	-8.20884
▁left	-8.21193
▁fan	-8.21229
",	-8.21965
(	-8.22626
▁three	-8.22734
▁completely	-8.23424
▁seeing	-8.23695
▁stupid	-8.24376
▁read	-8.24479
▁shot	-8.24509
▁Not	-8.24577
▁true	-8.24649
▁himself	-8.24697
▁high	-8.24742
▁wife	-8.24927
▁year	-8.25113
▁mind	-8.25427
▁takes	-8.25768
▁John	-8.25819
▁low	-8.26008
▁waste	-8.26114
▁simply	-8.26123
▁especially	-8.26134
▁father	-8.2649
▁rest	-8.26986
r	-8.27209
▁everything	-8.28532
▁either	-8.28824
▁mean	-8.28908
▁American	-8.28966
▁terrible	-8.29336
▁during	-8.29486
o	-8.29951
".	-8.30014
▁wrong	-8.30113
▁short	-8.30493
▁used	-8.30604
▁B	-8.31379
▁everyone	-8.3138
▁10	-8.31472
▁less	-8.31515
▁try	-8.31918
▁For	-8.31962
▁need	-8.32085
▁help	-8.3212
▁beautiful	-8.32238
▁nice	-8.32755
▁We	-8.32795
▁once	-8.32882
▁camera	-8.32992
▁Hollywood	-8.33064
▁tell	-8.3331
▁later	-8.33682
▁line	-8.33977
▁start	-8.34317
i	-8.34406
▁home	-8.34429
▁understand	-8.34597
▁use	-8.35032
▁let	-8.35091
▁instead	-8.35317
▁production	-8.36113
▁enjoy	-8.36121
▁However	-8.36335
▁given	-8.36705
▁One	-8.36913
▁couple	-8.3703
▁supposed	-8.37119
▁second	-8.37478
▁kids	-8.38294
▁recommend	-8.38525
▁sex	-8.39084
▁dialogue	-8.39388
▁No	-8.39532
▁budget	-8.39607
▁person	-8.39774
▁worse	-8.40307
▁video	-8.40774
▁excellent	-8.4102
it	-8.41186
▁couldn	-8.41373
▁death	-8.41494
▁doing	-8.41757
▁women	-8.42235
▁All	-8.42314
▁won	-8.42865
▁night	-8.42925
▁piece	-8.43042
▁classic	-8.43131
▁remember	-8.43569
▁name	-8.44194
▁getting	-8.44254
al	-8.44365
▁lines	-8.4442
▁truly	-8.44449
es	-8.44542
▁My	-8.44584
▁friends	-8.44684
▁came	-8.44768
▁episode	-8.44777
▁performances	-8.44955
▁school	-8.45223
▁--	-8.45819
▁until	-8.45902
▁black	-8.45996
▁moments	-8.46088
▁house	-8.46742
▁along	-8.46984
▁full	-8.47011
▁laugh	-8.47712
▁keep	-8.47866
▁case	-8.48477
▁felt	-8.48502
▁small	-8.48912
▁head	-8.49185
▁stars	-8.49282
▁men	-8.49339
▁face	-8.49897
▁absolutely	-8.50063
▁itself	-8.50072
."	-8.50778
▁went	-8.50973
▁entire	-8.51014
▁playing	-8.51022
▁top	-8.51044
▁problem	-8.51148
▁maybe	-8.51843
▁title	-8.52449
▁next	-8.52729
▁care	-8.52857
▁Even	-8.52979
▁seemed	-8.53505
as	-8.53531
▁however	-8.53709
▁sort	-8.54222
▁liked	-8.54938
▁star	-8.55195
▁early	-8.55886
▁under	-8.55991
▁To	-8.55991
▁written	-8.56125
▁direction	-8.56184
▁style	-8.56875
▁mother	-8.57003
▁re	-8.57356
▁beginning	-8.57622
▁entertaining	-8.57757
▁Well	-8.57794
▁war	-8.57812
▁S	-8.58136
th	-8.58412
▁children	-8.58816
▁car	-8.59066
▁writing	-8.59123
▁guess	-8.59147
▁horrible	-8.59313
▁often	-8.59408
▁picture	-8.59688
▁human	-8.59933
▁flick	-8.60387
▁become	-8.60413
▁wanted	-8.60629
▁3	-8.60731
▁At	-8.60806
▁example	-8.61239
▁gives	-8.6154
▁hope	-8.61931
on	-8.62506
▁turn	-8.62866
▁After	-8.62866
▁against	-8.62913
▁cinema	-8.6317
▁wonderful	-8.63291
▁friend	-8.63328
▁quality	-8.63522
▁humor	-8.63604
▁already	-8.6361
▁lead	-8.64218
▁totally	-8.64611
▁perfect	-8.64667
▁tries	-8.64869
▁live	-8.65048
▁THE	-8.65082
c	-8.65367
▁boy	-8.6617
▁drama	-8.66427
▁Don	-8.66482
▁un	-8.66733
▁C	-8.66868
▁sound	-8.67202
▁several	-8.67445
▁crap	-8.67658
▁others	-8.67932
▁becomes	-8.68227
▁gave	-8.68317
▁certainly	-8.68494
▁killer	-8.68518
▁definitely	-8.6877
▁Why	-8.68858
▁slow	-8.68944
▁act	-8.69091
▁dead	-8.69559
▁expect	-8.69595
▁called	-8.69614
▁although	-8.69757
▁Mr	-8.69773
▁past	-8.69807
D	-8.69949
g	-8.70461
▁1	-8.70515
In	-8.70556
l	-8.70757
▁guys	-8.71073
▁decent	-8.71212
ness	-8.71263
▁myself	-8.71324
▁His	-8.71575
▁fine	-8.7165
▁son	-8.72035
▁lost	-8.72134
▁close	-8.7242
▁fans	-8.72455
▁side	-8.72457
▁viewer	-8.7261
▁loved	-8.72635
▁stuff	-8.73463
▁etc	-8.74384
▁based	-8.74479
▁lives	-8.74565
▁hand	-8.74853
T	-8.74964
▁thinking	-8.74968
If	-8.75189
▁lack	-8.75282
▁child	-8.75591
There	-8.75657
▁How	-8.75821
▁evil	-8.75971
▁throughout	-8.76111
▁hour	-8.76419
▁New	-8.76658
▁annoying	-8.76787
▁kid	-8.76954
▁finally	-8.77007
▁history	-8.77026
▁attempt	-8.77078
▁starts	-8.77095
▁T	-8.77218
▁enjoyed	-8.77229
▁self	-8.7726
▁behind	-8.77499
man	-8.77771
▁able	-8.7781
▁F	-8.77969
▁Then	-8.78317
▁actress	-8.78331
▁Also	-8.78833
▁feeling	-8.795
▁run	-8.79605
▁kill	-8.79645
▁wants	-8.7993
▁voice	-8.79998
▁works	-8.80302
▁involved	-8.80316
but	-8.80546
▁killed	-8.80809
▁wouldn	-8.81043
▁town	-8.81062
▁themselves	-8.8116
▁looked	-8.8119
▁days	-8.81275
C	-8.81608
▁late	-8.8165
▁game	-8.81781
▁heard	-8.8181
▁parts	-8.81853
▁white	-8.81977
▁wonder	-8.82103
up	-8.82106
▁genre	-8.8212
▁favorite	-8.82475
▁daughter	-8.82497
▁type	-8.82782
▁cannot	-8.82785
▁ridiculous	-8.82917
▁directed	-8.83
▁With	-8.83119
▁heart	-8.83125
▁complete	-8.8347
▁Michael	-8.83508
▁obvious	-8.84474
▁happens	-8.84716
▁interest	-8.84859
to	-8.84923
▁turns	-8.84935
▁Some	-8.85031
▁girls	-8.85197
!<	-8.85329
▁took	-8.85679
▁final	-8.85819
▁happened	-8.85894
▁happen	-8.86302
▁bring	-8.86796
▁art	-8.86971
▁amazing	-8.87347
▁matter	-8.87479
▁moment	-8.87483
▁chance	-8.87628
▁fight	-8.87634
▁While	-8.87858
▁hit	-8.87899
▁!	-8.88083
▁today	-8.88095
▁stories	-8.88408
an	-8.88438
▁Just	-8.88486
▁jokes	-8.88783
▁writer	-8.88799
▁ago	-8.8884
▁eyes	-8.89198
▁roles	-8.89428
▁career	-8.8947
▁cheap	-8.89702
▁extremely	-8.89917
▁wish	-8.89922
▁dark	-8.89977
▁obviously	-8.90425
▁experience	-8.9052
▁yourself	-8.90701
▁group	-8.9111
▁disappointed	-8.91399
!!	-8.9159
▁Man	-8.91648
▁E	-8.91671
▁perhaps	-8.91701
▁hours	-8.92008
But	-8.9207
▁cut	-8.92096
▁leave	-8.92902
▁husband	-8.92924
▁stop	-8.93075
▁started	-8.93328
ic	-8.93576
▁brilliant	-8.93792
▁save	-8.93946
▁dull	-8.9403
▁sad	-8.9424
▁Of	-8.94402
▁predictable	-8.94763
▁told	-8.95185
▁opinion	-8.95358
B	-8.95524
p	-8.9578
And	-8.95872
▁saying	-8.95875
▁coming	-8.9627
like	-8.96275
▁single	-8.96344
▁gore	-8.96351
▁possible	-8.96636
*	-8.96875
P	-8.9691
▁blood	-8.96927
▁running	-8.9694
▁brother	-8.96993
▁female	-8.96996
▁OK	-8.97005
▁silly	-8.97221
▁Now	-8.97569
▁soon	-8.9761
▁call	-8.97664
▁violence	-8.97814
▁word	-8.97917
▁serious	-8.9813
▁except	-8.98193
▁non	-8.98197
▁talent	-8.98345
▁taken	-8.98352
▁cinematography	-8.98388
▁huge	-8.98687
▁shown	-8.98729
▁age	-8.99032
out	-8.99377
▁score	-8.99555
▁level	-8.9987
▁shots	-8.99882
▁murder	-8.99884
▁body	-9.00214
▁O	-9.00601
▁simple	-9.01061
▁says	-9.01132
▁light	-9.01184
▁talking	-9.01449
▁clich	-9.01483
▁highly	-9.01496
▁4	-9.01505
▁police	-9.01536
▁novel	-9.01559
▁particularly	-9.01685
▁number	-9.01708
▁knew	-9.02006
▁alone	-9.02021
▁usual	-9.02051
▁across	-9.02128
▁known	-9.02131
▁lame	-9.02136
▁seriously	-9.02148
▁change	-9.0221
▁released	-9.02287
▁David	-9.02543
▁usually	-9.02606
▁English	-9.02782
▁dialog	-9.02798
▁turned	-9.02866
▁Robert	-9.0287
▁sequel	-9.03117
▁5	-9.03142
▁somewhat	-9.03164
▁aren	-9.03256
▁hilarious	-9.03293
▁musical	-9.03313
▁bunch	-9.03397
▁D	-9.03534
▁attention	-9.03563
▁opening	-9.03711
▁view	-9.03832
▁strong	-9.03854
▁scary	-9.03888
▁exactly	-9.04047
▁local	-9.04313
▁songs	-9.04441
which	-9.04704
▁song	-9.04764
▁sometimes	-9.0495
▁middle	-9.04972
▁mention	-9.04982
!"	-9.05812
▁major	-9.06075
▁storyline	-9.06142
▁hell	-9.0616
▁episodes	-9.06437
▁near	-9.06603
▁effort	-9.06645
▁order	-9.06741
▁James	-9.06766
▁British	-9.06893
▁reality	-9.06946
▁poorly	-9.07162
▁similar	-9.07737
▁television	-9.08025
▁whose	-9.08144
▁cool	-9.08156
ers	-9.08165
▁fast	-9.08312
▁review	-9.0838
▁due	-9.08839
▁G	-9.09249
▁material	-9.095
▁ends	-9.09783
▁strange	-9.10327
▁despite	-9.10352
▁hero	-9.10486
▁documentary	-9.10529
▁problems	-9.10814
▁taking	-9.10859
▁stand	-9.10873
▁entertainment	-9.11014
▁clearly	-9.11441
▁none	-9.11482
▁premise	-9.11498
▁giving	-9.11508
▁ten	-9.11589
▁falls	-9.11659
▁easily	-9.11672
who	-9.11701
▁important	-9.1191
▁relationship	-9.12036
▁straight	-9.12171
▁rating	-9.1227
▁weak	-9.12421
▁comic	-9.12724
▁actual	-9.12741
b	-9.12955
▁appears	-9.13047
▁mostly	-9.13158
▁future	-9.13208
▁mess	-9.13709
▁country	-9.13898
▁Paul	-9.13909
▁subject	-9.13952
▁decided	-9.13977
▁George	-9.14196
▁tried	-9.14244
▁First	-9.14284
▁kept	-9.1441
!!!	-9.14451
▁modern	-9.14571
▁haven	-9.14784
▁20	-9.15099
▁editing	-9.1514
▁needs	-9.15297
▁events	-9.15357
R	-9.15399
▁Oh	-9.15423
▁On	-9.15464
▁Lee	-9.1552
▁buy	-9.156
▁Richard	-9.15633
▁living	-9.15833
▁sit	-9.15836
▁room	-9.15984
▁surprised	-9.16095
▁team	-9.16121
▁sequence	-9.16459
▁Maybe	-9.16512
▁words	-9.16606
▁message	-9.1666
is	-9.16771
▁King	-9.17245
▁clear	-9.1725
▁hate	-9.1737
▁doubt	-9.17467
▁Unfortunately	-9.17508
▁supporting	-9.1752
▁happy	-9.17626
▁de	-9.17761
▁among	-9.1797
▁figure	-9.17971
▁including	-9.181
k	-9.18144
▁comments	-9.18148
▁God	-9.18624
▁reviews	-9.18896
▁four	-9.19036
▁beyond	-9.19039
▁Disney	-9.19054
▁five	-9.19266
▁badly	-9.19347
What	-9.19364
▁write	-9.19373
▁enjoyable	-9.19418
▁co	-9.19491
▁add	-9.196
▁talk	-9.19645
▁points	-9.197
▁R	-9.19781
▁stay	-9.2015
▁sets	-9.20253
▁romantic	-9.20329
▁average	-9.20338
▁above	-9.20506
▁feature	-9.20584
▁fall	-9.20751
▁hear	-9.2086
▁theater	-9.20885
▁period	-9.21068
▁Although	-9.21185
▁release	-9.21338
As	-9.2148
▁...	-9.21589
▁rent	-9.21873
▁finds	-9.22098
▁class	-9.22131
▁NOT	-9.22178
▁Oscar	-9.22234
▁nearly	-9.22326
▁soundtrack	-9.22364
▁thriller	-9.227
▁basically	-9.2275
▁remind	-9.22817
▁animation	-9.22933
▁killing	-9.23341
▁working	-9.23477
▁Her	-9.23682
▁joke	-9.23707
▁sister	-9.23774
▁York	-9.24185
K	-9.24259
en	-9.2429
▁feels	-9.24661
▁De	-9.24688
M	-9.24734
▁follow	-9.24901
▁typical	-9.24954
▁tale	-9.24963
▁tells	-9.24991
▁spend	-9.25005
▁herself	-9.25048
▁America	-9.25297
▁overall	-9.25484
▁move	-9.25607
▁elements	-9.25743
▁Peter	-9.26115
?"	-9.26239
▁expected	-9.26264
▁knows	-9.26318
▁viewing	-9.26392
▁upon	-9.26733
▁hold	-9.26747
▁Tom	-9.2697
he	-9.27009
▁minute	-9.27028
▁stage	-9.27042
▁*	-9.27172
▁Or	-9.27228
le	-9.27492
▁Who	-9.27766
▁die	-9.27859
▁theme	-9.27982
▁dumb	-9.27985
▁using	-9.28129
▁Dr	-9.2832
▁crime	-9.28351
▁famous	-9.28593
▁P	-9.28678
▁begin	-9.28774
▁form	-9.2886
▁named	-9.2891
▁admit	-9.28926
▁possibly	-9.29001
▁wasted	-9.29047
▁within	-9.29108
ie	-9.29144
▁showing	-9.29147
")	-9.29266
▁fails	-9.2934
▁easy	-9.29386
▁comment	-9.29393
▁learn	-9.29395
▁apparently	-9.29457
▁development	-9.29587
able	-9.29639
▁particular	-9.29663
▁credits	-9.2977
▁question	-9.29792
▁Jack	-9.29809
▁power	-9.29824
▁weird	-9.30127
▁sequences	-9.30265
▁forward	-9.30348
▁screenplay	-9.30407
f	-9.30442
▁means	-9.30574
▁certain	-9.30689
est	-9.30907
▁eye	-9.3114
!)	-9.31231
▁wait	-9.3124
▁anyway	-9.31272
▁mystery	-9.31441
▁imagine	-9.31497
▁suspense	-9.31627
▁deal	-9.3178
▁moving	-9.3189
▁parents	-9.31939
G	-9.31986
▁viewers	-9.32037
▁difficult	-9.32164
▁needed	-9.32429
▁please	-9.32565
▁footage	-9.32661
So	-9.32722
▁realize	-9.32792
▁IMDb	-9.32874
▁potential	-9.32958
▁Christmas	-9.33099
for	-9.33194
▁whether	-9.333
no	-9.33374
▁fantastic	-9.33469
▁became	-9.33505
▁believable	-9.3351
not	-9.33706
▁begins	-9.33746
▁city	-9.3375
▁result	-9.33819
▁Like	-9.34017
▁Yes	-9.34156
▁brough	-9.34187
so	-9.34247
My	-9.34275
▁sexual	-9.34471
h	-9.3451
▁free	-9.34522
▁pay	-9.34627
▁forced	-9.34631
▁leads	-9.34657
▁laughs	-9.34685
▁War	-9.34711
▁Ben	-9.34715
▁dance	-9.34733
▁plain	-9.34877
▁shame	-9.34911
▁An	-9.34923
▁cheesy	-9.35202
E	-9.35429
▁third	-9.35437
▁somehow	-9.35468
u	-9.35675
▁box	-9.35746
▁filmed	-9.35801
ting	-9.36012
▁directing	-9.36186
▁ask	-9.36223
▁flat	-9.36256
▁previous	-9.36367
▁check	-9.36386
fi	-9.36689
▁Japanese	-9.36721
▁reading	-9.36746
▁cover	-9.36909
▁surprise	-9.37374
▁truth	-9.37374
▁realistic	-9.37408
of	-9.37769
▁season	-9.37795
▁casting	-9.38047
▁writers	-9.38194
▁incredibly	-9.38236
▁nudity	-9.38242
▁total	-9.38259
▁cop	-9.38312
▁situation	-9.38385
at	-9.38388
▁interested	-9.38481
▁worked	-9.38547
▁gone	-9.38672
▁effect	-9.38835
▁gay	-9.38922
▁nor	-9.39536
▁older	-9.3965
▁remake	-9.39741
▁expecting	-9.39787
▁greatest	-9.39904
▁background	-9.39974
▁earlier	-9.40238
▁hot	-9.40392
▁bored	-9.40504
▁agree	-9.4074
ity	-9.40787
▁From	-9.40873
▁atmosphere	-9.4092
▁break	-9.40943
▁forget	-9.41014
▁male	-9.4114
▁appear	-9.41232
▁setting	-9.41633
▁copy	-9.41678
▁Most	-9.41813
▁French	-9.41832
el	-9.41877
▁H	-9.42068
▁quickly	-9.42116
▁positive	-9.42173
▁meant	-9.42262
▁sorry	-9.42369
▁leaves	-9.42545
▁These	-9.42593
▁general	-9.42626
▁villain	-9.42749
▁girlfriend	-9.42795
▁keeps	-9.42877
▁front	-9.42972
▁open	-9.43117
▁Do	-9.4327
▁features	-9.43439
....	-9.4345
▁twist	-9.43548
one	-9.43573
ion	-9.43763
▁pointless	-9.43807
ce	-9.4385
▁Scott	-9.43955
▁ways	-9.44125
▁avoid	-9.44239
▁romance	-9.44427
▁M	-9.44831
▁30	-9.44881
▁spent	-9.45324
less	-9.45432
▁dream	-9.45602
▁dramatic	-9.45628
▁meet	-9.45701
▁missing	-9.45767
▁fairly	-9.45868
▁list	-9.45965
▁value	-9.46113
▁memorable	-9.46273
▁hardly	-9.46302
▁nature	-9.46375
▁clever	-9.46512
▁create	-9.46714
if	-9.47075
▁directors	-9.47774
▁cartoon	-9.4782
▁business	-9.47943
1	-9.48123
▁talented	-9.48458
▁miss	-9.48649
▁hands	-9.48728
▁wrote	-9.4873
▁laughing	-9.48799
▁acted	-9.48869
▁lots	-9.4894
▁garbage	-9.49175
?)	-9.49258
▁L	-9.49258
▁deserves	-9.49308
▁gun	-9.49331
▁present	-9.49428
▁Bill	-9.49431
▁US	-9.4954
▁K	-9.49613
▁superb	-9.49767
▁fighting	-9.49869
▁trash	-9.50224
▁creepy	-9.50424
▁leading	-9.50454
▁air	-9.50459
▁crazy	-9.50689
▁attempts	-9.50756
▁emotional	-9.5082
▁public	-9.50854
▁cute	-9.5098
▁portrayed	-9.5099
▁eventually	-9.51175
▁rate	-9.51252
▁political	-9.5134
▁monster	-9.51368
W	-9.51393
▁various	-9.51414
▁stick	-9.5164
▁store	-9.51641
us	-9.51654
▁pathetic	-9.51687
▁plenty	-9.51687
▁success	-9.51856
▁waiting	-9.51985
ish	-9.52146
▁deep	-9.52277
▁era	-9.52379
All	-9.52464
▁crew	-9.52477
▁unless	-9.52512
▁sounds	-9.52672
▁lady	-9.52699
▁Here	-9.52784
▁fantasy	-9.52956
▁personal	-9.53168
▁tension	-9.53203
▁Italian	-9.53209
▁yes	-9.53476
▁convincing	-9.53595
▁water	-9.53613
▁meets	-9.53642
F	-9.53658
▁mentioned	-9.53703
▁space	-9.53773
▁towards	-9.53792
▁whatever	-9.54139
▁reasons	-9.54221
▁ideas	-9.5451
▁hair	-9.54527
ar	-9.54576
N	-9.54599
ies	-9.54682
▁concept	-9.54715
▁unfortunately	-9.54811
▁appreciate	-9.54865
movie	-9.54935
▁speak	-9.54982
▁choice	-9.54991
▁Instead	-9.55043
▁consider	-9.55156
▁indeed	-9.55271
▁failed	-9.55346
▁note	-9.55371
▁manages	-9.55424
▁weren	-9.55434
▁adult	-9.55493
▁filmmakers	-9.55541
▁masterpiece	-9.55544
time	-9.55734
this	-9.55749
O	-9.55774
▁unique	-9.55922
▁ended	-9.56053
▁battle	-9.56121
▁odd	-9.56267
L	-9.56332
▁married	-9.56339
▁missed	-9.56469
▁brings	-9.5657
▁credit	-9.56701
▁fake	-9.56725
▁kills	-9.56837
▁b	-9.57013
▁telling	-9.57393
▁doctor	-9.57408
▁inside	-9.57442
old	-9.57527
ter	-9.57533
▁15	-9.57632
▁William	-9.57759
▁pace	-9.57786
▁perfectly	-9.57942
▁Watch	-9.58089
▁shooting	-9.58104
▁sub	-9.58208
▁U	-9.58237
▁walk	-9.58436
▁whom	-9.58497
▁recently	-9.58826
▁society	-9.58992
You	-9.59192
be	-9.59231
▁fire	-9.59252
▁W	-9.59254
▁laughable	-9.59289
▁J	-9.59475
▁biggest	-9.59534
▁barely	-9.59832
▁accent	-9.59879
3	-9.59955
▁amusing	-9.59963
ton	-9.60024
▁popular	-9.60083
▁pure	-9.60123
▁produced	-9.60212
▁By	-9.60247
▁further	-9.60353
▁common	-9.60367
▁Movie	-9.6052
▁Joe	-9.60636
▁language	-9.60649
with	-9.60845
▁rich	-9.60894
▁earth	-9.60937
▁dog	-9.60979
▁90	-9.61109
il	-9.61204
▁producers	-9.61251
▁sick	-9.61416
▁disappointment	-9.61463
▁slightly	-9.61492
▁dancing	-9.61498
▁conclusion	-9.61842
▁members	-9.61899
▁respect	-9.62056
▁otherwise	-9.62061
▁bizarre	-9.62186
▁Film	-9.62202
▁amount	-9.62242
▁slasher	-9.62322
▁excuse	-9.62429
▁following	-9.62621
▁disappointing	-9.62629
▁entirely	-9.62661
▁Mary	-9.6268
Y	-9.62708
▁created	-9.62739
▁caught	-9.62863
▁beauty	-9.62872
▁German	-9.62949
ra	-9.6302
▁large	-9.63287
▁unbelievable	-9.63429
2	-9.6349
▁ex	-9.63492
▁visual	-9.63757
▁filled	-9.64138
▁basic	-9.64278
▁college	-9.6429
▁decides	-9.64383
▁died	-9.64517
▁outside	-9.64899
ism	-9.64941
▁explain	-9.64952
▁World	-9.65168
▁Let	-9.65244
▁project	-9.65323
▁social	-9.6541
▁win	-9.65456
▁powerful	-9.65617
▁bought	-9.65724
▁control	-9.6575
▁decide	-9.65784
that	-9.65804
▁brain	-9.65981
▁familiar	-9.66021
▁exciting	-9.66023
w	-9.66116
▁secret	-9.6614
▁red	-9.66193
▁depth	-9.66241
▁showed	-9.66446
▁painful	-9.66498
▁Good	-9.66498
▁fit	-9.66502
▁ones	-9.66546
▁former	-9.66578
▁apart	-9.66767
▁portrayal	-9.66815
▁chemistry	-9.66901
▁cult	-9.66916
▁anti	-9.66953
▁intelligent	-9.6708
▁Al	-9.67095
▁longer	-9.67516
One	-9.67534
▁trouble	-9.67564
▁situations	-9.6758
▁week	-9.67636
▁Night	-9.67789
▁younger	-9.678
▁appeal	-9.67942
▁nowhere	-9.68123
▁Perhaps	-9.6819
▁bother	-9.68221
▁computer	-9.68333
▁track	-9.68383
▁singing	-9.68493
▁moves	-9.68513
ian	-9.68552
▁recent	-9.68554
▁neither	-9.6867
▁purpose	-9.68863
▁impossible	-9.68972
▁Star	-9.69046
▁Black	-9.69073
te	-9.69194
ist	-9.69234
▁sitting	-9.69288
▁compared	-9.69399
▁utterly	-9.69649
▁finish	-9.69705
▁mistake	-9.69815
▁changed	-9.69836
▁studio	-9.69876
▁focus	-9.7011
starring	-9.70152
▁uses	-9.70161
▁Great	-9.70283
▁camp	-9.70364
▁appearance	-9.70464
▁disturbing	-9.70496
▁considered	-9.70649
▁shoot	-9.70732
▁boys	-9.70865
off	-9.70998
▁post	-9.71033
▁rock	-9.71043
▁super	-9.71059
▁impression	-9.71077
▁pick	-9.71177
un	-9.71182
▁follows	-9.71255
ch	-9.71337
▁baby	-9.71419
▁suddenly	-9.7145
▁bar	-9.71561
▁successful	-9.71607
▁values	-9.71619
▁Smith	-9.71725
▁Stewart	-9.71752
▁band	-9.71755
son	-9.7184
▁Sam	-9.71896
▁taste	-9.72053
▁culture	-9.72091
▁revenge	-9.72337
▁okay	-9.72358
▁tough	-9.72415
▁pass	-9.72577
▁glad	-9.72634
▁meaning	-9.72645
▁office	-9.72665
▁Earth	-9.72678
▁ability	-9.72777
▁impressive	-9.72946
▁London	-9.72966
▁aspect	-9.7298
▁exception	-9.73
making	-9.73091
▁sweet	-9.73267
▁honest	-9.73382
▁Director	-9.73411
▁100	-9.73668
▁state	-9.73867
la	-9.73868
▁awesome	-9.73886
ally	-9.73907
▁zombie	-9.73964
▁escape	-9.74112
▁loud	-9.74118
▁solid	-9.74175
▁sci	-9.74448
▁questions	-9.74543
▁Go	-9.74555
▁added	-9.74781
ation	-9.74846
▁hoping	-9.74859
▁standard	-9.7494
▁leaving	-9.75173
▁rare	-9.75356
ever	-9.75445
▁somewhere	-9.75548
▁suppose	-9.75658
▁Another	-9.75702
▁considering	-9.75744
▁8	-9.75748
▁mysterious	-9.75817
▁books	-9.75953
▁expectations	-9.76047
▁7	-9.76123
▁Love	-9.76226
▁touch	-9.76417
▁heavy	-9.76484
▁generally	-9.76604
ty	-9.76632
▁charming	-9.76657
▁mood	-9.76704
▁return	-9.76824
▁makers	-9.76889
▁Indian	-9.77223
▁Best	-9.77223
▁incredible	-9.77444
▁scenery	-9.77472
do	-9.77508
▁western	-9.77567
▁("	-9.77768
▁Frank	-9.77991
▁involving	-9.78096
▁humour	-9.78398
▁Every	-9.78485
▁Dead	-9.785
▁managed	-9.78512
▁Me	-9.78606
▁tired	-9.78746
▁trip	-9.78794
▁People	-9.78813
▁adaptation	-9.78861
▁violent	-9.7896
▁victim	-9.79228
▁runs	-9.7943
▁80	-9.7949
▁effective	-9.79591
▁Only	-9.79717
▁company	-9.79733
▁military	-9.79758
▁6	-9.79941
▁gang	-9.80092
▁cause	-9.80192
▁9	-9.8023
▁paid	-9.80431
▁cold	-9.80441
▁boyfriend	-9.80443
by	-9.80525
▁City	-9.80787
▁god	-9.81028
▁redeeming	-9.81126
▁40	-9.81174
▁marriage	-9.81406
V	-9.81425
▁door	-9.81448
▁catch	-9.81449
▁Jim	-9.81498
▁mediocre	-9.81758
▁ultimately	-9.81805
▁laughed	-9.81958
▁presence	-9.82087
▁remote	-9.82087
▁party	-9.82202
▁suggest	-9.82248
▁Will	-9.82444
▁thrown	-9.82457
▁soldiers	-9.82518
▁twists	-9.82744
▁prison	-9.83072
▁happening	-9.83213
▁House	-9.83214
▁trailer	-9.83365
▁genius	-9.83458
▁comedies	-9.83485
▁costumes	-9.83516
▁train	-9.83567
▁normal	-9.83766
ling	-9.83784
▁match	-9.83785
▁immediately	-9.83829
▁drive	-9.84009
▁manner	-9.84049
For	-9.84214
▁spirit	-9.84272
▁charm	-9.84467
▁mad	-9.84579
na	-9.84779
▁oh	-9.84803
▁zombies	-9.8484
▁suffer	-9.84845
▁sexy	-9.8485
▁audiences	-9.84862
▁porn	-9.84863
▁stunning	-9.84865
▁sent	-9.84867
▁Young	-9.84941
▁fear	-9.84978
▁V	-9.85034
▁appeared	-9.85085
you	-9.85138
▁walking	-9.85148
▁climax	-9.85213
▁confusing	-9.85222
▁80'	-9.85249
▁cat	-9.85364
▁random	-9.85447
▁adventure	-9.85503
▁vampire	-9.85512
▁street	-9.85517
▁support	-9.85519
well	-9.85553
▁images	-9.85669
▁Big	-9.8568
ine	-9.85721
▁fair	-9.85751
all	-9.85803
▁cinematic	-9.85924
ment	-9.85973
▁drawn	-9.85999
▁f	-9.86037
▁terms	-9.86119
even	-9.86163
▁wondering	-9.86188
ri	-9.86189
▁rented	-9.86196
▁Van	-9.86213
▁photography	-9.86286
▁literally	-9.8635
▁throw	-9.86357
To	-9.86468
▁likely	-9.8661
▁animated	-9.86681
▁pre	-9.86877
▁silent	-9.86878
▁wooden	-9.86996
▁Martin	-9.87003
▁intended	-9.87027
▁p	-9.87049
▁content	-9.87083
v	-9.87151
▁answer	-9.87159
▁pain	-9.87369
▁government	-9.87369
▁Henry	-9.87417
▁Jones	-9.8744
▁Tim	-9.87646
▁smart	-9.87784
ach	-9.87875
▁innocent	-9.87968
▁alive	-9.87982
go	-9.87989
▁sleep	-9.8802
▁offer	-9.88137
▁soul	-9.88302
▁date	-9.88361
▁magic	-9.88416
▁details	-9.88526
▁lighting	-9.88602
▁contains	-9.88723
▁opportunity	-9.88803
▁student	-9.88806
▁equally	-9.88848
▁Very	-9.88924
▁negative	-9.8918
▁drug	-9.89234
budget	-9.89328
▁chase	-9.8942
▁historical	-9.89451
▁shock	-9.89472
▁aspects	-9.89502
▁terrific	-9.89541
▁century	-9.8957
▁plus	-9.89595
▁Because	-9.89614
▁Where	-9.89721
▁presented	-9.89754
▁students	-9.89922
▁fell	-9.89923
▁outstanding	-9.89927
▁nobody	-9.89943
▁Bad	-9.8998
▁Nothing	-9.89987
▁honestly	-9.90056
▁issues	-9.90132
▁Charles	-9.90164
▁sat	-9.90239
▁narrative	-9.90282
▁OF	-9.90287
▁regard	-9.90329
▁constantly	-9.9036
▁names	-9.90395
▁lacks	-9.90517
▁brief	-9.90552
▁available	-9.90649
▁50	-9.90748
▁Two	-9.90782
▁bed	-9.90825
▁whatsoever	-9.91021
▁tone	-9.91104
▁Still	-9.91141
▁remains	-9.91222
▁emotion	-9.91394
▁imagination	-9.91396
▁spot	-9.91406
▁Charlie	-9.91435
▁road	-9.91684
▁likable	-9.91785
me	-9.92089
▁rated	-9.92336
▁describe	-9.92441
▁natural	-9.92443
▁mouth	-9.92471
▁fully	-9.92591
▁dies	-9.92639
line	-9.92653
ne	-9.92799
▁naked	-9.92932
▁force	-9.93203
▁mix	-9.93278
▁knowing	-9.93296
▁planet	-9.93348
ul	-9.936
ry	-9.93651
▁confused	-9.93705
▁opera	-9.93823
H	-9.93957
▁Can	-9.93959
▁attractive	-9.94077
ge	-9.94118
▁touching	-9.94321
▁minor	-9.94443
▁fascinating	-9.94447
▁fresh	-9.94451
▁science	-9.94486
▁Chris	-9.94566
▁color	-9.94753
▁afraid	-9.94844
▁direct	-9.94855
▁slowly	-9.9486
▁detective	-9.94946
▁actresses	-9.94962
▁blame	-9.95091
▁Sure	-9.95239
▁Steve	-9.9534
That	-9.95428
▁Too	-9.9556
co	-9.95686
▁attack	-9.95709
▁scientist	-9.95759
▁join	-9.95771
▁lovely	-9.95911
▁rip	-9.9597
lo	-9.95984
▁anymore	-9.96051
▁AND	-9.96069
▁folks	-9.96095
▁murders	-9.96098
▁difference	-9.96123
▁include	-9.9639
▁10.	-9.96391
▁hospital	-9.96397
▁flicks	-9.96456
▁surprisingly	-9.96506
▁element	-9.96526
▁serial	-9.96531
▁motion	-9.96633
▁shocking	-9.96669
▁standards	-9.9671
▁Bo	-9.96745
▁changes	-9.96779
age	-9.96836
▁dad	-9.96902
▁Re	-9.97117
▁stuck	-9.97189
▁step	-9.97203
▁funniest	-9.97204
▁South	-9.97241
▁developed	-9.97346
▁acts	-9.97447
▁filmmaker	-9.97484
▁building	-9.97547
▁complex	-9.97577
▁bottom	-9.97619
▁Story	-9.9766
▁Christopher	-9.97663
▁Though	-9.9771
z	-9.97762
▁victims	-9.97807
▁critics	-9.97908
▁double	-9.97991
ous	-9.98029
▁Eddie	-9.98057
de	-9.98065
▁hasn	-9.98137
▁absurd	-9.9825
▁dreams	-9.98278
▁bland	-9.98397
We	-9.98518
▁stands	-9.98531
▁Please	-9.98568
good	-9.98621
▁ride	-9.98998
▁recommended	-9.99109
▁latter	-9.99197
▁subtle	-9.9922
▁deserve	-9.99249
▁ahead	-9.99374
▁send	-9.99402
▁Christian	-9.99436
▁key	-9.99568
▁island	-9.99589
▁compelling	-9.99664
▁station	-9.99829
▁pull	-9.99842
▁sadly	-9.99973
▁La	-9.99982
▁clothes	-10.0001
▁Jerry	-10.0006
▁addition	-10.0023
▁mid	-10.0032
▁childhood	-10.0043
▁ready	-10.0044
▁numbers	-10.005
▁channel	-10.0064
▁lover	-10.0072
▁Other	-10.0076
▁unlike	-10.0082
▁forgotten	-10.0087
▁edge	-10.0088
▁Allen	-10.0091
▁soap	-10.0091
▁pictures	-10.0095
▁notice	-10.0101
▁damn	-10.0113
em	-10.0119
▁allow	-10.0123
▁current	-10.0127
▁pleasure	-10.0129
▁IS	-10.014
▁noir	-10.0143
▁disaster	-10.0147
&	-10.015
▁million	-10.0154
▁extreme	-10.0158
▁relationships	-10.016
▁boss	-10.0164
▁fellow	-10.0167
▁turning	-10.0174
▁Arthur	-10.0174
▁putting	-10.0176
▁beautifully	-10.0189
▁plan	-10.0234
▁absolute	-10.0241
what	-10.0255
▁holes	-10.0256
▁falling	-10.0258
▁emotions	-10.0288
▁teen	-10.0289
▁unfunny	-10.0292
▁animals	-10.03
Now	-10.0307
▁supposedly	-10.0315
▁deliver	-10.0318
▁intelligence	-10.0334
▁rubbish	-10.0335
▁70	-10.0345
com	-10.0346
▁ground	-10.035
ial	-10.0353
▁c	-10.0357
▁extra	-10.036
▁teacher	-10.0365
▁followed	-10.0366
▁forever	-10.0366
ro	-10.0368
▁race	-10.037
▁unnecessary	-10.0376
▁twice	-10.0377
▁adults	-10.0378
▁ugly	-10.038
▁places	-10.0387
▁affair	-10.0403
▁pop	-10.0407
▁Was	-10.0411
He	-10.0422
▁Mark	-10.0444
When	-10.0447
▁nasty	-10.0462
▁collection	-10.0462
▁information	-10.0465
▁impressed	-10.0466
▁Jean	-10.0469
▁Paris	-10.0469
▁becoming	-10.0474
ley	-10.0475
▁watchable	-10.0483
▁gem	-10.0491
▁image	-10.0494
▁location	-10.0495
▁Rock	-10.05
▁surely	-10.0504
▁industry	-10.0505
▁Shakespeare	-10.0506
▁Hitler	-10.0508
▁filming	-10.0511
▁Batman	-10.0514
year	-10.0522
Don	-10.0536
▁creative	-10.0539
▁six	-10.0545
▁apartment	-10.0548
▁mom	-10.0551
ful	-10.0552
▁shouldn	-10.0555
▁Overall	-10.0561
am	-10.0563
▁fashion	-10.0564
▁share	-10.0565
▁lived	-10.0566
▁picked	-10.0568
▁ghost	-10.0571
▁themes	-10.0578
▁teenage	-10.0587
▁Lynch	-10.0592
▁approach	-10.0595
▁Ms	-10.0597
▁Yet	-10.0598
▁detail	-10.0609
▁member	-10.0615
▁Did	-10.0615
▁rape	-10.0616
ig	-10.062
U	-10.0621
▁mainly	-10.0635
▁producer	-10.0637
▁justice	-10.0642
No	-10.0649
um	-10.065
▁Billy	-10.065
mo	-10.0658
▁struggle	-10.0669
▁West	-10.0672
▁moral	-10.0692
▁proves	-10.0694
▁cry	-10.0703
▁phone	-10.0703
director	-10.0708
ur	-10.0711
▁compare	-10.0712
▁tend	-10.0713
▁hated	-10.072
▁See	-10.072
▁accident	-10.0721
▁favor	-10.0721
▁exist	-10.0724
▁thin	-10.0725
▁feelings	-10.0726
▁quick	-10.0742
▁flaws	-10.0752
▁design	-10.0754
▁seconds	-10.0757
▁N	-10.0762
▁gorgeous	-10.0766
over	-10.0777
▁beat	-10.0781
Overall	-10.0797
▁CGI	-10.0814
▁mark	-10.082
bad	-10.0832
ING	-10.0835
▁ship	-10.0842
▁journey	-10.0857
▁Kelly	-10.0858
▁artistic	-10.0861
▁area	-10.0873
Oh	-10.0879
▁suspect	-10.088
▁mental	-10.0887
▁pretentious	-10.0898
▁angry	-10.091
▁allowed	-10.0917
▁carry	-10.0924
▁asks	-10.0938
Well	-10.0938
▁Nick	-10.0942
▁pilot	-10.0946
▁club	-10.0948
▁genuine	-10.0955
▁ill	-10.096
▁delivers	-10.0961
▁build	-10.0963
▁treat	-10.097
▁aside	-10.0974
▁hurt	-10.0985
▁thoroughly	-10.099
▁comedic	-10.0991
▁wearing	-10.1006
▁professional	-10.1024
▁soft	-10.1027
▁system	-10.1031
▁sucks	-10.1034
▁terribly	-10.1034
▁central	-10.1035
▁Bruce	-10.104
▁draw	-10.1062
▁torture	-10.1068
▁giant	-10.1076
Not	-10.108
▁energy	-10.1082
▁seemingly	-10.1083
▁anywhere	-10.1084
▁religious	-10.1084
▁wall	-10.1086
▁listen	-10.1115
▁realized	-10.1116
▁Jr	-10.113
▁Jane	-10.113
▁Ed	-10.114
▁utter	-10.1141
▁thinks	-10.1146
▁worthy	-10.1148
▁drugs	-10.117
she	-10.1171
▁dying	-10.1172
▁70'	-10.1172
▁Fred	-10.1181
▁Ray	-10.1189
▁sight	-10.1194
▁discover	-10.1195
▁offers	-10.12
▁Anyway	-10.1206
▁Americans	-10.1208
▁explanation	-10.1216
▁pacing	-10.1217
▁commentary	-10.1218
▁personality	-10.1219
land	-10.1222
▁Horror	-10.1224
▁fiction	-10.1228
▁Little	-10.1229
▁began	-10.1235
▁Once	-10.1237
▁onto	-10.1237
▁pieces	-10.1251
▁apparent	-10.1252
▁Many	-10.1255
▁superior	-10.1264
▁Taylor	-10.1267
▁Keaton	-10.1267
▁:	-10.1293
▁physical	-10.1299
▁player	-10.1304
▁joy	-10.131
▁woods	-10.1311
▁tragic	-10.1312
▁fill	-10.1317
▁Despite	-10.1332
4	-10.1337
5	-10.1342
rely	-10.1346
▁drunk	-10.1356
▁hotel	-10.1359
▁nonsense	-10.1362
▁land	-10.1381
▁explained	-10.1382
▁intense	-10.1392
▁provides	-10.1398
▁Douglas	-10.1404
▁process	-10.1404
▁everybody	-10.1405
▁lose	-10.1405
▁****	-10.1405
▁agent	-10.1409
▁Both	-10.141
▁creature	-10.1412
▁held	-10.1423
▁finished	-10.1427
▁suit	-10.1449
▁speaking	-10.145
▁count	-10.1453
▁gotten	-10.1453
▁heroine	-10.1458
▁Stephen	-10.1458
▁sucked	-10.1462
▁12	-10.1473
▁accurate	-10.1487
▁Red	-10.1487
▁army	-10.1503
▁Be	-10.1511
▁accept	-10.1514
▁scared	-10.1514
life	-10.1521
▁St	-10.1544
▁sign	-10.1547
▁independent	-10.1548
▁puts	-10.1553
▁provide	-10.1556
▁Day	-10.1559
▁technical	-10.1582
▁Their	-10.1582
▁brutal	-10.1583
especially	-10.1584
▁advice	-10.1599
??	-10.1601
▁below	-10.161
▁anybody	-10.1616
film	-10.1616
▁Miss	-10.162
▁desperate	-10.1631
▁criminal	-10.164
▁tragedy	-10.1642
▁Jason	-10.1652
▁epic	-10.1654
rs	-10.1657
▁fail	-10.1663
▁smile	-10.1684
▁conflict	-10.1685
▁gags	-10.1691
▁Sean	-10.1698
▁length	-10.1699
▁Everything	-10.1701
▁record	-10.1701
▁mere	-10.1723
▁dreadful	-10.1727
▁floor	-10.1739
▁Moore	-10.174
▁stock	-10.1743
▁Jesus	-10.1744
▁instance	-10.1748
▁loose	-10.1753
▁cops	-10.1756
▁master	-10.1777
we	-10.1786
▁1950	-10.1788
▁amateurish	-10.1788
▁impact	-10.179
looking	-10.1792
▁cross	-10.1807
American	-10.1829
▁thanks	-10.1833
▁cable	-10.1842
▁Having	-10.1851
▁High	-10.1852
▁reviewers	-10.1853
▁rarely	-10.1855
▁personally	-10.1863
▁hadn	-10.1864
▁60	-10.1876
▁necessary	-10.1886
▁Harris	-10.1887
▁wide	-10.1887
▁martial	-10.1888
▁THIS	-10.1889
▁Santa	-10.1897
see	-10.1907
▁finding	-10.1908
▁bright	-10.1916
▁law	-10.1923
▁horse	-10.1927
▁Jackson	-10.1937
▁led	-10.1943
▁players	-10.1943
▁limited	-10.1944
▁noticed	-10.1952
▁treated	-10.1953
▁roll	-10.1968
▁moved	-10.197
ia	-10.1978
▁intriguing	-10.1986
▁responsible	-10.1987
▁Davis	-10.1987
▁Chinese	-10.1988
▁fault	-10.1993
▁Adam	-10.1999
▁includes	-10.2019
▁site	-10.2024
▁Williams	-10.2027
On	-10.2028
▁behavior	-10.2035
▁memories	-10.2035
▁tedious	-10.2035
▁suicide	-10.2037
▁Show	-10.2037
▁faces	-10.2041
▁jump	-10.2065
▁Ford	-10.2074
▁shallow	-10.2084
▁unknown	-10.2086
▁adds	-10.2089
▁somebody	-10.2089
▁food	-10.2089
▁favourite	-10.2101
▁painfully	-10.2106
▁shop	-10.2122
▁crappy	-10.2136
side	-10.2143
▁willing	-10.2144
▁delightful	-10.2146
▁winning	-10.2147
▁screaming	-10.2149
▁desert	-10.2172
▁helped	-10.2182
▁passion	-10.2184
▁memory	-10.2187
▁sake	-10.2187
ized	-10.219
▁continue	-10.2192
nd	-10.2195
▁deserved	-10.2195
▁youth	-10.22
▁destroy	-10.2201
▁manage	-10.2206
▁tape	-10.2207
▁issue	-10.2214
▁brothers	-10.2217
.....	-10.2222
▁asked	-10.2231
▁murdered	-10.2236
ad	-10.2237
▁1970	-10.2238
▁Kevin	-10.2243
▁bank	-10.2245
▁Since	-10.2251
▁theatre	-10.2258
▁la	-10.2261
▁lacking	-10.2283
▁1980	-10.2289
▁pile	-10.2293
▁summer	-10.2294
▁introduced	-10.2295
▁inspired	-10.2298
▁award	-10.2302
▁13	-10.2311
ha	-10.2312
▁Stone	-10.2313
▁wild	-10.2332
▁hopes	-10.2334
▁formula	-10.2339
▁irritating	-10.2341
▁empty	-10.2341
▁engaging	-10.2342
▁lousy	-10.2343
don	-10.2343
▁wanting	-10.2353
her	-10.2357
▁pulled	-10.2359
▁pleasant	-10.2363
▁deeply	-10.2365
▁embarrassing	-10.2384
Even	-10.2387
▁cash	-10.2392
▁twenty	-10.2393
▁VHS	-10.2394
▁kinda	-10.2396
▁born	-10.24
▁Ma	-10.2416
???	-10.2416
▁author	-10.2418
▁European	-10.2421
▁partner	-10.2422
they	-10.2439
▁saved	-10.2442
▁religion	-10.2444
▁substance	-10.2444
▁Everyone	-10.2452
▁Danny	-10.2453
▁ruin	-10.2454
top	-10.2458
men	-10.2458
▁talents	-10.2467
mon	-10.2468
▁comparison	-10.2468
▁guns	-10.2469
▁constant	-10.2485
▁surprising	-10.2487
▁dangerous	-10.2497
there	-10.2501
▁humorous	-10.2501
▁disgusting	-10.2502
▁concerned	-10.2508
▁mine	-10.2511
▁dis	-10.2518
▁Street	-10.2524
▁portray	-10.2537
▁tears	-10.254
▁context	-10.2549
▁consist	-10.255
▁contrived	-10.255
▁costs	-10.2551
ma	-10.2553
▁Anthony	-10.2555
▁Joan	-10.2557
▁practical	-10.2558
▁Kate	-10.2561
▁White	-10.2561
▁capture	-10.2563
▁fat	-10.2565
▁vision	-10.259
▁quiet	-10.259
per	-10.2594
ent	-10.2602
▁satire	-10.2603
▁Luke	-10.2608
▁Harry	-10.2608
▁media	-10.2612
▁included	-10.2621
▁debut	-10.2624
▁event	-10.2633
▁kick	-10.2644
▁cameo	-10.2648
▁knowledge	-10.2656
▁corny	-10.2657
▁lies	-10.2661
▁Johnny	-10.2664
▁boat	-10.2667
▁Asian	-10.267
▁Che	-10.2672
▁dated	-10.2681
▁loves	-10.2686
▁officer	-10.2689
▁insult	-10.2701
Also	-10.2705
However	-10.2705
▁Morgan	-10.2708
ive	-10.2709
id	-10.2711
▁dry	-10.2711
▁cars	-10.2726
▁Park	-10.2761
ier	-10.2763
▁driving	-10.2765
▁Gary	-10.2775
▁skills	-10.2775
▁develop	-10.2777
▁bits	-10.278
J	-10.2783
▁Bob	-10.2783
▁bloody	-10.279
▁alien	-10.28
▁visit	-10.2812
▁months	-10.2812
although	-10.2815
▁hidden	-10.2819
▁bigger	-10.282
▁search	-10.2832
▁assume	-10.2834
▁sing	-10.2839
▁Wood	-10.2848
▁failure	-10.2848
▁chick	-10.2854
though	-10.2855
▁judge	-10.2857
▁awkward	-10.2857
▁II	-10.2859
▁curious	-10.2859
▁sees	-10.2863
▁church	-10.2869
▁gratuitous	-10.2871
▁helps	-10.2872
▁remarkable	-10.2873
▁fame	-10.2874
);	-10.2878
▁Really	-10.2883
▁Which	-10.2885
ueen	-10.2889
▁warning	-10.289
▁stereotypes	-10.2893
▁blue	-10.2907
▁artist	-10.2909
ary	-10.2921
▁zero	-10.293
▁r	-10.2937
!!!!	-10.2941
▁mixed	-10.2948
▁prove	-10.2952
▁program	-10.296
▁amateur	-10.2967
▁unusual	-10.2969
▁regular	-10.2972
ee	-10.298
▁NO	-10.2981
▁stopped	-10.2982
▁range	-10.2996
▁Okay	-10.2998
▁Avoid	-10.3009
▁arts	-10.3024
▁sea	-10.3025
▁Brown	-10.3031
▁opposite	-10.3036
▁grew	-10.3036
▁gonna	-10.3037
▁seven	-10.3037
▁Dark	-10.3042
▁wedding	-10.3042
▁dealing	-10.3043
▁wonderfully	-10.3044
▁locations	-10.3052
!).	-10.3061
▁commercial	-10.3064
▁Russian	-10.3076
ner	-10.3079
▁therefore	-10.3092
▁excited	-10.3093
▁skip	-10.3094
▁travel	-10.3096
▁Superman	-10.3099
▁asleep	-10.3103
work	-10.311
▁plane	-10.311
▁toward	-10.3117
8	-10.3117
way	-10.3131
ant	-10.3139
screen	-10.3145
▁Men	-10.3149
▁/	-10.3149
▁thus	-10.3152
im	-10.3156
ize	-10.3158
▁received	-10.3159
▁ruined	-10.3163
▁?	-10.317
▁18	-10.3171
▁lets	-10.3172
▁desire	-10.3173
▁parody	-10.3186
▁appealing	-10.3189
▁grade	-10.3191
▁understanding	-10.3194
▁community	-10.3204
▁village	-10.3207
7	-10.3208
▁Nancy	-10.3209
▁gold	-10.321
▁rental	-10.321
▁Those	-10.3214
▁news	-10.3223
▁Ra	-10.3228
▁blonde	-10.3233
▁returns	-10.3242
▁soldier	-10.3249
▁Steven	-10.3255
▁radio	-10.326
▁reviewer	-10.3262
▁creating	-10.3262
▁psychological	-10.3263
▁witty	-10.3263
▁majority	-10.3263
se	-10.327
▁foot	-10.3275
▁con	-10.3278
▁Wow	-10.3286
▁Anne	-10.3288
▁display	-10.3294
▁trust	-10.3295
▁paper	-10.3307
▁heads	-10.3308
▁loss	-10.3316
▁villains	-10.3316
▁Japan	-10.3318
▁atrocious	-10.3319
▁aware	-10.332
▁Alex	-10.3324
▁recall	-10.3325
▁Jackie	-10.3326
▁yeah	-10.3331
played	-10.3345
▁clue	-10.3362
▁loses	-10.3369
▁England	-10.3375
▁offensive	-10.3376
▁Spanish	-10.3378
▁gross	-10.3378
▁semi	-10.3378
ke	-10.338
▁entertained	-10.3386
▁involves	-10.3392
x	-10.3409
▁window	-10.3418
▁animal	-10.3423
▁Chan	-10.3428
▁horribly	-10.3432
▁THAT	-10.3432
▁depressing	-10.3433
▁friendship	-10.3433
▁promising	-10.3435
9	-10.3435
▁humanity	-10.3436
▁endless	-10.3438
▁Mike	-10.3439
▁grown	-10.3439
▁Eric	-10.3443
▁Part	-10.3464
▁lovers	-10.347
They	-10.3471
▁fights	-10.3479
▁warm	-10.3484
▁starting	-10.3485
▁uninteresting	-10.349
▁executed	-10.3494
▁Alan	-10.3507
ho	-10.3507
▁e	-10.3511
ate	-10.3523
▁vehicle	-10.3538
▁machine	-10.354
▁loving	-10.3546
▁faith	-10.3547
While	-10.3548
Some	-10.3549
▁MST	-10.3551
▁eat	-10.3559
▁laughter	-10.356
star	-10.3569
Then	-10.357
▁passed	-10.3575
▁costume	-10.3585
▁junk	-10.3586
▁lower	-10.3588
▁results	-10.359
▁hits	-10.3594
▁choose	-10.3597
▁unrealistic	-10.3606
▁breaks	-10.3614
▁heroes	-10.3621
ti	-10.3621
▁cuts	-10.3622
▁wise	-10.3625
ted	-10.3636
▁blind	-10.3638
ta	-10.3638
▁board	-10.3642
▁study	-10.3645
▁perspective	-10.3655
▁priest	-10.3655
▁references	-10.3658
da	-10.366
ER	-10.3663
▁unable	-10.367
▁Tony	-10.3671
▁Death	-10.3674
▁efforts	-10.3691
ED	-10.3693
▁overly	-10.3697
▁finale	-10.3702
▁relate	-10.3711
▁relief	-10.3725
▁ALL	-10.3725
▁foreign	-10.3727
▁existence	-10.3728
some	-10.373
▁gory	-10.3737
▁holds	-10.3741
▁growing	-10.3744
▁pair	-10.3747
▁produce	-10.3761
▁scare	-10.3762
First	-10.3773
nt	-10.3778
▁research	-10.3782
▁logic	-10.3783
▁Wilson	-10.3784
▁Washington	-10.3785
How	-10.3787
▁singer	-10.3789
▁Blood	-10.3789
▁IT	-10.3792
▁revealed	-10.3793
▁France	-10.3796
At	-10.3802
▁sell	-10.3802
▁delivered	-10.3804
▁normally	-10.3804
▁steal	-10.3805
▁monsters	-10.3808
▁higher	-10.3823
sh	-10.3826
▁correct	-10.3843
▁Green	-10.3845
▁ladies	-10.3846
li	-10.3848
▁owner	-10.3849
ger	-10.3862
▁convey	-10.3866
▁calls	-10.3873
▁types	-10.3874
▁nicely	-10.3876
▁featur	-10.3895
▁treatment	-10.3904
just	-10.3904
▁Anderson	-10.3905
▁dislike	-10.3906
▁originally	-10.3907
▁Lady	-10.3907
▁fate	-10.3909
▁mission	-10.3911
▁Jimmy	-10.3912
▁Parker	-10.3914
▁edited	-10.3917
▁flying	-10.3923
▁discovered	-10.3927
▁deals	-10.3958
▁Ann	-10.3961
▁numerous	-10.3964
▁forgettable	-10.3966
▁built	-10.3968
▁essentially	-10.3971
**	-10.3973
▁cost	-10.3974
▁capable	-10.3981
▁spoil	-10.3983
▁reach	-10.3989
▁keeping	-10.3996
▁flesh	-10.401
▁promise	-10.4011
▁test	-10.4011
▁Grant	-10.4014
▁luck	-10.4022
▁May	-10.4024
▁ordinary	-10.4027
▁saving	-10.4029
▁Dick	-10.4031
▁price	-10.4056
▁asking	-10.4058
▁meeting	-10.4082
▁Mc	-10.4087
▁protagonist	-10.4087
▁evidence	-10.4087
▁reaction	-10.4088
▁Roy	-10.4091
Why	-10.4091
▁suck	-10.4098
▁Albert	-10.4099
▁humans	-10.4099
▁vampires	-10.41
▁lesson	-10.4101
▁proved	-10.4102
ni	-10.4103
▁More	-10.4121
▁Time	-10.4132
▁pro	-10.4132
▁theaters	-10.4144
▁segment	-10.4149
▁product	-10.415
▁Sinatra	-10.4152
▁African	-10.4153
▁Lugosi	-10.4153
▁Gene	-10.4154
▁powers	-10.4154
▁Thomas	-10.4157
▁inept	-10.4175
▁speed	-10.4193
▁remembered	-10.4194
▁rescue	-10.4197
▁unexpected	-10.4198
▁insane	-10.42
▁proper	-10.4202
▁wit	-10.4206
▁safe	-10.4209
▁continuity	-10.421
▁qualities	-10.421
▁plague	-10.421
▁routine	-10.4212
house	-10.4212
▁connection	-10.4212
▁decade	-10.4213
John	-10.4215
▁flashbacks	-10.4219
▁Brian	-10.422
▁Cinderella	-10.4225
ber	-10.4238
▁field	-10.4243
▁learned	-10.4255
▁bear	-10.427
▁Murphy	-10.4275
▁Gordon	-10.4277
▁graphic	-10.4279
▁Andy	-10.4285
▁Life	-10.4285
▁dressed	-10.4288
▁ball	-10.4294
TV	-10.4307
▁claim	-10.4308
▁accents	-10.4319
▁Matt	-10.4323
ru	-10.4325
▁print	-10.4329
▁unconvincing	-10.4336
▁Li	-10.4338
▁Caine	-10.4339
▁games	-10.434
▁dubbed	-10.434
▁green	-10.4341
▁captured	-10.4352
▁Fox	-10.4355
▁continues	-10.4375
▁sheer	-10.4378
my	-10.4385
▁combination	-10.4399
▁Academy	-10.44
▁Dan	-10.4405
▁mini	-10.4405
▁realism	-10.4418
▁traditional	-10.442
▁circumstances	-10.4422
▁model	-10.4428
▁clean	-10.4445
▁suffering	-10.4446
ir	-10.445
po	-10.4451
▁bore	-10.4453
▁survive	-10.4455
▁Page	-10.4466
▁Broadway	-10.4466
▁blah	-10.4468
After	-10.4469
▁market	-10.4495
▁walked	-10.4497
▁leader	-10.45
oh	-10.4504
tic	-10.4511
▁figured	-10.4513
day	-10.4517
▁identity	-10.4527
▁round	-10.4527
▁fare	-10.4533
di	-10.4538
▁hearing	-10.4539
rd	-10.4552
▁visuals	-10.4557
▁bothered	-10.4558
▁execution	-10.4567
▁factor	-10.4588
▁exceptional	-10.4589
▁morning	-10.4591
▁discovers	-10.4592
▁ancient	-10.4592
▁category	-10.4592
▁sympathetic	-10.4593
▁Lincoln	-10.4594
ol	-10.4596
ably	-10.4597
▁grace	-10.4598
▁feet	-10.4601
▁idiot	-10.4602
▁root	-10.4604
▁generation	-10.4604
▁Sadly	-10.4605
▁Germany	-10.4608
▁None	-10.4609
▁per	-10.461
▁teenager	-10.4611
▁theatrical	-10.4626
▁ran	-10.4628
▁highlight	-10.4654
▁Jeff	-10.4668
ero	-10.4671
▁grow	-10.4688
▁Mel	-10.4696
▁Daniel	-10.4702
?!	-10.4706
till	-10.4714
▁harsh	-10.472
▁hang	-10.4726
▁Lord	-10.4728
▁perform	-10.4749
dy	-10.4783
▁Clark	-10.4787
▁prevent	-10.4787
▁Freeman	-10.479
▁finest	-10.4794
▁Sci	-10.4799
▁decision	-10.4801
▁attitude	-10.4804
▁Ted	-10.4807
▁bomb	-10.4807
▁seat	-10.4808
▁Cage	-10.481
▁described	-10.4812
▁caused	-10.4814
▁portraying	-10.4816
▁sole	-10.4817
▁cares	-10.482
▁portrays	-10.4821
▁crude	-10.4826
▁contain	-10.4829
▁recognize	-10.4841
▁witness	-10.4843
▁whil	-10.4848
6	-10.4849
▁Europe	-10.4852
▁drag	-10.4854
▁Canadian	-10.4856
▁psycho	-10.4859
With	-10.4863
▁frame	-10.4866
▁pity	-10.4866
▁convinced	-10.4867
▁d	-10.4868
▁lucky	-10.4868
▁hint	-10.487
▁paint	-10.4873
▁Western	-10.4874
▁path	-10.4875
▁DO	-10.4876
▁par	-10.488
▁shocked	-10.488
led	-10.4894
▁14	-10.4903
▁ludicrous	-10.4909
▁sequels	-10.491
▁propaganda	-10.4923
▁frankly	-10.4923
▁load	-10.4924
▁Bourne	-10.4924
▁Drew	-10.4924
▁Plus	-10.4925
▁Freddy	-10.493
▁scenario	-10.4935
ba	-10.494
▁Un	-10.4947
▁unfortunate	-10.4976
▁opens	-10.4984
▁Victoria	-10.4987
▁families	-10.4987
▁crowd	-10.4988
▁skin	-10.4988
▁convince	-10.499
▁center	-10.499
▁downright	-10.4991
▁Apparently	-10.4994
▁Saturday	-10.4995
▁thank	-10.4998
▁Oliver	-10.5
ious	-10.5001
▁Wars	-10.5031
Do	-10.5049
▁spoof	-10.5053
▁Simon	-10.5054
▁makeup	-10.5055
▁technology	-10.5055
▁Trek	-10.5055
▁bodies	-10.5055
▁werewolf	-10.5056
▁entertain	-10.506
▁chosen	-10.506
▁individual	-10.506
▁steals	-10.5061
▁occasionally	-10.5068
▁buying	-10.5072
▁unlikely	-10.5075
▁drop	-10.5079
▁rise	-10.5084
▁sports	-10.5088
▁dollars	-10.5116
▁ultimate	-10.5116
▁MOVIE	-10.512
▁Seagal	-10.5126
▁mistakes	-10.513
▁scale	-10.5132
including	-10.5134
▁Robin	-10.5134
▁Halloween	-10.5136
▁Are	-10.5139
▁11	-10.514
▁hide	-10.5141
▁hanging	-10.5146
▁Girl	-10.515
▁crying	-10.5158
▁sudden	-10.518
▁appropriate	-10.5183
▁risk	-10.5184
▁Texas	-10.5193
▁private	-10.5194
▁Dur	-10.5195
▁reporter	-10.5196
▁Island	-10.5197
▁Captain	-10.5197
▁vote	-10.5198
▁Anyone	-10.5203
▁Never	-10.5205
▁account	-10.5211
▁degree	-10.5211
▁largely	-10.522
▁emotionally	-10.5225
▁SO	-10.5227
▁cartoons	-10.5231
▁strongly	-10.5244
▁occasional	-10.525
▁spectacular	-10.5252
▁actions	-10.5255
▁viewed	-10.5256
▁abuse	-10.5258
▁excitement	-10.5261
▁reputation	-10.5262
▁underrated	-10.5262
▁Branagh	-10.5264
▁strength	-10.5265
▁broken	-10.5266
▁latest	-10.5267
▁accidentally	-10.5267
▁concern	-10.527
red	-10.5279
▁talks	-10.5285
▁Last	-10.5297
▁marry	-10.5308
▁Dean	-10.5309
▁false	-10.5318
▁initial	-10.532
▁struggling	-10.533
▁naive	-10.533
▁hire	-10.5332
▁according	-10.5334
▁Ron	-10.5336
▁Columbo	-10.5337
et	-10.5341
▁fly	-10.5341
▁renting	-10.5343
rated	-10.5345
▁seasons	-10.5357
▁believed	-10.5367
▁claims	-10.5395
▁repeated	-10.5398
▁ashamed	-10.54
▁virtually	-10.5403
▁depicted	-10.5403
▁UK	-10.5407
▁obsessed	-10.5408
▁Actually	-10.541
▁Again	-10.541
She	-10.5417
▁gangster	-10.5426
os	-10.5426
▁heck	-10.5428
▁prefer	-10.543
kin	-10.5435
▁th	-10.5437
▁king	-10.5451
▁magnificent	-10.5458
ard	-10.5459
▁Marie	-10.547
▁truck	-10.5472
▁Vietnam	-10.5473
▁Kong	-10.5474
▁exploitation	-10.5475
▁bus	-10.5479
▁Barbara	-10.5479
▁handled	-10.5485
ler	-10.5493
▁sounded	-10.5494
▁festival	-10.5499
▁belief	-10.5501
▁wind	-10.5502
▁standing	-10.5503
ah	-10.5511
▁Being	-10.5516
down	-10.5523
▁Any	-10.5531
▁forces	-10.5533
▁ignore	-10.5536
▁chose	-10.5538
ph	-10.554
▁turkey	-10.5541
▁department	-10.5543
▁satisfying	-10.5552
▁Before	-10.5553
From	-10.5555
▁Much	-10.556
▁grand	-10.557
▁allows	-10.5573
▁previously	-10.5582
▁stayed	-10.5598
▁obnoxious	-10.56
▁regret	-10.5608
▁baseball	-10.5613
▁Come	-10.5614
▁VERY	-10.5615
▁Evil	-10.562
▁Rob	-10.5626
▁associate	-10.5626
Just	-10.5627
▁target	-10.5631
Of	-10.5633
▁source	-10.5642
▁device	-10.5643
▁spoilers	-10.5644
▁Edward	-10.5647
rate	-10.566
▁term	-10.5681
▁sheriff	-10.5685
▁slapstick	-10.5685
▁weekend	-10.5685
▁worthwhile	-10.5686
▁handsome	-10.5687
▁stupidity	-10.5693
Anyway	-10.5699
▁mindless	-10.5716
▁remain	-10.5754
▁Festival	-10.5757
▁stereotypical	-10.5757
▁jail	-10.5757
▁contemporary	-10.5759
▁security	-10.5762
called	-10.5762
▁nominated	-10.5764
▁required	-10.5764
LY	-10.5793
▁contrast	-10.5793
ombie	-10.5796
▁met	-10.5798
▁Killer	-10.58
▁eating	-10.5803
▁training	-10.5804
Let	-10.5806
con	-10.5813
▁praise	-10.5821
▁besides	-10.5822
▁exact	-10.5828
▁Mo	-10.5831
▁angles	-10.5832
▁Ryan	-10.5835
▁speaks	-10.5835
▁touches	-10.5835
▁Susan	-10.5837
▁/>*	-10.5838
▁politics	-10.5842
▁originality	-10.5845
▁Brothers	-10.5846
▁surprises	-10.5861
der	-10.5863
▁Up	-10.5865
▁legend	-10.5869
▁focused	-10.5869
Fi	-10.5871
▁TO	-10.5887
▁Hell	-10.5895
▁text	-10.59
▁narration	-10.5904
▁Wayne	-10.5909
▁Co	-10.591
▁dirty	-10.5911
▁About	-10.5918
made	-10.5924
▁fits	-10.5927
▁IN	-10.5928
▁Roger	-10.5929
▁anger	-10.5938
▁dozen	-10.5946
▁Get	-10.5956
plot	-10.5957
▁park	-10.5965
▁brilliantly	-10.5966
▁flow	-10.5976
▁racist	-10.5978
▁Russell	-10.5978
▁wake	-10.5978
▁funnier	-10.5978
▁stolen	-10.5979
▁embarrassed	-10.5981
***	-10.5984
▁Moon	-10.5984
▁mildly	-10.5985
bo	-10.6012
▁Anna	-10.6013
▁25	-10.603
▁uncle	-10.603
▁gain	-10.6039
▁frightening	-10.6055
▁Widmark	-10.6055
▁Holmes	-10.6055
▁halfway	-10.6056
▁19	-10.6059
▁van	-10.6061
▁cutting	-10.6064
▁erotic	-10.6068
dimensional	-10.6069
▁vs	-10.6078
losing	-10.609
action	-10.6092
Yes	-10.6099
real	-10.6108
▁handle	-10.612
▁inner	-10.6127
▁multiple	-10.6127
▁stomach	-10.6127
▁summary	-10.6128
▁refreshing	-10.6129
▁amazed	-10.6131
▁witch	-10.6135
▁Sometimes	-10.6135
▁Baby	-10.6141
▁express	-10.6142
▁Yeah	-10.6144
▁weeks	-10.6145
▁Cat	-10.6146
▁knock	-10.6155
▁Ned	-10.6167
▁lesbian	-10.6172
▁sharp	-10.6173
▁section	-10.6175
▁Kim	-10.6176
▁covered	-10.6184
▁teenagers	-10.6192
▁dude	-10.6196
▁arm	-10.6197
▁cheese	-10.6203
▁understood	-10.6205
▁hat	-10.6205
▁rough	-10.6206
▁nude	-10.6206
▁paying	-10.6206
▁supernatural	-10.6206
▁Look	-10.6208
▁Australian	-10.6208
▁mainstream	-10.6208
▁Joseph	-10.6209
▁combined	-10.6213
oo	-10.6224
▁Lewis	-10.6224
▁sh	-10.623
▁expression	-10.6261
▁Christ	-10.6263
▁structure	-10.6266
▁murderer	-10.627
▁India	-10.6271
An	-10.6279
▁lazy	-10.628
▁surface	-10.628
▁prime	-10.6282
▁North	-10.6286
▁provided	-10.6311
▁lawyer	-10.6323
▁Finally	-10.6324
▁indie	-10.6324
▁sword	-10.6325
▁wear	-10.6326
▁movement	-10.633
▁creatures	-10.635
▁afternoon	-10.6357
▁facial	-10.6357
▁massive	-10.6357
▁BBC	-10.6358
▁format	-10.636
▁surreal	-10.636
▁BAD	-10.636
▁Sunday	-10.636
▁Howard	-10.6363
▁Otherwise	-10.6364
▁warn	-10.6366
▁Brooks	-10.6368
▁Have	-10.6369
▁interview	-10.6369
▁serves	-10.6375
except	-10.6376
op	-10.6386
too	-10.6401
▁San	-10.6411
▁sum	-10.6417
▁solve	-10.6421
▁matters	-10.6422
▁Thank	-10.6424
▁YOU	-10.6433
▁experienced	-10.6433
▁pregnant	-10.6434
La	-10.6434
▁basis	-10.6434
▁teeth	-10.6434
▁Cusack	-10.6436
▁1960	-10.6436
▁Army	-10.6437
▁committed	-10.6437
▁Hardy	-10.6439
▁delivery	-10.6447
▁warned	-10.645
▁blow	-10.6458
▁breath	-10.6462
▁Ho	-10.6464
▁designed	-10.6465
▁offered	-10.6466
▁listening	-10.6472
ey	-10.6476
▁insight	-10.6479
▁host	-10.6498
▁court	-10.6513
▁Burton	-10.6514
▁Derek	-10.6517
▁retarded	-10.6518
▁Especially	-10.6519
▁upset	-10.6523
▁Back	-10.6528
▁closer	-10.653
▁theory	-10.654
▁castle	-10.6548
ck	-10.6556
▁twisted	-10.6561
▁comedian	-10.6563
yes	-10.6565
▁w	-10.6568
▁States	-10.6575
ups	-10.6582
▁evening	-10.6582
▁magical	-10.6586
▁spin	-10.6586
▁description	-10.6591
▁trilogy	-10.6591
▁disbelief	-10.6591
▁sympathy	-10.6592
ag	-10.6592
▁spite	-10.6593
▁goofy	-10.6593
▁birth	-10.6595
▁learns	-10.6598
▁Friday	-10.6601
▁Basically	-10.6608
▁campy	-10.6609
▁shut	-10.6611
▁Old	-10.6612
▁directly	-10.6615
▁hip	-10.6623
▁17	-10.6634
▁base	-10.6635
▁creates	-10.6645
▁passing	-10.6647
▁pretend	-10.6648
▁Walter	-10.6652
▁walks	-10.6656
▁glimpse	-10.6657
▁voices	-10.6662
▁prior	-10.6669
▁Channel	-10.667
▁introduction	-10.667
▁strict	-10.6672
▁rules	-10.6676
▁Way	-10.6676
▁haunted	-10.6677
▁suspenseful	-10.6678
▁Woody	-10.6681
▁Ka	-10.6685
▁USA	-10.6687
▁streets	-10.6687
▁levels	-10.6689
▁desperately	-10.669
▁subtitles	-10.669
▁Reed	-10.67
▁teens	-10.6701
▁grave	-10.671
starred	-10.6711
▁throwing	-10.672
▁treasure	-10.672
▁statement	-10.6726
▁hey	-10.6735
▁deaths	-10.6738
▁international	-10.675
▁Bettie	-10.6752
war	-10.6756
▁Victor	-10.6758
▁properly	-10.6766
▁performed	-10.6768
ring	-10.6773
iness	-10.6783
▁awards	-10.6801
▁bat	-10.6809
▁stretch	-10.6814
▁significant	-10.6819
▁Ha	-10.682
▁Rose	-10.6825
▁speech	-10.6828
▁comical	-10.6829
▁Pacino	-10.6831
▁heavily	-10.6831
style	-10.6832
▁assistant	-10.6836
▁Jennifer	-10.6841
▁forgot	-10.6849
written	-10.685
Another	-10.6854
▁shower	-10.6859
▁captures	-10.6871
▁screening	-10.689
▁table	-10.6907
▁Le	-10.6909
▁spoiler	-10.691
▁featured	-10.691
▁Hill	-10.691
▁alright	-10.6912
▁Cooper	-10.6914
▁chief	-10.6914
▁incoherent	-10.6919
▁believes	-10.692
▁Mar	-10.6925
▁Andrews	-10.6933
▁achieve	-10.6938
▁plans	-10.6945
▁visually	-10.6946
▁fool	-10.6956
▁Had	-10.6957
▁miscast	-10.6972
▁veteran	-10.6972
▁native	-10.6973
▁Kill	-10.6973
▁danger	-10.6974
▁explore	-10.6981
▁escapes	-10.6981
▁welcome	-10.6983
ped	-10.6998
▁guilty	-10.7002
▁fairy	-10.7011
▁Someone	-10.7013
istic	-10.7022
▁skill	-10.7025
▁environment	-10.7027
▁u	-10.7028
▁rolling	-10.7031
▁serve	-10.7044
▁sitcom	-10.7058
ng	-10.7059
▁Movies	-10.7063
▁Music	-10.7067
▁Y	-10.707
▁eight	-10.7073
▁intellectual	-10.7073
▁Na	-10.7074
▁United	-10.7077
▁plastic	-10.7077
▁FBI	-10.7077
▁Falk	-10.7077
▁Warner	-10.7078
▁Arnold	-10.7079
▁everywhere	-10.7081
▁Devil	-10.7084
▁EVER	-10.7084
▁ha	-10.709
▁hired	-10.7096
pe	-10.7101
▁versions	-10.7101
▁scream	-10.7105
▁experiences	-10.7112
▁classics	-10.7118
▁calling	-10.7119
▁ages	-10.7119
▁encounter	-10.7127
▁forth	-10.7132
▁o	-10.7138
▁task	-10.7139
▁criminals	-10.7146
▁proud	-10.7148
▁sensitive	-10.7152
▁wanna	-10.716
▁Hitchcock	-10.7161
▁boredom	-10.7163
▁buddy	-10.7169
▁blown	-10.7169
▁Later	-10.717
▁Elizabeth	-10.717
▁throws	-10.7175
ating	-10.7176
▁Besides	-10.7176
▁topic	-10.7179
▁mentally	-10.7182
existent	-10.7184
▁gas	-10.7186
Although	-10.7187
something	-10.7187
▁naturally	-10.7192
ping	-10.7195
va	-10.7202
▁pulls	-10.7204
ance	-10.7214
▁expert	-10.722
▁maintain	-10.723
▁core	-10.7232
▁credibility	-10.7245
▁Bollywood	-10.7246
▁Jessica	-10.7252
▁scares	-10.7253
▁Out	-10.7253
▁caring	-10.7262
▁attacked	-10.7276
▁presents	-10.7284
▁Mrs	-10.7297
▁protect	-10.7305
▁service	-10.7314
):	-10.7317
▁screenwriter	-10.7322
▁decades	-10.7326
▁stunt	-10.7326
▁melodrama	-10.7328
▁1990	-10.7329
▁Curtis	-10.7329
▁REALLY	-10.7329
▁trite	-10.7329
▁virus	-10.7329
▁Ritter	-10.7331
▁presentation	-10.7333
▁changing	-10.7335
▁Hunter	-10.7335
▁status	-10.7338
▁Lake	-10.7346
more	-10.735
horror	-10.7357
par	-10.7364
▁related	-10.7364
▁tight	-10.7369
▁Sir	-10.7375
▁Rogers	-10.7395
▁ring	-10.7398
ak	-10.7399
!!!!!	-10.7403
les	-10.7403
▁brave	-10.7404
▁Africa	-10.7411
▁Power	-10.7413
▁cruel	-10.7414
▁uncomfortable	-10.7415
▁idiotic	-10.7416
▁corrupt	-10.7416
▁fabulous	-10.7416
▁football	-10.7417
▁overcome	-10.7418
▁1/10	-10.7419
▁LOVE	-10.7422
▁Pitt	-10.7424
▁Patrick	-10.7425
▁carried	-10.7426
how	-10.7436
▁destroyed	-10.7439
▁placed	-10.7443
▁extras	-10.7445
▁sun	-10.7446
ug	-10.7449
▁Julie	-10.7456
..."	-10.7464
▁drink	-10.7465
▁appreciated	-10.7466
▁:)	-10.7485
▁bag	-10.7489
▁winner	-10.7491
▁flashback	-10.7493
LE	-10.7499
▁neighborhood	-10.7501
▁queen	-10.7501
▁California	-10.7504
▁laid	-10.7507
▁Second	-10.7508
▁Boll	-10.7515
▁Alice	-10.7516
▁insulting	-10.7524
▁drinking	-10.7525
▁16	-10.7528
ated	-10.7529
▁aliens	-10.7537
▁Bond	-10.7543
can	-10.7553
▁sleeping	-10.7554
ities	-10.7556
▁fictional	-10.7557
▁Jon	-10.7559
lin	-10.7574
▁conversation	-10.7577
head	-10.7577
ac	-10.7583
▁fish	-10.7587
▁multi	-10.7587
▁President	-10.7588
▁universe	-10.7588
▁stiff	-10.7588
▁ripped	-10.7588
▁closing	-10.7588
▁Stanwyck	-10.759
▁Universal	-10.759
▁toilet	-10.759
▁Irish	-10.759
▁Scooby	-10.7593
▁abandoned	-10.7593
▁settings	-10.7594
By	-10.7595
▁spoken	-10.7596
▁prepared	-10.7601
dragged	-10.7604
▁Space	-10.7611
▁Hall	-10.7617
▁explains	-10.7622
uff	-10.7626
▁weapons	-10.7634
Who	-10.7635
▁demon	-10.7644
▁horrendous	-10.7663
▁position	-10.7664
▁realise	-10.7667
▁condition	-10.7667
▁0	-10.7667
▁en	-10.7669
▁dubbing	-10.7675
▁specific	-10.7676
▁Miller	-10.7679
").	-10.7679
▁slap	-10.7679
▁credible	-10.768
▁authentic	-10.768
▁storytelling	-10.768
▁via	-10.7681
▁cultural	-10.7682
▁meaningful	-10.7684
▁reminiscen	-10.7688
▁connected	-10.7689
▁Seriously	-10.7695
▁reveal	-10.7724
▁seek	-10.7734
▁delight	-10.7735
ster	-10.7744
▁enjoying	-10.7744
▁killers	-10.7746
▁relie	-10.7756
Man	-10.7756
▁gruesome	-10.7764
▁confusion	-10.7766
▁trapped	-10.7766
▁MGM	-10.7767
▁Brando	-10.7767
▁Stanley	-10.7769
mm	-10.777
▁Karloff	-10.7771
▁learning	-10.7772
▁replaced	-10.7773
▁Long	-10.7774
▁lie	-10.7776
hi	-10.7781
▁Over	-10.7782
back	-10.7786
▁dress	-10.7814
ut	-10.7819
▁minds	-10.7819
▁rule	-10.7824
▁views	-10.7831
ence	-10.7833
▁Your	-10.7836
▁realizes	-10.7837
▁honor	-10.7838
▁critical	-10.7845
▁metal	-10.785
▁paced	-10.7851
▁horrific	-10.7852
▁proceed	-10.7853
▁oppos	-10.7853
▁advantage	-10.7853
▁franchise	-10.7854
▁drivel	-10.7857
▁annoyed	-10.7857
▁Kurt	-10.7859
▁mature	-10.7859
▁focuses	-10.786
▁Blair	-10.786
▁3/10	-10.7861
▁Mann	-10.7864
▁resort	-10.7867
▁Art	-10.7874
▁Three	-10.7875
▁sorts	-10.7875
Star	-10.7886
▁purely	-10.7892
---	-10.7896
hard	-10.7899
▁inter	-10.7905
▁crash	-10.7907
mer	-10.7911
▁g	-10.7918
▁influence	-10.7923
▁raise	-10.7925
sp	-10.7926
▁peace	-10.7934
▁balance	-10.7935
very	-10.7936
▁clips	-10.7937
▁criticism	-10.7938
▁object	-10.7939
▁extent	-10.7943
▁anime	-10.7943
▁legendary	-10.7944
▁Baker	-10.7944
▁imagery	-10.7944
▁2000	-10.7945
ball	-10.7947
▁n	-10.7948
▁Sky	-10.7948
▁complicated	-10.7948
▁choices	-10.7949
▁m	-10.795
▁raised	-10.7957
▁LA	-10.7977
comedy	-10.7977
ga	-10.7986
▁causes	-10.7989
▁intention	-10.7992
let	-10.7993
▁succeed	-10.7994
▁tune	-10.8018
▁mass	-10.802
▁faithful	-10.8021
▁mask	-10.8021
AL	-10.8022
▁timing	-10.8034
▁ABC	-10.8034
▁exercise	-10.8034
▁Spielberg	-10.8036
▁medical	-10.8037
▁Mexican	-10.8037
▁driver	-10.804
▁wreck	-10.8041
▁angle	-10.8046
▁served	-10.8049
▁Sorry	-10.8055
lu	-10.8056
▁useless	-10.8062
▁effectively	-10.8067
▁lying	-10.8072
▁pet	-10.8095
▁gag	-10.8104
▁guts	-10.8111
▁attempting	-10.8112
▁heaven	-10.8113
▁General	-10.8123
▁stays	-10.8126
▁Stan	-10.8126
▁colour	-10.8126
▁hundred	-10.8128
▁chair	-10.8128
▁Astaire	-10.8128
▁expensive	-10.8129
▁stinker	-10.8131
▁tiny	-10.8133
▁beloved	-10.8134
▁homeless	-10.8135
▁sentimental	-10.8136
▁broke	-10.8143
▁Take	-10.815
relatively	-10.8152
Michael	-10.8161
▁successfully	-10.8162
▁jerk	-10.8187
▁gift	-10.8204
▁challenge	-10.8205
▁Far	-10.8205
▁hype	-10.8208
▁inspiration	-10.8217
IN	-10.8217
▁striking	-10.8218
▁variety	-10.8218
▁Jewish	-10.8219
▁freedom	-10.8219
▁picks	-10.822
▁outrageous	-10.822
▁Heston	-10.8221
▁hole	-10.8223
▁Summer	-10.8224
▁enjoyment	-10.8225
▁page	-10.8227
▁Something	-10.8229
▁Brad	-10.8232
▁deeper	-10.8236
ron	-10.8236
De	-10.8241
▁ghosts	-10.8243
▁driven	-10.8245
▁hoped	-10.8253
▁Does	-10.8257
▁weight	-10.8271
ab	-10.8272
genuinely	-10.829
▁Roberts	-10.8297
fest	-10.83
▁Prince	-10.8302
▁**	-10.8306
▁Louis	-10.8311
▁knife	-10.8312
▁necessarily	-10.8312
▁tongue	-10.8312
▁river	-10.8312
▁ultra	-10.8312
▁Navy	-10.8313
▁depiction	-10.8313
▁obsession	-10.8313
▁Elvis	-10.8314
▁gritty	-10.8316
▁shark	-10.8317
▁Candy	-10.8317
▁deadly	-10.8318
▁tied	-10.8321
▁Heaven	-10.8323
▁rank	-10.8324
his	-10.8324
ud	-10.8325
▁Boy	-10.8327
▁charge	-10.8337
▁Acting	-10.8339
▁interviews	-10.8349
why	-10.8349
00	-10.835
▁touched	-10.8354
▁2.	-10.8357
only	-10.8362
▁punch	-10.8371
▁sisters	-10.8373
▁revolves	-10.838
▁relative	-10.8386
▁appalling	-10.8394
▁dialogs	-10.8395
▁amazingly	-10.8396
▁Carol	-10.8402
▁Catholic	-10.8408
▁Brosnan	-10.841
▁everyday	-10.8413
▁WWII	-10.8414
▁sold	-10.8423
▁1930	-10.8425
▁Give	-10.8426
▁guessing	-10.8426
▁miles	-10.8426
class	-10.8432
mi	-10.8434
▁trick	-10.8443
video	-10.8444
▁1.	-10.8446
cy	-10.8453
light	-10.8463
j	-10.8466
pi	-10.8467
▁nose	-10.8472
▁helping	-10.8491
▁equal	-10.8492
▁competent	-10.8493
ka	-10.8496
▁disagree	-10.8501
▁Carpenter	-10.8501
▁Verhoeven	-10.8501
▁poignant	-10.8503
▁lonely	-10.8507
▁contact	-10.8507
▁locked	-10.8507
▁ironic	-10.8508
▁Sarah	-10.8508
▁Johnson	-10.851
▁Definitely	-10.8516
characterization	-10.8517
▁performers	-10.8522
▁Burt	-10.8525
▁Add	-10.8539
▁cameos	-10.855
Maybe	-10.8556
art	-10.8558
▁connect	-10.8569
▁Pat	-10.8577
▁shape	-10.8588
ker	-10.8591
▁mountain	-10.8593
▁miserably	-10.8598
▁sleazy	-10.8598
▁uninspired	-10.8598
▁Burns	-10.8598
▁melodramatic	-10.8598
▁lights	-10.8598
▁Goldberg	-10.8599
▁quirky	-10.8602
▁basement	-10.8604
▁Family	-10.8605
ca	-10.8606
▁haunting	-10.8606
▁neighbor	-10.8607
▁month	-10.8607
▁breaking	-10.8608
▁worthless	-10.861
▁answers	-10.861
▁Police	-10.8613
▁wishes	-10.8613
▁loser	-10.8615
▁Nazi	-10.8617
▁exists	-10.8617
▁Julia	-10.8622
hearted	-10.8627
▁Ever	-10.8631
Paul	-10.8637
▁wears	-10.8638
▁carrying	-10.8645
che	-10.8649
▁opened	-10.8658
▁***	-10.8666
▁forest	-10.8672
▁drags	-10.8673
▁experiment	-10.8679
▁reference	-10.8691
tion	-10.8694
▁minimal	-10.8694
▁China	-10.8695
▁lessons	-10.8695
▁Nelson	-10.8696
▁Chaplin	-10.8697
▁fortune	-10.8697
▁endearing	-10.8697
▁quest	-10.8699
▁Italy	-10.8699
▁spy	-10.8699
▁Max	-10.8701
▁wannabe	-10.8702
▁pool	-10.8703
▁bridge	-10.8704
▁tree	-10.8705
after	-10.8707
▁dollar	-10.8712
▁Home	-10.8712
▁Jay	-10.8714
▁Los	-10.8722
ization	-10.8729
ward	-10.8731
from	-10.8737
▁SPOILERS	-10.8742
▁favorites	-10.8747
liners	-10.8758
▁separate	-10.8768
▁colors	-10.8769
▁repeat	-10.8771
!),	-10.8773
▁facts	-10.8783
dding	-10.8791
▁library	-10.8793
▁Walken	-10.8793
▁countries	-10.8793
▁countless	-10.8795
"?	-10.8796
▁generous	-10.8796
▁Fonda	-10.8796
▁PG	-10.8797
▁bitter	-10.8801
▁interpretation	-10.8803
gan	-10.8809
▁stunts	-10.8809
▁Whatever	-10.8817
Re	-10.8823
▁Blue	-10.8828
▁expressions	-10.8834
▁4/10	-10.8841
...)	-10.885
▁jumps	-10.8856
▁plots	-10.8861
▁Age	-10.8872
▁beating	-10.8884
▁imaginative	-10.8892
▁cardboard	-10.8892
▁block	-10.8892
▁Hong	-10.8893
▁personalities	-10.8893
▁intent	-10.8893
end	-10.8896
▁bucks	-10.8896
▁Probably	-10.8899
▁smoke	-10.89
▁reveals	-10.8901
▁Dennis	-10.8901
▁reflect	-10.8902
▁lake	-10.8903
▁10/10	-10.8904
▁kinds	-10.8908
minute	-10.8934
writer	-10.8936
ja	-10.8948
▁Soon	-10.8949
▁carrie	-10.8951
▁Pro	-10.896
▁flash	-10.8967
▁broad	-10.8976
▁invite	-10.8978
▁charisma	-10.8991
▁scratch	-10.8992
▁identify	-10.8992
▁Mexico	-10.8992
▁daily	-10.8992
▁broadcast	-10.8992
▁Chuck	-10.8992
▁sidekick	-10.8992
▁School	-10.8993
▁Altman	-10.8994
▁Laurel	-10.8994
▁succeeds	-10.8995
▁Child	-10.8996
▁wealthy	-10.8997
▁proof	-10.8998
▁Rachel	-10.9
▁blend	-10.9
▁determined	-10.9002
▁Ghost	-10.9003
▁spending	-10.9007
▁90'	-10.9007
▁thrilling	-10.9008
▁Grade	-10.9009
▁struggles	-10.9014
▁Lion	-10.9014
▁Law	-10.9015
▁tense	-10.9015
▁arrives	-10.9025
▁wave	-10.9035
den	-10.9035
▁refer	-10.9046
▁commit	-10.9049
▁breasts	-10.906
▁mob	-10.9062
▁rival	-10.9068
▁robot	-10.9074
▁ratings	-10.9075
▁tour	-10.9076
▁combine	-10.9079
▁triumph	-10.9086
▁Angel	-10.9089
▁curiosity	-10.9093
▁fifteen	-10.9093
▁firm	-10.9093
▁pseudo	-10.9093
▁contribute	-10.9093
▁Science	-10.9093
▁unwatchable	-10.9093
▁underground	-10.9093
▁Powell	-10.9093
right	-10.9094
wise	-10.9096
▁cynical	-10.9097
▁fallen	-10.9098
▁dire	-10.91
▁overdone	-10.91
hero	-10.9104
▁cell	-10.9111
▁thousand	-10.9111
▁motivation	-10.9114
▁oil	-10.912
▁drives	-10.9123
▁Guy	-10.9128
ex	-10.9131
▁tear	-10.9135
when	-10.9137
▁teach	-10.9165
▁tradition	-10.9184
sen	-10.9187
Watching	-10.9187
▁Se	-10.919
▁segments	-10.9193
▁intensity	-10.9195
▁response	-10.9195
▁splendid	-10.9195
▁president	-10.9195
▁protagonists	-10.9195
▁Hartley	-10.9195
▁hundreds	-10.9195
▁lust	-10.9196
▁stylish	-10.9196
▁attached	-10.9197
▁checking	-10.9197
▁invisible	-10.9199
▁beast	-10.9199
▁revolution	-10.9199
▁childish	-10.9201
▁corner	-10.9202
▁Consider	-10.9202
▁Donald	-10.9204
▁Check	-10.9204
▁Stiller	-10.921
▁aired	-10.9211
get	-10.9211
▁holiday	-10.9212
▁strike	-10.9217
▁attempted	-10.9217
▁sentence	-10.9217
▁Award	-10.9223
▁Maria	-10.9224
gu	-10.9229
▁Laura	-10.9231
rew	-10.9236
ina	-10.9237
▁row	-10.9237
▁arms	-10.9239
where	-10.9243
▁Ken	-10.9251
▁sexually	-10.9252
▁greater	-10.9259
ver	-10.9271
ten	-10.9274
ay	-10.9275
▁worry	-10.9275
▁refuses	-10.9276
▁thousands	-10.9279
▁marvelous	-10.9286
▁belongs	-10.9291
▁appearing	-10.9295
▁racism	-10.9298
▁horrid	-10.9298
▁disease	-10.9298
▁Lucas	-10.9299
ural	-10.9299
▁breathtaking	-10.9299
▁moon	-10.9299
▁narrator	-10.93
▁Satan	-10.93
▁hiding	-10.9301
▁irony	-10.9301
▁dig	-10.9301
▁surrounded	-10.9301
▁Korean	-10.9302
▁CIA	-10.9302
▁homage	-10.9303
▁Eva	-10.9305
▁lay	-10.9306
▁Fay	-10.9308
▁Hope	-10.9308
▁Grand	-10.931
▁True	-10.9312
▁wondered	-10.9314
▁Hal	-10.9315
▁guard	-10.9316
▁Hamlet	-10.9317
▁network	-10.9319
▁legs	-10.9321
▁merit	-10.9326
▁Our	-10.9327
▁jobs	-10.9328
▁split	-10.9329
▁cases	-10.9335
▁sings	-10.9342
Unfortunately	-10.9344
▁Wild	-10.9345
▁60'	-10.9345
▁fired	-10.935
▁di	-10.9354
king	-10.9359
▁/>(	-10.936
▁listed	-10.9361
ning	-10.9379
Here	-10.9387
▁disc	-10.9389
ub	-10.9392
▁push	-10.9394
▁critic	-10.9394
▁graphics	-10.9396
▁Lou	-10.9398
ES	-10.9398
▁snow	-10.9401
▁atmospheric	-10.9402
▁dinner	-10.9402
▁installment	-10.9402
▁kidnapped	-10.9402
▁entry	-10.9403
▁resemblance	-10.9403
▁Dawson	-10.9404
▁tribute	-10.9406
▁sexuality	-10.9406
▁Lauren	-10.9407
▁madness	-10.9407
▁ho	-10.9407
▁happily	-10.941
▁Claire	-10.9412
▁forgive	-10.9412
our	-10.9413
▁Obviously	-10.9413
▁unpleasant	-10.9425
▁brand	-10.9425
▁figures	-10.9425
imed	-10.9426
▁trial	-10.9427
▁accepted	-10.9434
ung	-10.945
ane	-10.9462
▁concerns	-10.9472
▁terror	-10.9474
▁ice	-10.9479
▁2)	-10.9487
OR	-10.9497
▁notable	-10.9498
▁ridiculously	-10.9501
▁craft	-10.9501
▁contract	-10.9504
▁AT	-10.9505
▁believing	-10.9507
▁thirty	-10.9507
▁clown	-10.9507
▁mansion	-10.9508
▁glass	-10.951
▁handful	-10.9511
▁Cook	-10.9512
▁East	-10.9513
▁Michelle	-10.9513
▁frequently	-10.9515
▁rushed	-10.9517
▁Could	-10.9517
▁Murder	-10.9521
▁letting	-10.9521
▁fianc	-10.9523
▁unintentionally	-10.9523
▁Unlike	-10.9529
▁bound	-10.9531
▁Return	-10.9531
▁chain	-10.9532
▁rid	-10.9532
▁friendly	-10.9533
▁aged	-10.9536
▁afford	-10.9541
▁Dream	-10.9543
▁persona	-10.9544
▁upper	-10.9545
▁artists	-10.9549
▁dear	-10.9551
▁confront	-10.959
▁complaint	-10.9597
▁size	-10.9602
▁essential	-10.9606
▁psychotic	-10.9614
▁slightest	-10.9615
▁Foster	-10.9615
▁Club	-10.9616
▁enemy	-10.9617
▁cant	-10.962
▁complain	-10.962
▁requires	-10.9621
▁Ginger	-10.9622
▁1/2	-10.9624
▁Tarzan	-10.9624
▁league	-10.963
▁Next	-10.9631
▁farce	-10.9633
▁Along	-10.9634
bi	-10.9638
▁lacked	-10.9639
▁physically	-10.9641
▁argument	-10.9642
▁poster	-10.9659
▁millions	-10.9662
David	-10.9663
Where	-10.9664
▁River	-10.9664
pro	-10.9676
▁lesser	-10.9681
▁Die	-10.969
▁hook	-10.969
▁hunt	-10.9691
▁musicals	-10.9703
▁intrigue	-10.9708
cing	-10.9714
ass	-10.9714
▁Di	-10.9716
▁Car	-10.9721
▁sinister	-10.9721
▁attraction	-10.9722
▁happiness	-10.9723
▁lovable	-10.9724
▁shoots	-10.9726
▁Larry	-10.973
▁Vincent	-10.9732
▁chilling	-10.9735
izing	-10.9735
▁sky	-10.9746
▁pointed	-10.9753
▁45	-10.9753
▁mirror	-10.9754
▁suggests	-10.9763
ise	-10.9765
▁stated	-10.9768
▁dare	-10.9773
OK	-10.9776
▁guide	-10.9781
▁Super	-10.9787
▁depend	-10.979
Mr	-10.9797
hour	-10.9801
▁swear	-10.9808
▁vague	-10.9818
▁slight	-10.9818
▁24	-10.9819
▁repetitive	-10.983
▁medium	-10.983
▁Blake	-10.9832
▁ANY	-10.9832
▁concert	-10.9832
▁elsewhere	-10.9833
▁Woman	-10.9833
▁chasing	-10.9835
▁End	-10.9837
▁dealt	-10.984
▁Worst	-10.9843
▁Pretty	-10.9845
▁flaw	-10.985
▁pushed	-10.985
▁raw	-10.985
AN	-10.9852
▁III	-10.9862
▁shadow	-10.9864
▁nightmare	-10.9865
▁uniform	-10.9867
▁obscure	-10.9868
▁surrounding	-10.9868
▁suffered	-10.9875
▁develops	-10.9876
was	-10.9879
▁troubled	-10.988
▁senseless	-10.988
rust	-10.9885
▁Live	-10.989
pa	-10.9895
▁flop	-10.9906
▁painting	-10.9906
▁picking	-10.9909
▁Mac	-10.9913
ator	-10.9918
▁endure	-10.9932
▁superficial	-10.9939
▁convoluted	-10.994
▁ensemble	-10.994
▁buried	-10.994
▁NEVER	-10.994
▁creators	-10.9941
▁unbearable	-10.9941
▁label	-10.9941
▁acceptable	-10.9942
▁novels	-10.9943
▁resolution	-10.9943
story	-10.9943
▁coach	-10.9943
▁Perry	-10.9943
▁storm	-10.9944
▁Olivier	-10.9944
▁intentions	-10.9944
▁grim	-10.9945
▁cabin	-10.9945
▁goal	-10.9946
▁photographer	-10.9947
▁1940	-10.9949
▁Doctor	-10.995
▁established	-10.9953
▁darkness	-10.9953
void	-10.9955
▁shorts	-10.9969
▁riding	-10.9973
▁benefit	-10.9973
▁subplot	-10.9977
ya	-10.9982
▁searching	-10.9987
▁failing	-10.9991
▁noise	-10.9992
ita	-10.9993
▁Video	-10.9994
aged	-10.9995
minded	-10.9997
▁greatly	-11.0004
▁burn	-11.0022
ick	-11.003
▁Lost	-11.0032
▁admire	-11.0034
▁idiots	-11.0035
▁investigate	-11.0038
▁cared	-11.0039
▁neat	-11.0039
▁precious	-11.0051
▁shelf	-11.0051
▁Britain	-11.0051
▁professor	-11.0051
▁Fool	-11.0051
▁dropped	-11.0051
▁Cinema	-11.0052
▁conspiracy	-11.0052
▁chases	-11.0053
▁increasingly	-11.0053
▁Kirk	-11.0054
▁Maggie	-11.0055
▁Jo	-11.0056
▁reasonably	-11.0057
▁Comedy	-11.0058
▁insist	-11.006
▁adventures	-11.0067
▁shy	-11.0069
▁nation	-11.007
▁represent	-11.0074
▁maker	-11.0074
gen	-11.0077
ack	-11.0081
▁string	-11.0096
▁urge	-11.0096
Watch	-11.0096
▁shines	-11.0098
▁steps	-11.0106
▁card	-11.0115
▁Ne	-11.0126
cast	-11.0137
▁cringe	-11.015
▁examples	-11.0156
ight	-11.0159
io	-11.0162
field	-11.0163
▁extraordinary	-11.0163
▁SNL	-11.0163
▁Spike	-11.0164
▁Glover	-11.0164
▁reactions	-11.0164
▁spell	-11.0165
▁jungle	-11.0165
▁MAN	-11.0165
▁relevant	-11.0166
▁beaten	-11.0166
ze	-11.0166
▁hill	-11.0166
▁reduced	-11.0166
▁controversial	-11.0166
▁hopefully	-11.0168
▁strip	-11.0172
▁watches	-11.0173
▁Dracula	-11.0173
▁stone	-11.0174
▁imp	-11.0175
▁hooked	-11.0179
▁Nightmare	-11.0179
▁horses	-11.0188
▁packed	-11.0193
ship	-11.0199
See	-11.02
▁ticket	-11.0204
▁technique	-11.0205
▁thrills	-11.0205
▁tea	-11.0217
thriller	-11.022
also	-11.0231
▁defend	-11.0238
acting	-11.024
▁dogs	-11.024
ens	-11.0241
tro	-11.0241
▁killings	-11.0245
▁argue	-11.0263
▁abysmal	-11.0264
▁hysterical	-11.0265
▁awake	-11.0269
▁Think	-11.0272
▁mild	-11.0273
▁nowadays	-11.0277
▁grandmother	-11.0277
▁popcorn	-11.0277
▁Canada	-11.0277
▁Todd	-11.0278
▁duo	-11.0279
▁nuclear	-11.028
▁Davies	-11.0282
▁meaningless	-11.0283
▁foul	-11.0283
▁Almost	-11.0284
▁drunken	-11.0285
▁larger	-11.0287
▁misses	-11.0287
▁busy	-11.0289
▁overrated	-11.0291
▁Such	-11.0295
low	-11.0295
▁Meanwhile	-11.03
town	-11.0302
▁st	-11.0307
▁briefly	-11.0313
qui	-11.0316
▁Vampire	-11.0324
▁Master	-11.033
known	-11.0333
Robert	-11.0335
Finally	-11.0341
wood	-11.0347
▁national	-11.0348
▁bin	-11.035
▁Indians	-11.0354
ink	-11.0357
▁Oscars	-11.0368
▁faced	-11.0373
▁tremendous	-11.038
▁evident	-11.038
▁hideous	-11.038
▁jealous	-11.0387
▁sneak	-11.0387
▁NOTHING	-11.0392
▁bargain	-11.0392
▁ourselves	-11.0392
▁wicked	-11.0392
▁embarrassment	-11.0392
▁Fisher	-11.0393
▁exaggerated	-11.0393
▁secretary	-11.0393
▁Price	-11.0395
▁blank	-11.0396
▁Polanski	-11.0397
▁Po	-11.0397
▁colorful	-11.0399
▁Matrix	-11.04
▁Catherine	-11.0401
▁Camp	-11.0403
▁Fu	-11.0403
▁Personally	-11.0405
▁Emily	-11.0406
▁flawed	-11.0407
Be	-11.0411
▁crafted	-11.0418
▁wins	-11.042
▁commercials	-11.043
▁mo	-11.0431
▁quote	-11.0432
om	-11.0435
▁occur	-11.0438
▁tricks	-11.0448
Richard	-11.045
▁daughters	-11.0453
set	-11.0462
▁l	-11.0467
▁pleased	-11.0468
▁meat	-11.0468
▁strangely	-11.0475
▁thoughts	-11.0491
har	-11.0494
▁curse	-11.0494
▁profound	-11.0496
▁lab	-11.0499
▁Grinch	-11.0508
▁Ruth	-11.0508
▁aforementioned	-11.0508
▁scheme	-11.0508
▁unbelievably	-11.0508
▁restaurant	-11.0508
▁captain	-11.0508
▁suspicious	-11.0508
▁kidding	-11.0508
▁charismatic	-11.0508
▁Bobby	-11.0509
girl	-11.0509
▁Sha	-11.0509
▁Witch	-11.0512
▁Lane	-11.0512
▁Hard	-11.0514
?).	-11.0514
▁Legend	-11.0514
▁nine	-11.0515
▁Helen	-11.0516
ble	-11.0517
▁Poor	-11.0518
▁distance	-11.0519
▁offended	-11.0519
▁ego	-11.0522
▁fitting	-11.0523
▁Dad	-11.0527
▁enter	-11.0528
▁encounters	-11.0534
▁technically	-11.0537
long	-11.0539
▁adapted	-11.054
▁Am	-11.0559
▁justify	-11.056
▁torn	-11.0566
▁buff	-11.0566
▁letter	-11.0575
▁Cole	-11.0579
▁titles	-11.0584
ney	-11.0587
▁attacks	-11.0592
▁tons	-11.0593
ps	-11.0598
▁kiss	-11.0602
▁settle	-11.0613
▁manager	-11.0615
▁nurse	-11.0625
▁artificial	-11.0626
▁disjointed	-11.0626
▁easier	-11.0626
▁illogical	-11.0626
▁portrait	-11.0626
▁Sellers	-11.0626
▁prequel	-11.0626
▁frustrated	-11.0627
▁involvement	-11.0627
▁Gadget	-11.0628
▁Ralph	-11.0629
▁milk	-11.0629
▁closely	-11.0631
▁Macy	-11.0634
▁Face	-11.0636
▁Jamie	-11.0636
▁fourth	-11.0638
▁Right	-11.064
▁ought	-11.064
▁intrigued	-11.0641
▁noble	-11.0642
▁Gun	-11.0645
▁initially	-11.0646
▁Lily	-11.065
▁Unless	-11.0654
grade	-11.0657
▁remaining	-11.0662
▁raped	-11.0677
Director	-11.0687
because	-11.0687
Most	-11.0688
▁scripted	-11.0694
read	-11.0696
▁occurs	-11.0696
uite	-11.0705
▁talked	-11.072
▁errors	-11.0721
▁Sa	-11.0723
▁whoever	-11.0723
▁grows	-11.0724
▁blatant	-11.0733
ists	-11.0735
▁videos	-11.0735
▁lit	-11.0738
▁showcase	-11.0738
▁saves	-11.0741
boy	-11.0743
▁pan	-11.0743
▁productions	-11.0743
▁thru	-11.0744
▁absence	-11.0745
▁dignity	-11.0745
▁essence	-11.0745
▁investigation	-11.0745
▁nonetheless	-11.0745
▁population	-11.0745
▁reunion	-11.0745
▁competition	-11.0745
▁sloppy	-11.0745
▁Nicholson	-11.0745
▁grasp	-11.0745
▁unforgettable	-11.0745
▁chess	-11.0746
▁Grace	-11.0746
▁press	-11.0747
▁tame	-11.0747
▁terrifying	-11.0747
done	-11.0747
▁beach	-11.0748
▁accused	-11.0749
▁ham	-11.075
▁Tracy	-11.075
▁Play	-11.075
comprehensible	-11.0751
▁Rather	-11.0752
▁Kenneth	-11.0753
▁Father	-11.0755
▁affected	-11.0755
▁distracting	-11.0756
▁struck	-11.0756
▁Mother	-11.0758
▁gotta	-11.0758
▁suspects	-11.0761
▁National	-11.0762
▁succeeded	-11.0764
▁hunting	-11.077
az	-11.0778
▁parent	-11.0796
▁seeking	-11.0798
▁cowboy	-11.0803
▁weapon	-11.0803
▁nail	-11.0811
▁react	-11.0812
▁Ball	-11.0813
▁neck	-11.0817
▁trap	-11.0818
▁stranger	-11.0818
▁represents	-11.0823
type	-11.0825
▁k	-11.0833
law	-11.0843
▁bull	-11.0848
▁improve	-11.0856
pre	-11.0857
▁bottle	-11.0865
▁website	-11.0865
▁menacing	-11.0865
▁documentaries	-11.0865
▁newspaper	-11.0865
▁gripping	-11.0865
▁2006	-11.0866
▁occurred	-11.0866
▁Romero	-11.0866
▁spooky	-11.0866
▁urban	-11.0867
▁editor	-11.0871
▁Tommy	-11.0872
makers	-11.0872
▁Bush	-11.0873
▁devil	-11.0873
▁studios	-11.0877
▁inane	-11.0879
▁Cold	-11.0883
▁Mystery	-11.0888
▁Save	-11.0888
▁Things	-11.0894
▁spoiled	-11.0894
▁loosely	-11.0895
▁Full	-11.0897
▁continued	-11.0898
▁audio	-11.0901
▁blows	-11.091
▁patient	-11.0911
▁rat	-11.0914
ue	-11.0917
▁preview	-11.0924
▁crack	-11.0928
funny	-11.0928
▁titled	-11.0929
▁beg	-11.0932
min	-11.0938
vi	-11.094
▁typically	-11.094
▁westerns	-11.0943
▁Leon	-11.0946
▁advise	-11.0968
▁Julian	-11.0973
▁defeat	-11.0974
▁unintentional	-11.0979
▁clumsy	-11.0987
▁helicopter	-11.0987
▁eerie	-11.0987
▁estate	-11.0987
▁juvenile	-11.0988
▁ambitious	-11.099
▁Sutherland	-11.099
▁Margaret	-11.0991
▁Lawrence	-11.0992
▁futuristic	-11.0992
▁Diana	-11.0992
▁thick	-11.0993
paced	-11.0993
▁Barry	-11.0996
▁Beautiful	-11.0997
▁BUT	-11.0997
▁Lucy	-11.0998
▁outcome	-11.0999
▁Except	-11.0999
que	-11.1
tal	-11.1002
cha	-11.1003
▁receive	-11.1004
▁pack	-11.1005
▁journalist	-11.1009
▁sadistic	-11.1012
▁infamous	-11.1012
ow	-11.1013
▁trade	-11.102
▁farm	-11.1025
▁superhero	-11.103
ap	-11.1031
▁stealing	-11.1038
rie	-11.1046
▁cousin	-11.1046
▁magazine	-11.1047
▁monkey	-11.1048
▁virgin	-11.105
Like	-11.1053
maybe	-11.1053
▁hunter	-11.106
▁dancer	-11.1064
love	-11.1073
▁importantly	-11.1074
away	-11.1079
▁rap	-11.1079
▁closet	-11.1081
▁unit	-11.1081
▁rain	-11.1081
hand	-11.1085
ised	-11.1087
▁encourage	-11.1097
▁explicit	-11.1098
▁spots	-11.1101
vo	-11.1102
▁guilt	-11.1104
▁resist	-11.1108
▁Neil	-11.1109
▁courage	-11.111
▁bleak	-11.1111
▁brilliance	-11.1111
▁inevitable	-11.1111
▁silence	-11.1111
▁synopsis	-11.1111
▁Kapoor	-11.1111
▁internet	-11.1111
▁daring	-11.1111
▁Dixon	-11.1111
▁choreography	-11.1111
▁Scrooge	-11.1113
▁Bergman	-11.1113
▁staff	-11.1115
▁appearances	-11.1118
▁extended	-11.1118
▁surfing	-11.1119
▁Season	-11.112
▁porno	-11.1121
▁removed	-11.1123
▁Annie	-11.1123
▁Code	-11.1131
▁Pie	-11.1136
▁awe	-11.1136
▁clues	-11.1139
▁Years	-11.1145
▁sport	-11.1154
▁messages	-11.1155
tra	-11.1169
▁guest	-11.1175
▁throat	-11.1177
Despite	-11.1178
▁notch	-11.1182
▁techniques	-11.1189
▁redeem	-11.1198
▁na	-11.1199
▁scientists	-11.12
▁states	-11.1208
▁El	-11.121
bu	-11.1219
▁Mad	-11.122
▁engage	-11.1222
▁damage	-11.1222
▁elaborate	-11.1222
▁Con	-11.1223
▁spare	-11.1224
▁sides	-11.1231
▁Hamilton	-11.1236
▁Lloyd	-11.1236
▁innocence	-11.1236
▁vacation	-11.1236
▁crisis	-11.1238
▁Greek	-11.1238
▁Cuba	-11.1239
▁fancy	-11.1239
▁poverty	-11.124
▁Uncle	-11.1241
▁spiritual	-11.1241
▁flight	-11.1241
▁Mitchell	-11.1242
▁Buck	-11.1243
▁coherent	-11.1246
▁stops	-11.1246
▁selfish	-11.1247
▁lend	-11.1247
ugh	-11.1247
▁cup	-11.1251
▁improved	-11.1252
▁Ta	-11.1259
▁disappear	-11.1265
▁ON	-11.1267
▁Ga	-11.1268
▁lifetime	-11.1273
▁Myers	-11.128
▁Cha	-11.1285
▁sacrifice	-11.1289
▁selling	-11.1293
▁link	-11.1295
▁landscape	-11.1303
fe	-11.1304
such	-11.1305
▁Picture	-11.1306
SPOILERS	-11.1307
coming	-11.1308
▁Lo	-11.1311
▁returning	-11.1322
▁tap	-11.1323
wa	-11.1325
its	-11.1326
▁confess	-11.134
ren	-11.1345
▁Mor	-11.1347
▁concentrate	-11.1359
▁wrap	-11.1362
▁silver	-11.1362
▁celluloid	-11.1362
▁tiresome	-11.1362
▁ONLY	-11.1363
▁implausible	-11.1363
▁unoriginal	-11.1363
▁planning	-11.1363
▁proceedings	-11.1363
▁gentle	-11.1364
▁Uwe	-11.1364
▁bold	-11.1366
▁logical	-11.1367
▁Gothic	-11.1368
▁Run	-11.1371
▁racial	-11.1372
▁topless	-11.1373
▁Lisa	-11.1376
?),	-11.1387
▁staying	-11.1388
aka	-11.1395
Ha	-11.1405
▁detailed	-11.1405
au	-11.1413
▁candy	-11.1413
▁measure	-11.1419
▁kicks	-11.1422
▁Bu	-11.1423
▁Ar	-11.1431
▁backdrop	-11.1432
gi	-11.1446
▁min	-11.1448
▁dimension	-11.1468
ky	-11.1469
key	-11.1471
▁liberal	-11.1482
list	-11.1483
▁Jet	-11.1484
▁nerd	-11.1484
▁Church	-11.149
▁philosophy	-11.149
▁Connery	-11.1491
▁antics	-11.1492
▁spread	-11.1492
▁downhill	-11.1492
▁formulaic	-11.1494
▁Leonard	-11.1495
▁Donna	-11.1497
▁photographed	-11.1498
▁bare	-11.15
awful	-11.15
▁accomplished	-11.1503
▁mistaken	-11.1503
▁classes	-11.1506
▁Golden	-11.1507
▁factory	-11.1509
▁cave	-11.151
▁fooled	-11.1513
▁notorious	-11.1514
▁existed	-11.1533
▁chased	-11.1538
▁mis	-11.1544
▁jumping	-11.1548
ries	-11.1549
▁advance	-11.1549
▁returned	-11.1549
Please	-11.1562
▁(19	-11.1565
▁Simpson	-11.1566
▁shine	-11.1568
▁twin	-11.1574
▁Line	-11.158
▁mall	-11.158
are	-11.1585
▁lasted	-11.1587
▁Nor	-11.1587
ip	-11.1598
▁highlights	-11.1603
▁assault	-11.1606
▁Farrell	-11.1613
qu	-11.1614
acted	-11.1615
▁props	-11.1615
▁quit	-11.1615
▁ranks	-11.1616
▁boast	-11.162
▁dreary	-11.162
▁frustration	-11.162
▁generic	-11.162
▁wretched	-11.162
▁stood	-11.162
▁causing	-11.162
▁illegal	-11.162
▁trademark	-11.162
▁Jenny	-11.162
▁cried	-11.162
▁ignorant	-11.1621
▁Khan	-11.1621
▁Ustinov	-11.1622
van	-11.1627
▁combat	-11.1627
▁carefully	-11.163
▁destruction	-11.163
▁Ro	-11.1631
▁Set	-11.1631
▁Glenn	-11.1632
▁Down	-11.1637
▁Roman	-11.164
▁marks	-11.1642
▁repeatedly	-11.1643
make	-11.1643
Go	-11.1648
▁Plot	-11.1648
▁bullets	-11.1649
▁reached	-11.1652
▁ONE	-11.1652
ending	-11.1657
▁stronger	-11.166
▁photo	-11.1668
▁Saw	-11.1673
▁escaped	-11.1677
▁Ba	-11.1677
▁stereotype	-11.1689
cut	-11.169
▁pulling	-11.1692
Good	-11.1694
white	-11.1694
▁occasion	-11.1695
▁afterwards	-11.1696
▁enters	-11.1697
▁ya	-11.1697
▁Franco	-11.1697
▁winds	-11.1699
▁Shaw	-11.1703
▁sin	-11.1707
vin	-11.1709
▁forty	-11.1725
Al	-11.1727
▁ears	-11.1728
▁battles	-11.1734
▁user	-11.1736
▁purchase	-11.1738
fu	-11.1745
▁overwhelming	-11.1745
ino	-11.1747
▁jazz	-11.1749
▁distinct	-11.175
▁chest	-11.1751
▁captivating	-11.1752
▁nephew	-11.1752
▁nervous	-11.1752
▁Damme	-11.1752
▁rocks	-11.1753
▁transformation	-11.1753
▁devoted	-11.1754
▁sophisticated	-11.1755
▁Spock	-11.1755
▁clothing	-11.1756
▁Swedish	-11.1756
▁reaches	-11.1757
▁elderly	-11.1757
50	-11.1758
▁Amanda	-11.1759
▁Grey	-11.1761
▁psychic	-11.1762
▁lowest	-11.1769
▁engaged	-11.1771
▁Fire	-11.1772
▁Ko	-11.1776
▁Sound	-11.1777
ran	-11.1782
▁ignored	-11.1783
▁Granted	-11.1789
10	-11.1791
▁tortured	-11.1792
▁resembles	-11.1795
▁Has	-11.1799
▁projects	-11.1803
▁guessed	-11.1812
▁covers	-11.1814
shot	-11.1817
▁revelation	-11.183
ure	-11.1831
ik	-11.1832
▁lo	-11.1833
about	-11.1834
▁avoided	-11.1835
ris	-11.1836
▁pen	-11.1836
Still	-11.1838
▁Dragon	-11.184
▁beer	-11.1846
▁commented	-11.1848
▁goodness	-11.185
▁explaining	-11.1854
▁Heart	-11.1866
▁Real	-11.1866
▁freak	-11.1867
▁harder	-11.1867
▁Days	-11.1868
▁transform	-11.187
▁guarantee	-11.1872
ff	-11.1874
▁adequate	-11.1875
▁wealth	-11.1881
▁blast	-11.1881
▁pin	-11.1884
▁border	-11.1885
▁Miike	-11.1885
▁kitchen	-11.1885
▁producing	-11.1885
▁Cassidy	-11.1885
▁Niro	-11.1886
▁Francisco	-11.1886
▁health	-11.1886
▁education	-11.1887
▁Baldwin	-11.1887
▁abilities	-11.1887
▁innovative	-11.1887
▁Turner	-11.1888
▁Griffith	-11.1888
▁splatter	-11.1889
▁Terry	-11.1889
▁translation	-11.189
▁cheated	-11.189
▁Jonathan	-11.1891
▁Leslie	-11.1893
▁Chase	-11.1893
▁walls	-11.1893
▁mouse	-11.1894
▁Kane	-11.1896
▁consistently	-11.1896
▁Rick	-11.1897
▁Jake	-11.1897
▁Bela	-11.1899
▁Sally	-11.19
▁burned	-11.1903
▁hitting	-11.1904
▁alas	-11.1905
▁CD	-11.1906
▁offering	-11.1913
▁crimes	-11.1914
▁button	-11.1918
EN	-11.1929
school	-11.193
▁thrill	-11.1932
▁WAS	-11.194
▁slave	-11.1947
ford	-11.195
▁Gore	-11.1951
most	-11.1962
Avoid	-11.1967
▁portion	-11.1968
▁blockbuster	-11.1972
▁incident	-11.1973
▁workers	-11.1975
▁finger	-11.1976
▁staged	-11.198
▁timeless	-11.1981
▁Sho	-11.1984
ica	-11.1988
▁digital	-11.2014
▁bears	-11.2019
face	-11.202
▁Posey	-11.202
▁rifle	-11.202
▁slick	-11.202
▁psychiatrist	-11.202
▁funeral	-11.202
▁Graham	-11.202
▁abusive	-11.202
▁bathroom	-11.2021
▁Sandler	-11.2021
▁miserable	-11.2021
uaid	-11.2021
▁exotic	-11.2022
▁Palma	-11.2023
▁Wallace	-11.2024
▁eccentric	-11.2025
▁Dar	-11.2025
▁Matthau	-11.2026
▁rubber	-11.2026
Co	-11.2026
▁Inspector	-11.2028
hether	-11.2029
room	-11.2034
▁2001	-11.2035
▁riot	-11.2035
▁smoking	-11.2038
▁fix	-11.2039
▁Honestly	-11.2042
▁reasonable	-11.2044
tch	-11.2044
▁grab	-11.2058
▁outfit	-11.206
▁mate	-11.2079
▁oddly	-11.2082
▁politically	-11.2085
▁dancers	-11.2091
woman	-11.2093
▁Films	-11.2097
motion	-11.2099
▁Lots	-11.2106
▁principal	-11.2108
▁Son	-11.211
▁aid	-11.2116
▁drops	-11.2119
▁gather	-11.212
▁transfer	-11.2124
▁achievement	-11.2125
val	-11.2128
▁fatal	-11.2139
▁cliche	-11.2154
▁Iraq	-11.2154
▁maid	-11.2156
▁arrogant	-11.2157
▁mixture	-11.2157
▁simplistic	-11.2157
▁flies	-11.2157
▁piano	-11.2157
▁dreck	-11.2157
▁Southern	-11.2157
▁gear	-11.2158
▁redemption	-11.2158
▁birthday	-11.2158
▁dating	-11.2159
▁perfection	-11.2159
▁Walker	-11.216
▁Gerard	-11.216
▁importance	-11.216
▁Angeles	-11.216
▁Damon	-11.2162
▁Abraham	-11.2162
▁disturbed	-11.2162
▁valuable	-11.2163
▁Neither	-11.2164
▁fears	-11.2164
▁Akshay	-11.2164
▁Carter	-11.2168
▁attracted	-11.217
▁handed	-11.2173
▁conventional	-11.2186
▁Sea	-11.2188
▁Bar	-11.2199
ix	-11.22
▁rely	-11.2204
▁performing	-11.2204
▁Del	-11.2217
ko	-11.2217
▁Carl	-11.2218
▁Eve	-11.2226
ana	-11.2227
▁tall	-11.2232
▁arrive	-11.2237
great	-11.2238
ray	-11.2245
▁discussion	-11.2248
▁explosion	-11.225
▁creation	-11.2252
ny	-11.2254
▁21	-11.2255
▁Cher	-11.2255
▁thrillers	-11.2263
▁strikes	-11.2269
▁west	-11.2269
▁messed	-11.2275
▁shift	-11.2277
▁fond	-11.2278
▁rave	-11.2284
▁flawless	-11.2285
▁gal	-11.2289
uinn	-11.2291
▁Hanks	-11.2292
▁Australia	-11.2293
▁Morris	-11.2294
▁fox	-11.2294
According	-11.2296
▁french	-11.2296
▁frustrating	-11.2296
▁Downey	-11.2297
▁2005	-11.2297
▁Grim	-11.2297
▁Cox	-11.2298
▁contest	-11.2299
▁morality	-11.2299
▁Dutch	-11.23
▁murderous	-11.2301
▁Dorothy	-11.2301
▁Willis	-11.2301
▁Linda	-11.2302
Le	-11.2302
▁uneven	-11.2303
▁Angela	-11.2304
▁alike	-11.2305
row	-11.2307
▁instantly	-11.2307
▁Brady	-11.2307
▁exposed	-11.2308
AR	-11.2309
▁souls	-11.231
▁ear	-11.231
play	-11.2314
du	-11.2316
▁possessed	-11.2317
▁demons	-11.2323
▁Cary	-11.2323
▁wow	-11.2324
▁Special	-11.2325
Dr	-11.2325
▁displays	-11.2332
▁Stevens	-11.2333
then	-11.234
▁dinosaurs	-11.234
▁jaw	-11.2343
▁SPOILER	-11.2348
▁Pre	-11.2348
ned	-11.2354
▁Danes	-11.2355
▁Val	-11.2368
▁bond	-11.2369
▁Germans	-11.2371
▁wonders	-11.2373
▁thumbs	-11.2374
▁tie	-11.2379
▁involve	-11.2379
▁consequences	-11.238
stop	-11.2382
▁web	-11.2385
▁Da	-11.2388
series	-11.2388
▁favour	-11.2388
▁dinosaur	-11.2393
▁h	-11.2402
▁nut	-11.2408
▁severe	-11.2412
▁climb	-11.2415
▁widow	-11.242
▁replace	-11.2424
▁smooth	-11.2425
▁definite	-11.2425
▁shirt	-11.2427
▁fu	-11.2428
▁stinks	-11.2431
ette	-11.2433
▁rendition	-11.2437
▁travesty	-11.2437
▁yesterday	-11.2437
▁liking	-11.2437
▁rude	-11.2437
▁trio	-11.2438
▁kidnap	-11.2439
▁countryside	-11.244
▁Campbell	-11.2441
▁Kubrick	-11.2443
▁Indeed	-11.2443
▁Greg	-11.2447
▁Emma	-11.2448
hy	-11.2448
▁Craig	-11.2449
▁overlooked	-11.245
▁Force	-11.2452
▁sadness	-11.2454
▁resemble	-11.2455
▁alcoholic	-11.2455
▁tripe	-11.2461
▁influenced	-11.2462
▁Made	-11.2462
▁bill	-11.2467
▁survived	-11.2467
▁witnessed	-11.2468
▁screams	-11.2469
▁stress	-11.247
▁contained	-11.2472
▁Dickens	-11.2473
▁arrested	-11.2473
▁scripts	-11.2473
▁alternate	-11.2476
▁v	-11.2477
......	-11.2483
▁Ri	-11.2486
80	-11.2492
▁Rod	-11.2492
▁Stooges	-11.2492
▁movements	-11.2495
▁Berlin	-11.2495
eyed	-11.2506
▁crush	-11.2507
▁dozens	-11.2508
ide	-11.2508
ombies	-11.2514
▁50'	-11.2519
new	-11.2522
▁practice	-11.2526
▁cards	-11.2534
▁relation	-11.2538
▁waited	-11.2538
▁Ice	-11.2541
▁individuals	-11.2541
core	-11.2546
car	-11.2556
signed	-11.256
ily	-11.2565
▁disguise	-11.2566
▁vast	-11.2568
▁headed	-11.2569
▁cure	-11.2572
▁Timon	-11.2575
▁Kumar	-11.2578
▁dragon	-11.2579
▁vulgar	-11.2579
▁WORST	-11.258
▁possibilities	-11.258
▁ruthless	-11.258
▁territory	-11.258
▁advertising	-11.258
▁pride	-11.258
▁buddies	-11.258
iest	-11.258
▁Theater	-11.258
▁Know	-11.2581
▁Drake	-11.2581
▁Fulci	-11.2581
▁operation	-11.2583
▁hardcore	-11.2583
▁deliberately	-11.2584
▁composed	-11.2584
▁wrestling	-11.2585
▁Soviet	-11.2585
▁suitable	-11.2586
▁WHY	-11.2586
▁southern	-11.2586
▁Hyde	-11.2587
going	-11.2592
▁Usually	-11.2592
▁purchased	-11.2595
▁Christy	-11.2596
▁wandering	-11.2596
▁conversations	-11.2598
▁resources	-11.26
▁Read	-11.2603
▁Princess	-11.2604
▁Apart	-11.2606
lon	-11.2608
▁Norman	-11.261
▁teaching	-11.2611
▁kicked	-11.2619
▁code	-11.2627
▁Wal	-11.2635
▁thoughtful	-11.2647
▁hearts	-11.2648
▁provid	-11.2657
world	-11.266
pp	-11.2664
▁coup	-11.2664
James	-11.2667
special	-11.2667
▁Hu	-11.2672
movies	-11.2672
▁inspiring	-11.2674
▁heroic	-11.2676
▁differences	-11.2681
esque	-11.2686
▁prostitute	-11.2687
▁attend	-11.2688
▁comics	-11.269
▁executive	-11.2691
▁Year	-11.2695
▁Din	-11.2701
▁impress	-11.2707
▁lift	-11.2707
▁boot	-11.2707
fer	-11.2709
▁financial	-11.2713
▁subsequent	-11.2713
▁consistent	-11.2714
▁dimensional	-11.2717
▁spoke	-11.2722
▁Crawford	-11.2725
▁Reynolds	-11.2725
▁lackluster	-11.2725
▁minimum	-11.2725
▁patience	-11.2725
▁vicious	-11.2725
▁distant	-11.2725
▁album	-11.2725
▁Owen	-11.2725
▁stale	-11.2726
▁vein	-11.2727
▁depressed	-11.2727
▁HBO	-11.2728
ham	-11.2729
▁laughably	-11.273
▁nearby	-11.273
▁9/10	-11.2731
▁scientific	-11.2736
▁tasteless	-11.2736
nce	-11.2737
▁Kay	-11.2741
hot	-11.2744
▁highest	-11.2744
▁albeit	-11.2744
▁achieved	-11.2754
▁drawing	-11.2754
▁Ch	-11.2755
▁beats	-11.2756
▁recognized	-11.2759
▁5.	-11.276
▁revealing	-11.2762
▁Pa	-11.2762
lan	-11.2763
than	-11.2766
▁ingredients	-11.2773
▁explosions	-11.2773
rent	-11.2775
▁sons	-11.2779
▁suited	-11.2781
▁Thanks	-11.2782
▁destroying	-11.2789
ib	-11.2789
▁notion	-11.2792
▁acid	-11.2792
chi	-11.2793
▁disappoint	-11.2795
▁em	-11.28
▁wont	-11.2804
stars	-11.2804
od	-11.2805
ji	-11.2806
now	-11.2808
▁potentially	-11.2808
point	-11.2809
SPOILER	-11.281
drama	-11.2811
Perhaps	-11.2814
having	-11.2815
"...	-11.2824
▁Bat	-11.2826
▁threat	-11.2827
▁discuss	-11.2832
▁corpse	-11.2834
▁Characters	-11.2835
▁progress	-11.2845
▁plant	-11.2848
▁motives	-11.2854
▁Hey	-11.2855
▁excessive	-11.286
▁Andrew	-11.2861
▁agents	-11.2861
▁switch	-11.2862
▁bang	-11.2866
▁electric	-11.2871
▁Bakshi	-11.2872
▁absent	-11.2872
▁emphasis	-11.2872
▁equipment	-11.2872
▁imitation	-11.2872
▁insipid	-11.2872
▁silliness	-11.2872
▁nevertheless	-11.2872
▁banned	-11.2872
▁stilted	-11.2872
▁altogether	-11.2872
▁whale	-11.2872
▁kung	-11.2872
▁Barrymore	-11.2872
▁2004	-11.2872
▁muddled	-11.2874
▁subtlety	-11.2874
▁swimming	-11.2874
▁homosexual	-11.2874
▁Orleans	-11.2875
▁Whoopi	-11.2876
▁Dawn	-11.2879
▁Denzel	-11.2879
▁Certainly	-11.2879
▁Dance	-11.2879
▁presumably	-11.288
▁Rambo	-11.288
▁passes	-11.2883
▁tank	-11.2883
19	-11.2883
▁dud	-11.2886
jo	-11.2889
▁Excellent	-11.289
▁Ramones	-11.2891
hop	-11.2894
▁lord	-11.2895
▁ease	-11.2897
▁Under	-11.2897
▁compell	-11.2898
▁catchy	-11.2903
▁threatening	-11.2907
▁desired	-11.2909
▁displayed	-11.2911
▁trashy	-11.2914
▁faster	-11.2915
▁da	-11.2917
▁FOR	-11.2931
▁map	-11.2936
▁Richards	-11.2939
pot	-11.2944
▁smaller	-11.295
nal	-11.2958
▁letters	-11.296
actors	-11.2966
guy	-11.2973
▁se	-11.2974
▁directs	-11.2984
▁dynamic	-11.2985
▁Hunt	-11.2988
▁threaten	-11.2991
▁decisions	-11.2991
▁behave	-11.2993
▁motivations	-11.2994
▁pitch	-11.2998
part	-11.2999
▁folk	-11.2999
▁Actor	-11.3001
▁Kid	-11.3007
▁enormous	-11.3009
▁losers	-11.301
▁feed	-11.3012
▁odds	-11.3016
▁BE	-11.3017
▁access	-11.3021
▁Paxton	-11.3021
▁coffee	-11.3021
▁equivalent	-11.3021
▁mundane	-11.3021
▁pitiful	-11.3021
▁GOOD	-11.3021
▁sappy	-11.3021
▁seventies	-11.3022
▁symbolism	-11.3022
▁south	-11.3022
▁CG	-11.3022
▁Carradine	-11.3023
▁Robinson	-11.3023
▁nostalgic	-11.3023
▁authority	-11.3024
▁cinematographer	-11.3024
Tom	-11.3025
▁Civil	-11.3025
▁tunes	-11.3025
▁Harvey	-11.3026
▁Philip	-11.3027
▁Bette	-11.3027
▁Shirley	-11.3028
▁questionable	-11.3028
▁weakest	-11.3029
▁realizing	-11.3029
▁cheating	-11.303
▁Brain	-11.303
▁Make	-11.3031
▁incompetent	-11.3033
▁Nevertheless	-11.3035
▁lifestyle	-11.3036
▁Matthew	-11.3036
▁Ca	-11.3038
▁Justin	-11.3038
▁overacting	-11.304
watch	-11.3042
▁tender	-11.3044
ite	-11.3044
▁explored	-11.3046
▁Ten	-11.3047
▁Tr	-11.3052
▁promised	-11.3055
▁Wait	-11.306
▁Hills	-11.3062
wing	-11.3062
▁Amy	-11.3063
▁jumped	-11.3065
IC	-11.3065
▁staring	-11.3066
▁sticks	-11.3069
▁brains	-11.3072
▁Com	-11.3073
▁reaching	-11.3076
teen	-11.308
▁developing	-11.3083
▁aging	-11.3083
ative	-11.3093
▁thugs	-11.3098
▁tales	-11.3102
▁notably	-11.3109
▁1)	-11.3109
▁bone	-11.3111
▁Dee	-11.3112
▁Living	-11.3116
handed	-11.3122
▁leg	-11.3123
▁Ross	-11.3123
▁sentiment	-11.3125
▁Josh	-11.3126
llowing	-11.3128
▁enhance	-11.3133
▁creep	-11.3138
▁hints	-11.3139
oe	-11.314
▁bullet	-11.314
▁Duke	-11.3142
ically	-11.3145
▁wing	-11.3146
▁Winters	-11.3146
▁robots	-11.3146
▁Monster	-11.3148
▁capital	-11.3149
▁Brother	-11.3154
lit	-11.3155
▁exchange	-11.3159
▁instant	-11.3161
▁legal	-11.3163
▁Hopkins	-11.3173
▁worried	-11.3173
▁demented	-11.3173
▁irrelevant	-11.3173
▁phony	-11.3173
▁Jeffrey	-11.3173
Ma	-11.3173
▁Carrey	-11.3173
▁punishment	-11.3173
▁blew	-11.3173
▁mile	-11.3173
▁Nathan	-11.3173
▁moronic	-11.3174
ect	-11.3174
▁shall	-11.3174
▁property	-11.3174
▁gradually	-11.3174
▁cake	-11.3174
▁philosophical	-11.3176
▁McCoy	-11.3176
▁inappropriate	-11.3177
▁boxing	-11.3178
▁Sissy	-11.3179
▁pour	-11.318
hood	-11.318
▁Through	-11.318
▁tad	-11.3181
▁define	-11.3183
▁heat	-11.3183
▁Godzilla	-11.3183
▁Terrible	-11.3183
▁Roth	-11.3183
▁Secret	-11.3184
▁Fear	-11.3184
▁Shame	-11.3185
▁WAY	-11.3186
▁hurts	-11.3188
▁passionate	-11.3188
ins	-11.319
▁tracks	-11.3197
▁represented	-11.3198
-13	-11.3204
▁Bud	-11.3205
▁Bell	-11.3207
cat	-11.3207
use	-11.3208
▁cats	-11.3211
▁provoking	-11.3216
▁Planet	-11.3217
▁pretending	-11.322
▁designer	-11.3221
▁Aside	-11.3226
▁traveling	-11.3234
▁mentioning	-11.3234
uck	-11.3241
▁quotes	-11.3264
▁agreed	-11.3265
▁fed	-11.3271
▁shadows	-11.3279
THE	-11.3279
▁imagined	-11.3281
www	-11.3285
▁companion	-11.3295
ella	-11.3301
fully	-11.3302
▁sink	-11.3304
dis	-11.3306
▁performer	-11.3307
▁trees	-11.3311
▁models	-11.3311
▁vivid	-11.3315
▁Nazis	-11.3315
▁spring	-11.3318
▁Boys	-11.3323
▁inventive	-11.3325
▁plausible	-11.3327
▁Palance	-11.3327
▁wore	-11.3327
▁primary	-11.3327
▁rehash	-11.3327
▁Series	-11.3327
▁construction	-11.3327
▁selection	-11.3327
▁progresses	-11.3329
▁golden	-11.3329
▁35	-11.333
▁Hart	-11.3331
▁Ian	-11.3331
▁Brooklyn	-11.3331
▁humble	-11.3331
▁copies	-11.3332
▁rush	-11.3332
▁International	-11.3332
▁Fuller	-11.3333
▁Skip	-11.3334
▁Somehow	-11.3335
▁Willie	-11.3336
▁pants	-11.3337
▁yelling	-11.3337
▁tag	-11.3338
▁deny	-11.3339
ions	-11.3343
▁Louise	-11.3343
ux	-11.3349
▁terrorists	-11.3352
▁burning	-11.3358
▁pot	-11.3359
▁toys	-11.3365
▁Jan	-11.3367
▁partly	-11.3367
▁Phil	-11.3367
▁painted	-11.3367
Hey	-11.3368
rr	-11.3369
lock	-11.3374
ns	-11.3379
▁marketing	-11.338
▁2"	-11.3381
night	-11.3394
▁Lin	-11.3404
▁blond	-11.3407
▁Dog	-11.3409
tan	-11.3416
▁remarks	-11.3422
▁Rain	-11.3423
Jack	-11.3425
Black	-11.3426
George	-11.3426
look	-11.3435
▁Girls	-11.3437
▁ideal	-11.3451
▁montage	-11.3451
▁nomination	-11.3458
▁rob	-11.3471
▁objective	-11.3471
▁demands	-11.3473
▁Waters	-11.3475
▁trail	-11.3477
▁aunt	-11.3479
▁Century	-11.3483
▁horrifying	-11.3483
▁intimate	-11.3483
▁nostalgia	-11.3483
▁April	-11.3483
▁Hurt	-11.3483
▁Gere	-11.3483
▁calm	-11.3483
▁2003	-11.3483
▁Alvin	-11.3484
▁comfortable	-11.3484
▁REAL	-11.3485
▁WATCH	-11.3485
▁miracle	-11.3485
▁Hudson	-11.3486
▁Hood	-11.3488
▁conservative	-11.3489
▁Sidney	-11.3489
▁Ya	-11.3489
▁Major	-11.3489
▁mountains	-11.349
▁Richardson	-11.3491
▁doomed	-11.3492
▁Diane	-11.3492
▁Hugh	-11.3492
▁catches	-11.3493
His	-11.3493
▁wished	-11.3494
▁Imagine	-11.3499
▁Worth	-11.3499
▁Amitabh	-11.35
▁Writer	-11.35
bar	-11.35
▁disappeared	-11.3501
▁Four	-11.3501
▁Remember	-11.3504
▁Given	-11.3507
▁3.	-11.3509
▁stretched	-11.3511
▁cow	-11.3514
▁Raj	-11.3515
▁address	-11.3517
▁claimed	-11.3519
▁sucker	-11.352
▁brutally	-11.3522
0	-11.3526
▁fighter	-11.3527
▁relations	-11.3529
▁rage	-11.3532
▁recorded	-11.3533
▁darker	-11.3538
▁Alfred	-11.354
cal	-11.3548
▁kicking	-11.3549
lar	-11.355
▁recording	-11.3555
▁officers	-11.3557
▁delivering	-11.3566
▁shoes	-11.3568
big	-11.357
ville	-11.3571
▁amounts	-11.3576
IE	-11.3584
Once	-11.3587
▁careers	-11.3589
ile	-11.359
ki	-11.3593
▁En	-11.3597
▁focusing	-11.3599
▁transition	-11.3616
▁4.	-11.3619
▁suits	-11.3625
▁slaughter	-11.3627
▁suspend	-11.3629
▁terrorist	-11.3634
12	-11.3636
▁disgrace	-11.3636
▁Vegas	-11.3637
Mi	-11.3638
▁Point	-11.3639
▁bike	-11.3639
▁frequent	-11.3639
▁enemies	-11.3642
▁stellar	-11.3642
▁primarily	-11.3642
▁adolescent	-11.3642
▁Pierce	-11.3642
▁indication	-11.3642
▁hatred	-11.3642
▁bedroom	-11.3642
▁undoubtedly	-11.3642
▁similarities	-11.3644
▁Madonna	-11.3644
▁Preminger	-11.3644
▁eaten	-11.3644
▁Tierney	-11.3645
▁Alexander	-11.3646
▁passable	-11.3646
▁immensely	-11.3646
▁2/10	-11.3647
▁22	-11.3648
▁choreographed	-11.3651
▁hopelessly	-11.3652
▁Reeves	-11.3652
▁Gandhi	-11.3655
act	-11.3656
▁belt	-11.3657
▁Would	-11.3661
▁package	-11.3665
▁Top	-11.3671
▁troops	-11.3672
▁correctly	-11.3673
▁realised	-11.3674
▁wig	-11.3674
han	-11.3677
▁hates	-11.369
▁Mars	-11.3693
▁*****	-11.3697
▁Arab	-11.3704
ising	-11.3707
show	-11.3709
▁areas	-11.3718
▁Eyes	-11.3734
▁command	-11.3738
▁Lu	-11.3741
▁subjects	-11.3743
▁buildings	-11.3745
Two	-11.3745
based	-11.3749
▁checked	-11.375
▁nightmares	-11.3753
lic	-11.3754
Lo	-11.3763
▁compar	-11.3773
▁wound	-11.3777
▁interaction	-11.378
RA	-11.3781
▁shake	-11.3783
▁experiments	-11.3787
▁Thing	-11.3791
▁fluff	-11.3796
▁Claus	-11.3796
▁Bra	-11.3798
▁Rome	-11.3801
▁inferior	-11.3802
▁poison	-11.3802
▁Lundgren	-11.3803
▁compliment	-11.3803
▁creativity	-11.3803
▁glory	-11.3803
▁possibility	-11.3803
▁preposterous	-11.3803
▁simplicity	-11.3803
▁solution	-11.3803
▁nonsensical	-11.3803
▁remarkably	-11.3803
▁rotten	-11.3803
▁unsettling	-11.3803
▁wisdom	-11.3805
▁'70	-11.3806
▁complexity	-11.3806
▁bonus	-11.3807
▁Scottish	-11.3808
▁revolutionary	-11.3809
ong	-11.381
▁Nice	-11.381
▁Speed	-11.3811
▁floating	-11.3812
▁intentionally	-11.3812
▁Thus	-11.3813
▁Othello	-11.3814
▁thankfully	-11.3818
▁Spirit	-11.3818
ake	-11.3821
▁understandable	-11.3822
▁lure	-11.3826
▁online	-11.3828
▁Beatles	-11.3829
▁recommendation	-11.3829
▁Scary	-11.383
▁discovery	-11.3833
▁DON	-11.3838
▁GO	-11.384
▁honesty	-11.384
faced	-11.3843
▁unreal	-11.3844
▁lyrics	-11.3844
▁span	-11.3847
▁rolled	-11.3851
▁harm	-11.3861
▁chicks	-11.3869
▁worker	-11.3879
▁channels	-11.388
Ho	-11.3891
▁cameras	-11.3898
ory	-11.39
dead	-11.3908
▁pit	-11.3908
Great	-11.3909
Hollywood	-11.3909
worthy	-11.3913
iff	-11.3918
-1	-11.3921
▁attract	-11.3927
▁screw	-11.393
▁OR	-11.3935
▁conflicts	-11.3937
▁feat	-11.3939
▁official	-11.3943
Ro	-11.3943
▁satisfy	-11.3945
▁signs	-11.3946
▁describes	-11.3946
▁overlook	-11.3953
▁remove	-11.3957
▁lately	-11.3959
human	-11.396
▁trend	-11.3961
▁loyal	-11.3962
▁stole	-11.3964
▁Gabriel	-11.3965
▁DeNiro	-11.3967
▁attorney	-11.3967
▁grotesque	-11.3967
▁misguided	-11.3967
▁opportunities	-11.3967
▁pattern	-11.3967
▁shaky	-11.3967
▁asylum	-11.3967
▁Basinger	-11.3967
▁Ollie	-11.3967
▁distribution	-11.3967
▁Scotland	-11.3967
▁taught	-11.3967
▁Logan	-11.3967
▁wrapped	-11.3967
▁institution	-11.3968
▁Reid	-11.3968
▁exploration	-11.3968
▁safety	-11.3969
▁confrontation	-11.3969
▁Virgin	-11.3969
▁Blockbuster	-11.3969
▁composer	-11.3971
▁reflection	-11.3971
▁Rukh	-11.3971
▁Carlito	-11.3971
▁wheel	-11.3972
▁satisfied	-11.3972
▁noted	-11.3973
▁Godfather	-11.3974
▁Jeremy	-11.3974
▁Karen	-11.3974
▁Either	-11.3975
▁Sabrina	-11.3975
▁Boyer	-11.3975
▁invented	-11.3976
▁granted	-11.3976
earned	-11.3976
▁Funny	-11.3978
▁Omen	-11.3978
▁Alone	-11.398
▁Fortunately	-11.398
▁arrived	-11.3983
▁vaguely	-11.3985
▁skits	-11.3988
▁cap	-11.3989
▁receiv	-11.3989
▁ST	-11.3992
▁stark	-11.3992
IT	-11.3993
▁counter	-11.3993
▁SEE	-11.3994
▁skit	-11.3996
▁Air	-11.4015
▁travels	-11.402
▁Hero	-11.4021
▁Cut	-11.4024
name	-11.4025
▁secretly	-11.4035
mar	-11.4044
Can	-11.4047
Look	-11.4055
▁je	-11.4062
▁shortly	-11.4063
era	-11.4064
wan	-11.4067
Peter	-11.4077
▁affect	-11.4077
book	-11.4079
gh	-11.408
▁Kat	-11.4093
▁Peters	-11.4094
ties	-11.4098
▁dump	-11.4099
▁comfort	-11.4109
▁chew	-11.4111
▁swing	-11.4112
▁promote	-11.4114
▁slice	-11.4119
▁Muslim	-11.4121
▁peak	-11.4122
▁Song	-11.4122
▁caricatures	-11.4126
▁cr	-11.4129
▁capturing	-11.4133
▁choppy	-11.4133
▁empathy	-11.4133
▁morbid	-11.4133
▁paranoia	-11.4133
▁riveting	-11.4133
▁buffalo	-11.4134
▁mummy	-11.4134
▁adorable	-11.4134
▁Buster	-11.4134
▁planned	-11.4134
▁Leigh	-11.4135
▁Pearl	-11.4137
▁Timberlake	-11.4138
▁Chavez	-11.4138
▁Vance	-11.4138
▁Lukas	-11.4139
▁Dolph	-11.4139
▁considerable	-11.4139
▁Alicia	-11.414
▁/>1.	-11.414
▁dust	-11.4142
▁Everybody	-11.4143
ai	-11.4149
▁policeman	-11.4151
▁clock	-11.4152
Mo	-11.4153
▁lengthy	-11.4158
▁filler	-11.4162
▁conceived	-11.4168
▁Seven	-11.417
▁statue	-11.417
▁historically	-11.4189
▁classical	-11.4195
▁photos	-11.4201
ice	-11.4201
maker	-11.4206
▁earn	-11.4209
dom	-11.421
▁Charl	-11.4211
hal	-11.4212
lly	-11.4216
pin	-11.4222
▁useful	-11.4224
TH	-11.4227
ear	-11.4229
▁buffs	-11.4231
run	-11.4235
▁Israel	-11.4242
William	-11.4245
▁subplots	-11.4247
▁catching	-11.4252
▁function	-11.4255
▁3000	-11.4257
▁angel	-11.4268
▁limit	-11.4274
▁Francis	-11.4276
za	-11.4277
▁spark	-11.4281
▁RE	-11.4283
▁parallel	-11.4287
▁generate	-11.4289
▁warrior	-11.4292
▁sketch	-11.4293
▁defense	-11.4297
▁Clint	-11.4301
▁beneath	-11.4303
▁celebration	-11.4303
▁corporate	-11.4303
▁desperation	-11.4303
▁hackneyed	-11.4303
▁inconsistent	-11.4303
▁integrity	-11.4303
▁manipulative	-11.4303
▁shoddy	-11.4303
ese	-11.4303
▁Canyon	-11.4303
▁pursuit	-11.4303
▁cattle	-11.4303
▁appreciation	-11.4303
▁grandfather	-11.4303
▁Cameron	-11.4303
▁1999	-11.4303
▁darn	-11.4303
▁unlikable	-11.4303
▁inexplicably	-11.4303
▁conviction	-11.4304
▁coat	-11.4304
▁fascinated	-11.4305
▁Project	-11.4305
▁Streisand	-11.4305
▁Spain	-11.4306
▁illness	-11.4307
▁misleading	-11.4308
▁witnesses	-11.4309
▁romp	-11.4311
both	-11.4311
▁Eventually	-11.4311
▁duty	-11.4312
▁Half	-11.4312
▁Women	-11.4314
▁amused	-11.4314
▁Antwone	-11.4315
▁Spacey	-11.4317
▁Charlotte	-11.4318
▁scope	-11.4319
▁/>4/10	-11.4329
▁8/10	-11.4332
▁Final	-11.4341
▁spirits	-11.4352
▁/>***	-11.4356
▁hence	-11.4358
ied	-11.4359
▁randomly	-11.4361
▁et	-11.4363
Bo	-11.4377
▁fest	-11.4378
eta	-11.4379
yn	-11.4382
▁notes	-11.4382
ible	-11.4384
aw	-11.4388
▁pale	-11.439
forward	-11.4395
take	-11.4399
eg	-11.44
▁beliefs	-11.4409
▁Band	-11.441
ations	-11.441
▁Pan	-11.4413
▁report	-11.4414
▁depicts	-11.4416
▁wood	-11.4419
ras	-11.442
▁metaphor	-11.4421
▁hilariously	-11.4435
two	-11.4443
▁chuckle	-11.4448
▁require	-11.4451
▁predict	-11.4455
▁coincidence	-11.4461
▁Reeve	-11.4464
▁relatives	-11.4464
▁schlock	-11.4468
▁eager	-11.4468
any	-11.4471
lie	-11.4471
▁deaf	-11.4474
▁awhile	-11.4474
▁banal	-11.4475
▁fantasies	-11.4475
▁giallo	-11.4475
▁thief	-11.4475
▁wacky	-11.4475
▁Betty	-11.4475
▁isolated	-11.4475
▁visible	-11.4475
▁Simmons	-11.4475
▁Vader	-11.4476
▁Garbo	-11.4476
▁poetry	-11.4476
▁dismal	-11.4476
▁improvement	-11.4476
▁cities	-11.4476
▁specifically	-11.4477
versus	-11.4477
▁misery	-11.4477
▁Bronson	-11.4478
▁prize	-11.4478
▁Harold	-11.4478
▁tacky	-11.4478
▁glasses	-11.4479
▁Wedding	-11.448
hu	-11.448
▁Office	-11.448
▁Loretta	-11.4483
▁businessman	-11.4486
▁Sex	-11.449
▁boom	-11.4491
▁Nicholas	-11.4491
▁von	-11.4492
▁lively	-11.4496
▁doll	-11.4501
▁Nu	-11.4501
▁gifted	-11.4503
len	-11.4504
▁poke	-11.4506
still	-11.4511
▁Head	-11.4513
▁Penn	-11.4513
▁Welles	-11.4515
▁CAN	-11.4528
▁Kids	-11.4532
▁trailers	-11.4535
▁comedians	-11.4537
▁orders	-11.4542
▁bust	-11.4549
▁convincingly	-11.4556
▁ruins	-11.4569
▁shred	-11.4574
Ben	-11.4576
(..	-11.4576
thing	-11.4579
▁nuts	-11.4582
lying	-11.4583
▁pays	-11.4591
length	-11.4593
▁Bon	-11.4596
▁Phillips	-11.4596
▁Adams	-11.4597
zer	-11.4597
gar	-11.4603
▁forms	-11.4605
▁Ex	-11.4606
▁Mom	-11.4615
▁criticize	-11.4618
▁Mu	-11.4627
▁introduce	-11.4629
port	-11.4634
▁Knight	-11.4639
▁divorce	-11.4639
▁punk	-11.4641
▁WW	-11.4642
▁tribe	-11.4642
▁rebel	-11.4643
▁buck	-11.4643
Bad	-11.4644
▁trace	-11.4647
climactic	-11.465
▁GREAT	-11.4651
▁delicious	-11.4651
▁profanity	-11.4651
▁responsibility	-11.4651
▁Tarantino	-11.4651
▁sleaze	-11.4651
▁immature	-11.4651
▁camcorder	-11.4651
▁dramas	-11.4651
▁obtain	-11.4651
▁steel	-11.4651
▁narrow	-11.4651
▁species	-11.4651
▁cancer	-11.4651
▁fought	-11.4651
▁2007	-11.4651
▁Ireland	-11.4651
▁unaware	-11.4651
▁apply	-11.4651
▁History	-11.4652
▁Foxx	-11.4652
▁earnest	-11.4652
Title	-11.4652
▁eighties	-11.4652
▁MTV	-11.4653
▁mysteries	-11.4653
▁Soldier	-11.4654
▁Forget	-11.4654
▁Grayson	-11.4655
▁vulnerable	-11.4655
other	-11.4656
▁Boston	-11.4656
▁du	-11.4656
▁Sharon	-11.4657
▁Try	-11.4659
▁Horrible	-11.466
▁barrel	-11.466
▁Murray	-11.4661
▁Carla	-11.4661
▁Keith	-11.4661
▁Action	-11.4661
▁saga	-11.4661
▁Christine	-11.4663
▁Classic	-11.4663
▁Frankenstein	-11.4664
▁Absolutely	-11.4665
▁borrowed	-11.4665
▁Based	-11.4667
▁accompanied	-11.4668
▁Su	-11.4674
▁tonight	-11.4676
▁closed	-11.4685
▁voted	-11.4686
▁complaining	-11.4688
▁hall	-11.469
▁Col	-11.4701
aking	-11.4704
▁Dis	-11.4706
▁outfits	-11.4714
dge	-11.4719
▁sums	-11.472
▁venture	-11.4735
cho	-11.474
▁Close	-11.474
▁Doo	-11.4747
▁genres	-11.4751
▁cheer	-11.477
again	-11.4771
iv	-11.4771
particularly	-11.4772
twist	-11.4772
House	-11.4772
Other	-11.4772
nothing	-11.4773
another	-11.4773
▁method	-11.4775
▁signed	-11.4777
ROM	-11.4779
free	-11.4788
▁Han	-11.4789
▁merits	-11.4791
▁chances	-11.4791
ang	-11.4791
▁relax	-11.4792
▁mock	-11.4792
▁Sp	-11.4798
▁UN	-11.4802
▁enjoys	-11.4808
▁accomplish	-11.4812
▁swallow	-11.4814
▁Latin	-11.4818
LA	-11.4821
▁Earl	-11.4822
▁glorious	-11.4824
▁garden	-11.4828
▁Miyazaki	-11.4829
▁accuracy	-11.4829
▁campaign	-11.4829
▁celebrity	-11.4829
▁demise	-11.4829
▁fascination	-11.4829
▁understated	-11.4829
▁unimaginative	-11.4829
▁ingenious	-11.4829
▁misfortune	-11.4829
▁headache	-11.4829
▁Cohen	-11.4829
▁debate	-11.4829
▁contrary	-11.483
▁BSG	-11.483
▁exposition	-11.483
▁June	-11.4831
▁tv	-11.4831
▁Sheriff	-11.4832
▁grainy	-11.4833
▁Kline	-11.4833
▁Land	-11.4833
ology	-11.4834
▁Shelley	-11.4834
▁crocodile	-11.4834
▁popularity	-11.4835
▁gender	-11.4835
▁methods	-11.4836
▁Therefore	-11.4836
▁global	-11.4838
▁Mickey	-11.4838
▁introduces	-11.4839
▁icon	-11.484
▁Sox	-11.4841
▁Uma	-11.4841
▁biased	-11.4841
▁civil	-11.4842
▁SF	-11.4843
▁7/10	-11.4843
▁Human	-11.4844
▁glowing	-11.4844
▁severely	-11.4845
▁Throughout	-11.4846
▁Hat	-11.4847
20	-11.4848
▁minus	-11.4848
▁doors	-11.4853
▁Ja	-11.4857
▁wholly	-11.4858
▁chooses	-11.4858
mate	-11.4863
▁parties	-11.4866
▁heist	-11.4868
▁scores	-11.4875
Love	-11.4879
▁heap	-11.4879
)...	-11.4891
▁Five	-11.4895
▁bump	-11.4911
▁murdering	-11.4915
▁superbly	-11.4917
▁rats	-11.4925
▁fashioned	-11.4934
▁setup	-11.4935
▁centre	-11.4936
▁flee	-11.4945
▁im	-11.4945
▁pun	-11.4947
▁bath	-11.4947
▁active	-11.4949
probably	-11.4953
▁aka	-11.4955
eb	-11.496
▁rises	-11.4962
▁Cor	-11.4962
note	-11.4968
▁attitudes	-11.4975
▁Put	-11.4992
▁fi	-11.4993
▁dirt	-11.5004
▁detract	-11.5007
▁Sin	-11.5007
▁circle	-11.5008
▁option	-11.5009
▁ritual	-11.5011
▁challenging	-11.5011
▁glaring	-11.5011
▁imaginable	-11.5011
▁niece	-11.5011
▁vengeance	-11.5011
▁presume	-11.5011
▁BIG	-11.5011
▁1983	-11.5011
▁Straight	-11.5011
▁unexplained	-11.5011
▁angst	-11.5011
▁faint	-11.5011
▁automatically	-11.5011
▁Duvall	-11.5012
▁Ariel	-11.5012
▁plight	-11.5012
▁menace	-11.5012
▁unhappy	-11.5012
▁exit	-11.5013
▁prepare	-11.5013
▁Corman	-11.5013
▁harmless	-11.5014
▁Kazan	-11.5014
▁Watson	-11.5014
▁soccer	-11.5014
▁creator	-11.5014
▁Manhattan	-11.5015
▁mankind	-11.5016
▁greedy	-11.5016
▁Gray	-11.5017
▁edgy	-11.5019
▁Believe	-11.5022
▁'80	-11.5024
▁Enjoy	-11.5024
▁mechanical	-11.5024
▁feminist	-11.5025
▁constructed	-11.5025
▁Truly	-11.5027
▁closest	-11.503
▁generated	-11.5033
▁/>2.	-11.5039
▁Party	-11.5047
▁tit	-11.5049
▁reel	-11.505
▁bite	-11.5052
▁wildly	-11.5054
did	-11.5061
▁visited	-11.5061
CH	-11.5064
▁Rating	-11.5068
▁Ju	-11.5069
▁j	-11.5075
▁Mol	-11.5094
ging	-11.5096
cause	-11.5102
▁Sch	-11.511
▁newly	-11.5115
headed	-11.512
▁Gi	-11.5121
sses	-11.5122
word	-11.5135
production	-11.5137
Brazil	-11.5138
Okay	-11.5138
▁pray	-11.5145
▁dedicate	-11.5148
▁Du	-11.5151
▁lifeless	-11.5152
▁unfolds	-11.5153
▁edit	-11.5155
God	-11.5158
▁acquire	-11.5168
▁Sh	-11.5172
▁internal	-11.5174
▁prince	-11.5175
▁inject	-11.5179
▁confirm	-11.5181
Only	-11.5183
une	-11.5187
▁profession	-11.5195
▁Fiction	-11.5196
▁IMDB	-11.5196
▁Naschy	-11.5196
▁Puerto	-11.5196
▁critique	-11.5196
▁drove	-11.5196
▁insurance	-11.5196
▁literature	-11.5196
▁recognition	-11.5196
▁smiling	-11.5196
▁Gilliam	-11.5196
▁primitive	-11.5196
▁surgery	-11.5196
▁Burke	-11.5197
▁Randy	-11.5197
▁Running	-11.5197
▁sixties	-11.5197
▁simultaneously	-11.5197
▁shopping	-11.5197
▁waitress	-11.5197
▁Wind	-11.5198
▁2002	-11.5198
▁straightforward	-11.5198
▁NYC	-11.5198
▁basketball	-11.5198
▁Deanna	-11.5198
▁housewife	-11.5198
▁Kinnear	-11.5199
▁examination	-11.5199
▁Several	-11.5202
▁Casper	-11.5202
▁Warren	-11.5203
▁winter	-11.5203
▁Marlon	-11.5204
▁Sunshine	-11.5205
▁handling	-11.5205
▁Plan	-11.5205
▁pocket	-11.5206
▁Kansas	-11.5206
▁Pamela	-11.5206
▁Von	-11.5206
▁sympathize	-11.5206
▁suggestion	-11.5207
▁caliber	-11.5207
▁Wonderful	-11.5208
▁Blade	-11.5208
▁woeful	-11.521
▁WHAT	-11.5213
▁SG	-11.5214
▁Us	-11.5214
▁Name	-11.5215
Naked	-11.5216
OM	-11.5228
▁Alien	-11.5229
▁le	-11.523
▁Original	-11.5231
▁spit	-11.5233
▁moody	-11.5238
▁expressed	-11.5238
orro	-11.5239
Un	-11.5241
▁Dana	-11.5242
▁prey	-11.5244
actor	-11.5247
ON	-11.5249
▁Surely	-11.5254
▁groups	-11.5256
▁secrets	-11.5258
▁pops	-11.5259
▁alleged	-11.526
▁armed	-11.5261
▁Jews	-11.5273
▁pal	-11.5275
▁heading	-11.5281
▁landing	-11.5286
▁mill	-11.5292
▁Got	-11.5299
▁Christians	-11.53
▁Seed	-11.53
▁interact	-11.5303
ade	-11.5309
▁outline	-11.5312
sco	-11.5315
tes	-11.5321
▁ties	-11.5322
▁Note	-11.5324
▁Bal	-11.5327
Though	-11.5327
fire	-11.5333
▁hack	-11.5339
▁Game	-11.5343
cool	-11.536
▁Ke	-11.5361
▁Fat	-11.5362
▁tail	-11.5364
▁hammer	-11.537
▁offend	-11.5371
fa	-11.5372
▁communicate	-11.5376
▁lips	-11.5377
▁owe	-11.5377
▁Iron	-11.5379
▁coast	-11.5379
▁fulfill	-11.538
Invisible	-11.5385
▁academy	-11.5385
▁behaviour	-11.5385
▁contribution	-11.5385
▁expedition	-11.5385
▁flair	-11.5385
▁flimsy	-11.5385
▁twelve	-11.5385
▁Lennon	-11.5385
▁surviving	-11.5385
▁wives	-11.5385
▁Niven	-11.5385
▁biography	-11.5385
▁definition	-11.5385
▁/>3.	-11.5385
▁tempted	-11.5385
▁poem	-11.5385
▁hokey	-11.5385
▁Eastwood	-11.5385
▁unpredictable	-11.5385
▁couch	-11.5385
▁hammy	-11.5386
▁investigating	-11.5386
▁Justice	-11.5387
▁vain	-11.5387
▁corruption	-11.5387
▁robbery	-11.5387
▁Beast	-11.5387
▁Raines	-11.5388
▁Detective	-11.5388
▁assassin	-11.5388
▁Lena	-11.5389
stone	-11.5389
▁Curly	-11.539
▁Vega	-11.539
▁thread	-11.5391
▁MY	-11.5391
▁worship	-11.5391
▁Trier	-11.5391
▁Harrison	-11.5392
These	-11.5392
▁pressure	-11.5393
▁Stuart	-11.5393
▁Vanessa	-11.5396
▁translated	-11.5399
▁shootout	-11.5399
▁Molly	-11.5399
▁Whoever	-11.54
▁weakness	-11.5401
▁wounded	-11.5402
▁incorrect	-11.5404
▁Cool	-11.5405
▁musician	-11.5413
▁dialogues	-11.5415
▁designs	-11.5421
▁dim	-11.5422
▁hooker	-11.5424
▁DE	-11.5425
▁pushing	-11.5426
▁abused	-11.5426
▁alternative	-11.5431
ude	-11.5432
ld	-11.5436
spiring	-11.5444
hr	-11.5449
▁Rangers	-11.5452
▁Walt	-11.5457
▁shoulders	-11.5459
OO	-11.5462
▁landscapes	-11.5474
▁Per	-11.5476
▁Vi	-11.5476
▁guests	-11.5478
▁filling	-11.5483
St	-11.5492
▁Fi	-11.5492
▁summ	-11.5492
▁tooth	-11.5495
▁houses	-11.5501
Her	-11.5505
▁3-	-11.5513
▁noises	-11.5514
wife	-11.5517
fetched	-11.5519
▁ME	-11.5519
▁faults	-11.5519
Having	-11.552
Very	-11.552
Dead	-11.552
▁behold	-11.552
▁beard	-11.5525
▁nod	-11.5528
▁Ah	-11.5538
ini	-11.554
▁alter	-11.5541
▁steam	-11.5548
▁wander	-11.5548
▁prop	-11.555
▁stink	-11.5552
▁vomit	-11.5554
ppy	-11.556
pri	-11.5562
▁mode	-11.5564
▁cook	-11.5564
▁3)	-11.5565
▁conclude	-11.5571
Ra	-11.5573
▁Pe	-11.5575
▁gimmick	-11.5576
▁guitar	-11.5577
▁cliff	-11.5577
▁Soderbergh	-11.5577
▁activities	-11.5577
▁ambiguous	-11.5577
▁derivative	-11.5577
▁duration	-11.5577
▁grief	-11.5577
▁literary	-11.5577
▁Thurman	-11.5577
▁Capote	-11.5577
▁smell	-11.5577
▁entitled	-11.5577
▁amusement	-11.5578
▁Edgar	-11.5578
cur	-11.5579
▁recycled	-11.558
▁clueless	-11.558
▁representation	-11.558
▁educational	-11.558
▁Naturally	-11.5582
▁exposure	-11.5582
▁cartoonish	-11.5583
▁retired	-11.5584
▁warmth	-11.5584
▁masterpieces	-11.5585
▁square	-11.5586
▁polished	-11.5586
▁millionaire	-11.5587
▁shouting	-11.5588
▁chapter	-11.5588
▁rejected	-11.5589
▁caricature	-11.5589
▁Pokemon	-11.5589
gged	-11.559
▁writes	-11.5591
▁stumbled	-11.5593
▁crazed	-11.5593
▁Castle	-11.5593
▁Loy	-11.5595
▁Fe	-11.5596
▁blatantly	-11.5597
moving	-11.5599
▁limits	-11.5599
▁standout	-11.5599
really	-11.5601
▁advanced	-11.5603
vyn	-11.5603
▁dropping	-11.5606
▁UP	-11.5607
berg	-11.5607
▁bitch	-11.5609
▁seeks	-11.5613
▁kissing	-11.5614
▁remained	-11.5616
▁cheek	-11.5617
▁backgrounds	-11.5619
▁egg	-11.562
▁widely	-11.5624
▁Karl	-11.5626
▁assumed	-11.5626
▁agency	-11.5631
▁lip	-11.5637
▁backwards	-11.5642
▁poetic	-11.5642
▁grabs	-11.5647
Or	-11.5648
▁Israeli	-11.565
born	-11.5657
▁Wolf	-11.5659
▁sincere	-11.5661
▁posted	-11.5671
▁myth	-11.5673
▁Case	-11.5682
▁Pi	-11.5683
ENT	-11.5686
sha	-11.5686
▁minded	-11.5686
▁solo	-11.5693
▁tip	-11.57
▁mayor	-11.5711
▁Cop	-11.5714
DVD	-11.5716
▁clip	-11.5717
tte	-11.5725
Movie	-11.5726
15	-11.5735
▁Friend	-11.5736
▁pursue	-11.5749
ks	-11.5751
▁demand	-11.5755
▁Rings	-11.5761
▁unfair	-11.5762
▁masterful	-11.5763
▁exploit	-11.5769
▁Jess	-11.577
▁Brenda	-11.577
▁careful	-11.5771
▁fetish	-11.5771
▁shell	-11.5772
▁psychopath	-11.5772
▁trauma	-11.5773
▁Chief	-11.5773
▁Crosby	-11.5773
▁Fishburne	-11.5773
▁deranged	-11.5773
▁inexplicable	-11.5773
▁ocean	-11.5773
▁repulsive	-11.5773
▁resume	-11.5773
▁weather	-11.5773
▁WITH	-11.5773
▁museum	-11.5774
▁chaos	-11.5774
▁Mitchum	-11.5774
▁fluid	-11.5774
▁viewpoint	-11.5775
▁Kitty	-11.5775
RE	-11.5776
▁Bible	-11.5776
▁Amazon	-11.5776
▁advertised	-11.5777
▁unlikeable	-11.5778
▁Oz	-11.5778
▁ethnic	-11.5779
▁Water	-11.5779
▁Gamera	-11.5779
odd	-11.578
▁precisely	-11.578
▁difficulties	-11.5781
▁judging	-11.5781
▁chicken	-11.5781
▁habit	-11.5781
▁foil	-11.5781
▁outdated	-11.5782
▁secondary	-11.5782
▁Gold	-11.5783
rat	-11.5783
▁servant	-11.5785
▁moron	-11.5786
▁Better	-11.5787
▁sale	-11.5787
▁overlong	-11.5788
▁Marion	-11.5789
▁Keep	-11.5789
▁puppet	-11.5792
▁Bride	-11.5792
▁commenting	-11.5793
▁Jill	-11.5796
▁phrase	-11.5797
▁Fast	-11.5799
non	-11.5802
▁interactions	-11.5802
▁Powers	-11.5806
▁analysis	-11.5807
▁wire	-11.5811
▁belong	-11.5812
▁repeating	-11.5818
▁artsy	-11.5819
▁Ward	-11.5835
mple	-11.5836
,000	-11.5842
ez	-11.5846
die	-11.5846
recognizable	-11.5848
▁sand	-11.585
▁Je	-11.5852
des	-11.5856
▁visits	-11.5857
rah	-11.5865
▁matched	-11.5866
▁resembl	-11.5883
LL	-11.5893
Final	-11.5904
▁Ki	-11.5909
▁MA	-11.5913
Big	-11.5921
▁tr	-11.5927
Many	-11.5933
▁shoulder	-11.5937
▁Call	-11.5937
▁abound	-11.5939
▁Daniels	-11.594
▁domestic	-11.5943
▁alcohol	-11.5947
▁Ku	-11.5948
dance	-11.595
▁groan	-11.5951
▁possess	-11.5959
mic	-11.5961
▁decline	-11.5962
▁liners	-11.5965
▁affection	-11.5973
▁Belushi	-11.5973
▁Craven	-11.5973
▁FILM	-11.5973
▁Reiser	-11.5973
▁University	-11.5973
▁anticipation	-11.5973
▁companies	-11.5973
▁dilemma	-11.5973
▁enthusiasm	-11.5973
▁flavor	-11.5973
▁inaccurate	-11.5973
▁rambling	-11.5973
▁transplant	-11.5973
▁turd	-11.5973
▁Hoffman	-11.5973
▁Gilbert	-11.5973
▁psychology	-11.5973
▁lurk	-11.5973
▁meandering	-11.5973
▁lush	-11.5974
▁Preston	-11.5974
▁Jordan	-11.5974
▁Darren	-11.5974
▁conscience	-11.5974
▁Room	-11.5974
▁historic	-11.5974
▁heartfelt	-11.5974
▁Madsen	-11.5974
▁dysfunctional	-11.5974
▁Bacon	-11.5974
illian	-11.5974
▁Town	-11.5974
▁Native	-11.5974
▁vile	-11.5974
▁household	-11.5974
▁agenda	-11.5974
▁hopeless	-11.5975
▁modest	-11.5976
▁Hepburn	-11.5976
▁Train	-11.5977
▁frightened	-11.5978
▁heartbreaking	-11.5979
▁Instinct	-11.5979
▁Luckily	-11.5979
▁Dudley	-11.5979
ition	-11.5979
▁witches	-11.5979
▁Court	-11.5981
▁Virginia	-11.5982
▁regardless	-11.5982
▁tossed	-11.5983
▁Lifetime	-11.5983
vy	-11.5984
▁Sandra	-11.5984
▁raises	-11.5984
▁Simply	-11.5985
▁march	-11.5985
▁Salman	-11.5986
▁adopted	-11.5986
▁Winchester	-11.5986
▁matches	-11.5986
▁depicting	-11.5989
▁Sun	-11.599
▁Normally	-11.5991
▁Rich	-11.5993
ok	-11.5993
▁lifted	-11.5994
▁treats	-11.5994
▁ninja	-11.5995
▁grip	-11.5997
▁rampage	-11.5997
▁princess	-11.5999
uk	-11.6003
Doo	-11.6003
▁farmer	-11.6005
▁charged	-11.6007
▁billed	-11.6008
wept	-11.601
El	-11.6011
proving	-11.6017
▁corpses	-11.6026
ump	-11.6035
▁Ring	-11.6037
▁shared	-11.6037
▁---	-11.604
ski	-11.6045
▁alley	-11.6052
Mar	-11.6058
▁trained	-11.6059
▁rooms	-11.6059
▁suggested	-11.606
▁twins	-11.606
ular	-11.6062
▁cage	-11.6065
▁disappears	-11.6069
▁previews	-11.608
▁Kar	-11.608
Con	-11.6081
▁maniac	-11.6092
*****	-11.6103
Me	-11.6105
provoking	-11.6119
perhaps	-11.612
script	-11.612
▁helpless	-11.612
Will	-11.6122
Highly	-11.6126
▁complaints	-11.6126
matic	-11.6132
uc	-11.6134
▁intend	-11.6147
▁ordered	-11.6158
▁Talk	-11.616
▁blackmail	-11.6163
▁adore	-11.6165
▁abrupt	-11.6166
▁balls	-11.617
used	-11.617
▁rear	-11.6174
▁Care	-11.6175
▁Count	-11.6175
wilight	-11.6177
▁Diamond	-11.6178
▁Fairbanks	-11.6178
▁Gielgud	-11.6178
▁describing	-11.6178
▁hilarity	-11.6178
▁smack	-11.6178
▁unsuspecting	-11.6178
▁stunned	-11.6178
▁WHO	-11.6178
▁Evelyn	-11.6178
▁Bunny	-11.6178
▁despicable	-11.6178
▁vice	-11.6178
▁Antonioni	-11.6178
▁stroke	-11.6178
▁Snow	-11.6179
▁unrelated	-11.6179
▁petty	-11.6179
▁Marshall	-11.6179
▁Gina	-11.618
▁Mason	-11.618
▁Arquette	-11.6181
▁dub	-11.6181
▁mistress	-11.6181
▁Springer	-11.6182
▁Christianity	-11.6182
▁absurdity	-11.6182
▁Fair	-11.6182
▁masses	-11.6183
▁dresses	-11.6183
▁Hackman	-11.6183
▁priceless	-11.6184
▁admittedly	-11.6185
▁Clive	-11.6186
ada	-11.6186
▁grateful	-11.6186
▁Left	-11.6188
▁needless	-11.6188
▁ca	-11.6191
▁Kris	-11.6191
▁PC	-11.6193
▁Road	-11.6196
▁employed	-11.6196
▁predecessor	-11.6196
▁rapist	-11.6197
▁Nobody	-11.6197
▁snake	-11.6198
▁conditions	-11.6198
▁builds	-11.6198
▁Awful	-11.62
▁sounding	-11.6201
▁showdown	-11.6202
▁worn	-11.6203
ou	-11.6204
▁singers	-11.6204
▁serving	-11.6205
▁Nolan	-11.6206
▁sincerely	-11.6206
▁pause	-11.6206
▁10,	-11.6208
▁agrees	-11.6208
▁corn	-11.6213
▁appropriately	-11.6213
populated	-11.6217
▁Grave	-11.6217
▁youngest	-11.622
▁Union	-11.622
▁quietly	-11.6224
▁fishing	-11.623
▁plate	-11.6238
▁dressing	-11.6249
pleasantly	-11.6252
fun	-11.6252
▁rot	-11.6253
▁rates	-11.6256
Eastern	-11.6271
▁Gar	-11.6283
▁respected	-11.6286
▁patients	-11.6286
▁pa	-11.6287
▁chills	-11.6289
▁conventions	-11.629
AT	-11.6295
▁token	-11.6302
▁elevate	-11.6314
Last	-11.6319
itz	-11.6321
vision	-11.6322
power	-11.6326
eck	-11.6326
foot	-11.6327
AY	-11.6328
▁collect	-11.6329
loud	-11.6329
Rating	-11.6331
▁tube	-11.6334
cent	-11.6334
▁centers	-11.6335
notch	-11.6335
▁reader	-11.6336
Best	-11.6343
air	-11.6353
box	-11.6357
orious	-11.6358
▁cheaply	-11.636
nie	-11.6363
etc	-11.6363
▁audition	-11.6363
▁counts	-11.6367
▁melt	-11.6367
▁citizens	-11.637
▁applaud	-11.6371
▁reverse	-11.6373
▁savage	-11.6374
▁Hammer	-11.6374
▁translate	-11.6377
▁foolish	-11.6379
▁mar	-11.6379
▁graduate	-11.6381
▁Peck	-11.6382
▁Mario	-11.6384
▁roof	-11.6385
▁squad	-11.6386
▁1968	-11.6386
▁Attenborough	-11.6386
▁Bogart	-11.6386
▁arrival	-11.6386
▁bikini	-11.6386
▁despair	-11.6386
▁exploring	-11.6386
▁obligatory	-11.6386
▁pedestrian	-11.6386
▁provocative	-11.6386
▁samurai	-11.6386
▁spiral	-11.6386
▁supply	-11.6386
▁whiny	-11.6386
▁deleted	-11.6386
▁gambling	-11.6386
▁Cruise	-11.6386
▁1973	-11.6386
▁facing	-11.6386
▁Blunt	-11.6386
▁Holly	-11.6386
▁significance	-11.6386
▁Georgia	-11.6386
▁dubious	-11.6386
▁firing	-11.6386
▁tolerable	-11.6386
▁elevator	-11.6386
▁redneck	-11.6386
▁Valley	-11.6387
▁bible	-11.6387
▁reliable	-11.6387
▁distraction	-11.6388
▁Cassavetes	-11.6388
▁wrestler	-11.6388
▁Lois	-11.6388
▁considerably	-11.6388
▁Affleck	-11.6389
▁Leo	-11.6389
▁brutality	-11.639
▁Mind	-11.639
▁Polly	-11.639
▁Eugene	-11.6391
▁remade	-11.6391
▁promptly	-11.6393
▁Vince	-11.6393
▁Fairy	-11.6393
▁promises	-11.6393
▁Kathryn	-11.6395
▁respectively	-11.6395
▁restored	-11.6396
▁objects	-11.6396
▁Miles	-11.6397
▁Pete	-11.6397
▁schedule	-11.6398
othy	-11.6398
▁fade	-11.6398
▁abruptly	-11.6398
▁rings	-11.6398
▁Book	-11.64
▁Joel	-11.64
▁Among	-11.64
▁Atlantis	-11.6401
▁Bay	-11.6402
▁Jared	-11.6402
▁Moe	-11.6403
▁screwed	-11.6405
gun	-11.6408
▁scarecrow	-11.6409
▁ambition	-11.641
▁ARE	-11.6411
▁inhabitants	-11.6416
▁discussing	-11.6418
▁Stars	-11.6421
▁motive	-11.6426
▁challenged	-11.6427
kh	-11.6427
▁IV	-11.6432
▁fist	-11.6432
AP	-11.6434
▁remakes	-11.6436
▁Actors	-11.6437
▁natives	-11.6441
▁oldest	-11.6443
▁demonic	-11.6456
▁Judge	-11.646
ox	-11.6461
▁namely	-11.6467
▁centered	-11.6469
▁supported	-11.6473
▁messy	-11.6474
▁sits	-11.6474
▁hood	-11.6489
▁99	-11.6501
▁strangers	-11.6506
▁Wizard	-11.6506
▁aim	-11.6507
rry	-11.6513
▁ensues	-11.6515
▁Rent	-11.6517
think	-11.6522
▁Ram	-11.6522
▁butler	-11.6524
ala	-11.6528
load	-11.6529
▁survivors	-11.6533
.......	-11.6536
indulgent	-11.654
Lewis	-11.6541
fiction	-11.6541
capable	-11.6541
ale	-11.6542
sorry	-11.6542
Night	-11.6542
▁Woo	-11.6543
cop	-11.6544
▁nerves	-11.6545
unless	-11.6546
▁Third	-11.6549
▁dose	-11.656
▁borrow	-11.6561
*1/2	-11.6562
▁waves	-11.6563
ress	-11.6564
▁releases	-11.6572
▁exceptions	-11.6581
▁puzzle	-11.6585
▁radical	-11.6586
▁lone	-11.6587
▁hung	-11.659
▁premiere	-11.6591
ook	-11.6592
▁lands	-11.6593
▁Silver	-11.6594
▁Wonder	-11.6596
▁Light	-11.6596
hang	-11.6597
▁Adrian	-11.6598
▁protest	-11.6598
▁Paltrow	-11.6599
▁Tokyo	-11.6599
▁arguing	-11.6599
▁eternity	-11.6599
▁inevitably	-11.6599
▁investigator	-11.6599
▁physics	-11.6599
▁salvage	-11.6599
▁crisp	-11.6599
▁spree	-11.6599
▁Ebert	-11.6599
▁loneliness	-11.6599
▁tax	-11.6599
▁Laurie	-11.6599
▁static	-11.6599
▁chopped	-11.6599
▁blink	-11.6599
▁bumbling	-11.6599
▁suspension	-11.6599
▁banter	-11.6599
▁Chong	-11.6599
▁shaking	-11.6599
▁unattractive	-11.6599
▁Judy	-11.6599
▁wax	-11.6599
▁deserving	-11.6599
▁paycheck	-11.6599
▁Lester	-11.66
▁unsure	-11.66
▁cruelty	-11.66
▁edition	-11.6601
▁Amazing	-11.6601
▁Order	-11.6601
▁Danish	-11.6602
▁bowl	-11.6602
▁sung	-11.6604
▁punches	-11.6604
▁Chicago	-11.6604
▁1996	-11.6606
▁arguably	-11.6606
▁preachy	-11.6609
▁Until	-11.6609
▁Should	-11.6609
▁resulting	-11.661
▁insightful	-11.6611
▁Times	-11.6613
▁Creep	-11.6616
▁Wilder	-11.6618
▁Alas	-11.6619
▁Ellen	-11.6624
▁Psycho	-11.6624
▁NY	-11.6626
▁defie	-11.6629
▁Si	-11.6629
▁huh	-11.663
▁Gone	-11.6632
War	-11.6635
ven	-11.6635
▁hippie	-11.6637
▁rocket	-11.6639
▁mail	-11.6643
▁Bach	-11.6646
▁bird	-11.6649
▁net	-11.665
▁Mack	-11.6658
▁sooner	-11.6669
▁programs	-11.6679
▁Needle	-11.6679
▁studying	-11.668
▁blowing	-11.6681
ving	-11.6687
▁visiting	-11.6687
EL	-11.6689
▁pie	-11.6696
uri	-11.6699
Men	-11.6701
▁cliches	-11.6706
ett	-11.6707
▁receives	-11.6712
eur	-11.6717
ek	-11.6719
▁cents	-11.672
▁stumbles	-11.6725
ters	-11.6731
▁HE	-11.674
▁dances	-11.6741
▁2:	-11.6741
▁Vampires	-11.6751
while	-11.6755
numbing	-11.6757
People	-11.6758
family	-11.6758
▁Gooding	-11.6764
▁directions	-11.6765
▁demonstrates	-11.6766
Sure	-11.6775
TER	-11.6775
▁disgust	-11.6779
▁Gus	-11.6784
▁generations	-11.6786
hoo	-11.6793
▁neighbors	-11.6799
▁alarm	-11.68
cher	-11.6802
▁puppets	-11.6802
▁tire	-11.6803
▁casual	-11.6803
▁addict	-11.6804
▁astonishing	-11.6804
▁flag	-11.6804
ui	-11.6807
ria	-11.681
/10	-11.6812
▁region	-11.6814
▁vital	-11.6815
▁Middle	-11.6815
▁compete	-11.6815
▁Brashear	-11.6816
▁Clooney	-11.6816
▁Emperor	-11.6816
▁comprehend	-11.6816
▁crucial	-11.6816
▁deceased	-11.6816
▁disastrous	-11.6816
▁disregard	-11.6816
▁estranged	-11.6816
▁mafia	-11.6816
▁rhythm	-11.6816
▁survival	-11.6816
▁delicate	-11.6816
▁eternal	-11.6816
▁Paramount	-11.6816
▁departure	-11.6816
▁joking	-11.6816
▁mannerisms	-11.6816
▁Laugh	-11.6816
▁neurotic	-11.6816
▁MUCH	-11.6816
▁bulk	-11.6816
://	-11.6816
▁nauseating	-11.6817
▁ignorance	-11.6817
▁Runner	-11.6817
▁Troma	-11.6817
▁loyalty	-11.6817
▁trivial	-11.6817
▁Wendy	-11.6817
▁Clay	-11.6818
▁Lex	-11.6819
▁subway	-11.6819
▁Behind	-11.6819
▁Toronto	-11.6819
▁Color	-11.682
▁mentality	-11.682
▁swim	-11.6821
▁teaches	-11.6821
▁crashes	-11.6821
▁Carell	-11.6822
▁infected	-11.6822
▁Hooper	-11.6822
▁glued	-11.6822
▁Wish	-11.6822
nu	-11.6822
▁auto	-11.6824
▁naughty	-11.6824
▁pleasing	-11.6824
▁Carmen	-11.6825
▁contempt	-11.6825
▁Lindsay	-11.6826
▁excruciatingly	-11.6826
▁experimental	-11.6827
▁assuming	-11.6827
▁Worse	-11.6827
▁Outer	-11.6828
▁rainy	-11.6829
▁Dave	-11.6829
▁Recommended	-11.683
▁Christie	-11.6831
▁Furthermore	-11.6831
▁cream	-11.6831
▁Anil	-11.6831
sex	-11.6833
▁Gang	-11.6834
▁vastly	-11.6834
▁rising	-11.6836
▁Stupid	-11.6836
zzy	-11.6838
▁Tone	-11.6842
▁roller	-11.6843
▁melting	-11.6845
▁cab	-11.6845
▁leap	-11.6848
▁Sue	-11.685
▁Away	-11.685
▁acclaimed	-11.6853
▁Rex	-11.6853
▁tackle	-11.6863
▁stare	-11.6863
▁outright	-11.6865
rid	-11.687
▁*1/2	-11.6876
▁hearted	-11.6877
▁marginal	-11.6879
ara	-11.688
▁SC	-11.6882
roll	-11.6882
▁brat	-11.6883
▁Hot	-11.6884
▁Secondly	-11.6885
▁stores	-11.6887
▁fog	-11.6889
▁gut	-11.6895
▁fingers	-11.6898
ical	-11.6899
▁realm	-11.6903
htt	-11.6908
view	-11.6909
▁Pictures	-11.6919
▁handles	-11.6922
▁additional	-11.6924
▁Shot	-11.6925
scenes	-11.6928
▁hunters	-11.693
▁positively	-11.6931
▁ka	-11.6934
▁Las	-11.6937
▁pe	-11.6941
PS	-11.6947
evil	-11.6952
▁del	-11.6953
▁shorter	-11.6956
ill	-11.6956
ians	-11.696
Since	-11.698
Which	-11.698
▁Ash	-11.6981
▁opinions	-11.6985
directed	-11.6986
▁posters	-11.6987
▁abandon	-11.7
mostly	-11.7
▁arrest	-11.7001
▁roots	-11.7008
▁programme	-11.7017
▁greatness	-11.7021
▁acknowledge	-11.7024
▁immediate	-11.7026
▁wanders	-11.7029
▁yawn	-11.7031
▁sugar	-11.7031
▁tastes	-11.7033
▁Russia	-11.7036
▁judgment	-11.7036
▁Sanders	-11.7037
▁pages	-11.7038
esquire	-11.7038
▁1939	-11.7038
▁1993	-11.7038
▁Central	-11.7038
▁Giallo	-11.7038
▁Streep	-11.7038
▁Strong	-11.7038
▁TCM	-11.7038
▁accompany	-11.7038
▁assignment	-11.7038
▁energetic	-11.7038
▁explosive	-11.7038
▁perception	-11.7038
▁rabbit	-11.7038
▁suffice	-11.7038
▁terrified	-11.7038
▁turtle	-11.7038
▁stairs	-11.7038
▁redundant	-11.7038
▁Beckham	-11.7038
▁Wayans	-11.7038
▁1972	-11.7038
▁feeble	-11.7038
▁Saint	-11.7038
▁macho	-11.7038
▁civilization	-11.7038
▁posing	-11.7038
▁Mouse	-11.7039
▁midnight	-11.7039
▁Mask	-11.7039
▁midget	-11.7039
▁commitment	-11.7039
▁tomatoes	-11.704
▁spies	-11.704
▁Wright	-11.704
ain	-11.704
▁steady	-11.704
▁industrial	-11.704
▁possession	-11.704
▁stranded	-11.704
▁parade	-11.704
▁spout	-11.7041
▁steer	-11.7042
▁Bernard	-11.7043
▁click	-11.7043
▁Otto	-11.7044
▁aggressive	-11.7046
▁abortion	-11.7046
▁Six	-11.7047
cap	-11.7048
▁tick	-11.7048
▁genetic	-11.7048
▁Wong	-11.7049
▁butcher	-11.7049
▁canceled	-11.705
▁Hopefully	-11.7051
▁Hank	-11.7052
▁stalker	-11.7055
▁Valentine	-11.7055
▁disgusted	-11.7055
▁forgiven	-11.7058
▁Lang	-11.706
▁threatened	-11.706
ified	-11.7062
▁thrilled	-11.7063
▁transformed	-11.7063
bit	-11.7064
▁ma	-11.7065
▁quarter	-11.7075
▁Field	-11.7076
▁politician	-11.7077
▁bride	-11.7079
rin	-11.7086
▁embarrassingly	-11.709
▁Nights	-11.709
▁pose	-11.7091
yet	-11.7093
▁charms	-11.7094
▁Revolution	-11.7096
▁info	-11.7097
▁yard	-11.71
▁desires	-11.7106
2)	-11.7109
▁Looking	-11.7124
▁ensure	-11.713
▁viewings	-11.7134
zi	-11.7135
EM	-11.7136
under	-11.7141
▁Hi	-11.715
▁inability	-11.715
▁warming	-11.7151
▁helpful	-11.7154
▁labor	-11.7154
▁approaching	-11.7154
▁Bloom	-11.7154
ther	-11.7157
▁Par	-11.716
▁sending	-11.7164
▁7.	-11.7166
▁bi	-11.7171
▁rights	-11.7172
ano	-11.7175
ell	-11.7175
avi	-11.7182
▁Mi	-11.7182
▁Gu	-11.7194
▁votes	-11.7196
▁Were	-11.7197
▁file	-11.7203
put	-11.7206
Little	-11.7208
producer	-11.7208
ridden	-11.7208
Our	-11.7211
ual	-11.7214
thin	-11.7227
produced	-11.7239
▁Brit	-11.7251
▁uncover	-11.7251
▁manipulate	-11.7252
▁mute	-11.7252
▁retain	-11.7252
outs	-11.7254
▁elegant	-11.7259
▁Strange	-11.726
▁illustrate	-11.7261
▁compassion	-11.7261
▁orphan	-11.7265
▁challenges	-11.7265
▁Armstrong	-11.7266
▁Cagney	-11.7266
▁DEAD	-11.7266
▁Vonnegut	-11.7266
▁WRONG	-11.7266
▁anxious	-11.7266
▁hybrid	-11.7266
▁warehouse	-11.7266
▁Shepard	-11.7266
▁antagonist	-11.7266
▁mercy	-11.7266
▁Potter	-11.7266
▁plodding	-11.7266
▁Hindi	-11.7266
▁1986	-11.7266
▁1997	-11.7266
▁debt	-11.7266
▁1989	-11.7266
▁Huston	-11.7266
▁lunch	-11.7266
▁disorder	-11.7266
▁salt	-11.7266
▁Sweden	-11.7266
▁depression	-11.7266
▁underwear	-11.7266
▁Cody	-11.7266
▁promotion	-11.7267
▁ripping	-11.7267
▁betrayal	-11.7268
▁Masterson	-11.7268
▁victory	-11.7268
▁Rohmer	-11.727
▁Support	-11.727
▁noticeable	-11.7271
▁Professor	-11.7272
▁leather	-11.7272
▁speeches	-11.7272
▁Nolte	-11.7273
▁PLEASE	-11.7273
▁Aunt	-11.7274
▁Stella	-11.7274
▁hi	-11.7274
▁pad	-11.7274
▁fanatic	-11.7276
▁stopping	-11.7276
▁dashing	-11.7277
▁resolved	-11.7278
▁cliched	-11.7278
▁Beowulf	-11.728
▁Eli	-11.728
▁realities	-11.7281
▁Alba	-11.7281
▁OUT	-11.7282
▁Werewolf	-11.7282
▁Shining	-11.7283
▁Enter	-11.7287
▁Stargate	-11.7288
dar	-11.7291
▁Beth	-11.7291
▁aiming	-11.7292
▁document	-11.7292
▁justified	-11.7292
▁sp	-11.7295
▁machines	-11.7308
▁roommate	-11.731
▁unnatural	-11.731
▁unravel	-11.7311
▁Winter	-11.7311
▁error	-11.7312
▁framed	-11.7313
▁topics	-11.7318
▁Say	-11.732
▁SA	-11.732
▁Carrie	-11.7322
aud	-11.7322
▁babe	-11.7323
▁accurately	-11.7324
▁Joey	-11.7326
▁arch	-11.7328
▁State	-11.7329
offs	-11.7332
▁30'	-11.7332
▁befriends	-11.7333
▁weaker	-11.7335
net	-11.7338
Too	-11.7343
▁Gen	-11.7344
▁difficulty	-11.7345
▁Mil	-11.7349
ola	-11.7364
▁lock	-11.7371
▁Sal	-11.7372
Take	-11.7372
ability	-11.7375
▁evoke	-11.7384
▁siblings	-11.7395
Ne	-11.7404
▁shameful	-11.7406
▁credited	-11.7406
ire	-11.742
miss	-11.7423
ification	-11.7429
▁hides	-11.7432
worth	-11.7433
▁similarly	-11.7436
modern	-11.7439
Thank	-11.744
second	-11.744
yeah	-11.744
Did	-11.7444
▁trials	-11.7444
▁HA	-11.7448
▁contestants	-11.7448
without	-11.7451
Mary	-11.7453
does	-11.7457
▁commits	-11.7459
▁rational	-11.7463
stage	-11.7466
wn	-11.7474
▁cruise	-11.7476
your	-11.7477
▁sales	-11.7482
▁transport	-11.7483
▁dismiss	-11.7483
▁compensate	-11.7484
character	-11.7488
sch	-11.7491
yr	-11.7492
▁LOT	-11.7493
▁insomnia	-11.7496
▁rub	-11.7497
▁Loren	-11.7498
▁Bacall	-11.7498
▁Crystal	-11.7498
▁Kurosawa	-11.7498
▁Schneider	-11.7498
▁Scorsese	-11.7498
▁TIME	-11.7498
▁dwarf	-11.7498
▁hapless	-11.7498
▁kudos	-11.7498
▁rebellious	-11.7498
▁sarcastic	-11.7498
▁seductive	-11.7498
▁supreme	-11.7498
▁unappealing	-11.7498
▁vibrant	-11.7498
▁Aaron	-11.7498
▁identical	-11.7498
▁stabbed	-11.7498
▁buzz	-11.7498
▁destine	-11.7498
▁WILL	-11.7498
▁mayhem	-11.7498
▁fifty	-11.7498
▁hollow	-11.7498
▁shortcomings	-11.7498
▁Blandings	-11.7498
▁jarring	-11.7498
▁Jagger	-11.7498
▁airplane	-11.7498
▁collective	-11.7498
eating	-11.7499
▁Harron	-11.7499
▁activity	-11.7499
▁mice	-11.7499
▁spice	-11.7499
▁assassination	-11.7499
▁Pumbaa	-11.75
▁Cushing	-11.75
▁Boyle	-11.75
rac	-11.7501
▁uncut	-11.7501
▁Meryl	-11.7502
▁preferred	-11.7502
▁Olivia	-11.7503
▁August	-11.7503
▁poker	-11.7504
▁gray	-11.7504
▁Vera	-11.7504
▁alert	-11.7505
▁distract	-11.7505
▁Gackt	-11.7506
▁publicity	-11.7506
▁Million	-11.7507
▁Spring	-11.7507
▁raid	-11.7507
▁Miranda	-11.7508
▁comeback	-11.7509
▁dumbest	-11.7509
▁Country	-11.7509
▁healthy	-11.7511
▁Conan	-11.7512
▁Dahmer	-11.7513
nk	-11.7515
has	-11.7515
▁Luis	-11.7515
▁95	-11.7518
▁Animal	-11.7518
▁refused	-11.7519
▁Nicola	-11.7519
▁angels	-11.752
▁75	-11.752
▁damaged	-11.7524
▁burst	-11.7524
ith	-11.7524
check	-11.7525
▁Follow	-11.7525
▁assured	-11.7525
▁switched	-11.7528
▁Beyond	-11.7531
▁inspire	-11.7535
▁purposes	-11.7537
▁refuse	-11.7538
▁Indiana	-11.754
▁nominations	-11.7542
▁Elliott	-11.7542
▁praised	-11.7542
▁skull	-11.7545
▁diamond	-11.7546
▁computers	-11.7546
▁prejudice	-11.7547
▁contestant	-11.7549
▁loaded	-11.755
▁Bottom	-11.755
▁belly	-11.7551
iz	-11.7555
▁troubles	-11.7557
▁cracking	-11.7557
▁rope	-11.7558
▁expectation	-11.7562
▁cue	-11.7564
▁deserted	-11.7566
▁parking	-11.757
east	-11.7572
▁gems	-11.7572
try	-11.7577
▁prisoner	-11.7581
▁jet	-11.7588
▁bush	-11.7592
bin	-11.7592
▁occasions	-11.7596
▁glance	-11.7609
▁avenge	-11.761
ena	-11.7617
mie	-11.7619
gin	-11.7621
ani	-11.7629
▁Same	-11.7629
▁Spa	-11.7635
▁z	-11.7637
????	-11.7641
▁sa	-11.7661
Bill	-11.7672
Three	-11.7678
cheek	-11.7678
before	-11.7678
Charles	-11.7679
New	-11.7679
▁emerges	-11.768
fashioned	-11.768
high	-11.768
▁origin	-11.7682
▁Need	-11.7689
▁1930'	-11.7689
nia	-11.7691
▁prisoners	-11.7693
pan	-11.7694
▁grin	-11.7699
▁goat	-11.7706
▁ol	-11.771
▁presenting	-11.7712
▁descend	-11.7721
▁adopt	-11.7721
▁inhabit	-11.7721
40	-11.7721
▁morons	-11.7721
▁strain	-11.7722
beat	-11.7722
▁exquisite	-11.7724
▁sickening	-11.773
▁ward	-11.7733
choosing	-11.7736
▁1959	-11.7736
▁1971	-11.7736
▁Dafoe	-11.7736
▁Florida	-11.7736
▁Gibson	-11.7736
▁Porter	-11.7736
▁abomination	-11.7736
▁admirable	-11.7736
▁coffin	-11.7736
▁denouement	-11.7736
▁fifties	-11.7736
▁legitimate	-11.7736
▁senior	-11.7736
▁trigger	-11.7736
▁turmoil	-11.7736
▁caretaker	-11.7736
▁conquer	-11.7736
▁Bachchan	-11.7736
▁Marc	-11.7736
▁route	-11.7736
▁Collins	-11.7736
▁frog	-11.7736
▁Horse	-11.7737
▁Ashley	-11.7737
▁drab	-11.7737
▁Tenant	-11.7737
▁referring	-11.7737
▁mobster	-11.7737
▁slapped	-11.7737
▁keen	-11.7737
▁descent	-11.7737
▁Boris	-11.7737
▁Bruno	-11.7737
▁copied	-11.7737
▁theories	-11.7737
▁funding	-11.7738
▁intentional	-11.7738
▁iconic	-11.7738
▁Money	-11.7738
▁Ethan	-11.7738
▁Hughes	-11.774
▁snowman	-11.774
▁continually	-11.774
▁Jedi	-11.774
▁horny	-11.7741
▁Ronald	-11.7741
▁uplifting	-11.7741
▁newer	-11.7742
▁download	-11.7742
▁yellow	-11.7742
▁moderate	-11.7742
▁artwork	-11.7742
▁Artemisia	-11.7743
▁Massacre	-11.7743
▁hyper	-11.7743
scene	-11.7743
▁daylight	-11.7744
▁babies	-11.7744
▁Martha	-11.7744
▁ripoff	-11.7745
▁Enterprise	-11.7745
▁Brilliant	-11.7747
▁Alec	-11.7747
▁hungry	-11.7749
▁rendered	-11.7749
▁consideration	-11.7749
▁brainless	-11.775
▁organized	-11.775
▁Boring	-11.7751
▁Beauty	-11.7753
▁Martino	-11.7753
▁breed	-11.7753
▁unfold	-11.7755
▁pub	-11.7755
▁replay	-11.7756
▁Heath	-11.7756
▁Colin	-11.7756
▁updated	-11.7757
▁zone	-11.7757
▁Speaking	-11.7758
hey	-11.7761
▁guaranteed	-11.7761
▁demanding	-11.7763
▁Sleep	-11.7764
▁entered	-11.7766
▁spine	-11.777
▁starters	-11.7776
Lucille	-11.7778
▁rack	-11.778
▁demonstrate	-11.7781
▁jack	-11.7782
▁Gay	-11.7789
▁rescued	-11.7789
▁Ver	-11.779
▁defined	-11.779
▁monologue	-11.779
▁Mormon	-11.7796
▁cannibal	-11.7797
▁Bridget	-11.7797
▁hateful	-11.7799
ple	-11.7802
del	-11.7806
ail	-11.7806
▁Bugs	-11.7807
jokes	-11.7809
▁Seem	-11.781
▁photograph	-11.7812
▁Gr	-11.7814
post	-11.782
ept	-11.7821
▁claiming	-11.7822
▁teachers	-11.7828
have	-11.783
▁bug	-11.7832
▁answered	-11.7835
▁Studios	-11.7835
▁norm	-11.7835
▁Herman	-11.7836
mas	-11.7838
▁wa	-11.784
▁emerge	-11.7843
▁cope	-11.7844
▁Ali	-11.7848
referred	-11.7849
▁pat	-11.785
held	-11.7852
▁Others	-11.7858
▁slugs	-11.786
▁reads	-11.7866
>	-11.7872
▁devices	-11.7878
come	-11.7881
▁filter	-11.7883
▁styles	-11.7889
kind	-11.7893
ft	-11.7895
fan	-11.7901
▁transcend	-11.7913
▁Scarlet	-11.7917
Girl	-11.7922
Daniel	-11.7922
child	-11.7922
perfect	-11.7922
▁Westerns	-11.7929
▁sweat	-11.7931
▁Awards	-11.7933
▁wash	-11.7934
▁prepar	-11.7944
Eye	-11.7949
▁crawl	-11.7957
▁doctors	-11.7959
▁adapt	-11.7961
▁betray	-11.7964
▁Fly	-11.7965
▁neglect	-11.7965
▁despise	-11.7966
▁celebrate	-11.7966
▁prominent	-11.7968
▁reluctant	-11.7968
▁Anton	-11.7968
▁avoiding	-11.7969
▁reunite	-11.797
▁embrace	-11.797
▁Kei	-11.7973
▁beside	-11.7975
▁marrie	-11.7976
Je	-11.7978
▁smug	-11.7978
▁musicians	-11.7978
▁sometime	-11.7978
▁1984	-11.798
▁Detroit	-11.798
▁Fitzgerald	-11.798
▁Pacific	-11.798
▁Tyler	-11.798
▁Wagner	-11.798
▁expense	-11.798
▁legacy	-11.798
▁undeniably	-11.798
▁wardrobe	-11.798
▁wilderness	-11.798
▁AIDS	-11.798
▁Parsons	-11.798
▁lecture	-11.798
▁triangle	-11.798
▁Robbins	-11.798
▁Montana	-11.798
▁racing	-11.798
▁shining	-11.798
▁Technicolor	-11.798
▁symbolic	-11.798
▁Galactica	-11.7981
▁minister	-11.7981
▁mystical	-11.7981
▁nightclub	-11.7981
▁Elm	-11.7981
▁pathos	-11.7981
▁addiction	-11.7982
▁Lampoon	-11.7982
▁spectacle	-11.7982
▁Royal	-11.7983
▁illusion	-11.7984
▁helm	-11.7984
▁confidence	-11.7985
▁partially	-11.7986
▁anticipated	-11.7986
▁Austin	-11.7987
▁jacket	-11.7987
▁Melissa	-11.7988
▁furniture	-11.7988
▁Randolph	-11.7988
▁Rush	-11.7989
▁Short	-11.799
▁Dylan	-11.7991
▁Patricia	-11.7991
▁stalking	-11.7993
▁stream	-11.7995
▁tho	-11.7998
▁flashy	-11.7998
▁Jesse	-11.7999
▁Break	-11.8
▁employ	-11.8001
▁begging	-11.8004
▁Fever	-11.8005
▁LOL	-11.8007
▁Brett	-11.8008
▁eventual	-11.801
▁cheerful	-11.8011
lam	-11.8017
▁freaking	-11.8022
▁ships	-11.8023
▁knocked	-11.8028
▁swearing	-11.8031
▁unexpectedly	-11.8031
NO	-11.8033
▁Kind	-11.8035
▁Gram	-11.8038
▁immigrant	-11.8041
▁sensational	-11.8041
▁tourist	-11.8043
▁nerve	-11.8043
▁indifferent	-11.8043
▁monk	-11.8043
▁passage	-11.8043
▁seedy	-11.8044
▁hyped	-11.8046
▁clone	-11.8048
▁morally	-11.8048
▁shares	-11.805
▁Prom	-11.8053
▁upside	-11.8062
▁Character	-11.8067
▁principals	-11.8068
▁reviewing	-11.8069
EST	-11.8076
▁mega	-11.8079
▁disco	-11.8079
▁Juliet	-11.8091
Sam	-11.8097
▁Post	-11.8099
▁height	-11.8101
▁monkeys	-11.8106
▁visions	-11.8106
▁plotting	-11.8107
fight	-11.8112
▁females	-11.8119
here	-11.8123
tta	-11.8126
▁Robot	-11.8129
▁Wes	-11.8132
▁enthusiastic	-11.814
lum	-11.8145
▁bio	-11.8149
16	-11.8153
▁reminder	-11.8154
▁HAVE	-11.8163
▁filmmaking	-11.8167
▁item	-11.8171
Cinderella	-11.8172
little	-11.8172
documentary	-11.8173
▁insert	-11.8176
noir	-11.8176
▁fright	-11.8178
ama	-11.8183
wall	-11.8184
▁recover	-11.8187
▁slim	-11.8188
genre	-11.819
▁haunt	-11.8193
lay	-11.8196
▁al	-11.8201
▁reviewed	-11.8203
▁meal	-11.8211
▁torment	-11.8212
▁whip	-11.8213
MM	-11.8213
▁fundamental	-11.8214
▁IF	-11.8215
▁register	-11.8215
▁x	-11.8216
▁imitate	-11.8216
table	-11.8216
▁seduce	-11.8216
▁sufficient	-11.8218
nice	-11.8222
▁prom	-11.8225
▁connections	-11.8225
mal	-11.8228
▁update	-11.8229
▁marvel	-11.823
▁Storm	-11.823
▁lens	-11.823
▁Goldblum	-11.823
▁Kilmer	-11.823
▁Kinski	-11.823
▁NBC	-11.823
▁Phoenix	-11.823
▁Tomatoes	-11.823
▁Truman	-11.823
▁cerebral	-11.823
▁embark	-11.823
▁engrossing	-11.823
▁experiencing	-11.823
▁exterior	-11.823
▁ghetto	-11.823
▁monotonous	-11.823
▁puppy	-11.823
▁relevance	-11.823
▁shrink	-11.823
▁choir	-11.823
▁dentist	-11.823
▁lunatic	-11.823
▁nutshell	-11.823
▁Temple	-11.823
▁taboo	-11.823
▁KNOW	-11.823
▁unsatisfying	-11.823
▁League	-11.823
▁chorus	-11.823
▁morph	-11.823
▁accessible	-11.823
▁unsympathetic	-11.823
▁invest	-11.823
▁seldom	-11.823
▁Hannah	-11.823
▁bow	-11.823
▁stray	-11.823
▁Sebastian	-11.823
▁skinny	-11.8231
▁limp	-11.8231
▁studies	-11.8231
▁2008	-11.8231
rock	-11.8231
▁Franklin	-11.8232
oogie	-11.8232
▁peril	-11.8232
▁Goldie	-11.8233
▁drill	-11.8233
▁overblown	-11.8233
▁wipe	-11.8233
▁weaknesses	-11.8233
▁Shah	-11.8233
▁introducing	-11.8234
tel	-11.8234
▁fever	-11.8234
▁aesthetic	-11.8235
▁Ultimatum	-11.8235
▁flashes	-11.8236
▁Soylent	-11.8238
▁femme	-11.8238
▁located	-11.8239
▁selected	-11.8239
▁rapidly	-11.824
▁Admittedly	-11.8241
▁Renaissance	-11.8241
▁Natalie	-11.8242
▁300	-11.8242
▁Denise	-11.8243
▁heels	-11.8243
▁YOUR	-11.8245
▁Debra	-11.8245
▁Raymond	-11.8246
▁startling	-11.8248
▁Rider	-11.8249
▁rewarding	-11.8249
▁wolf	-11.825
▁Cube	-11.825
▁immortal	-11.825
▁Scream	-11.825
▁Today	-11.825
▁coke	-11.8251
▁Pink	-11.8252
ST	-11.8253
▁/>1)	-11.8255
▁assure	-11.8256
▁STAR	-11.8257
▁affects	-11.8258
▁Sweet	-11.8259
▁Buy	-11.8261
▁inherent	-11.8262
▁addicted	-11.8266
nish	-11.8267
▁interests	-11.8267
▁union	-11.8268
▁Min	-11.8268
fall	-11.8275
▁duel	-11.8276
▁pig	-11.8277
▁/>3/10	-11.8277
▁entering	-11.8278
▁vignettes	-11.8281
▁Gal	-11.8282
▁wisely	-11.8282
▁reject	-11.8282
▁Thunderbirds	-11.8284
▁AN	-11.8292
▁employee	-11.8297
▁mutant	-11.8298
▁revolve	-11.83
mash	-11.8305
▁bats	-11.8307
▁Off	-11.8314
▁ple	-11.8315
▁smash	-11.8326
su	-11.8328
▁insights	-11.8331
mad	-11.8333
▁suitabl	-11.8335
▁ray	-11.8339
▁Tur	-11.8347
bie	-11.8349
nes	-11.8352
▁Mostly	-11.8364
▁traps	-11.8369
▁Pia	-11.8373
▁axe	-11.8382
▁handy	-11.8386
▁Near	-11.8389
▁Bros	-11.839
▁Spoilers	-11.8392
▁dealer	-11.8395
▁strings	-11.8398
tech	-11.8402
▁motions	-11.8407
▁resulted	-11.8407
▁accounts	-11.8408
nny	-11.8409
MA	-11.841
itch	-11.8415
Second	-11.8416
SE	-11.8419
Frank	-11.8428
▁origins	-11.8428
Blue	-11.8428
Everything	-11.8429
Unless	-11.8429
master	-11.8433
almost	-11.8433
Jane	-11.8435
boat	-11.8439
▁Angels	-11.8443
▁23	-11.8443
?!?	-11.8444
▁chore	-11.8449
▁reflects	-11.8452
▁freaks	-11.8457
ushing	-11.8457
midst	-11.8458
▁defin	-11.8458
boo	-11.8459
▁factors	-11.8459
▁drift	-11.8461
▁fuel	-11.8463
▁exploits	-11.8471
bound	-11.8473
thought	-11.8473
▁confuse	-11.8473
▁dread	-11.8476
▁massacre	-11.8476
▁ranch	-11.8479
▁greed	-11.8479
▁tendenc	-11.8486
▁DeMille	-11.8486
▁Meadows	-11.8486
▁Python	-11.8486
▁Savage	-11.8486
▁controversy	-11.8486
▁inaccuracies	-11.8486
▁inclusion	-11.8486
▁peculiar	-11.8486
▁pulp	-11.8486
▁substantial	-11.8486
▁unanswered	-11.8486
▁vapid	-11.8486
▁whining	-11.8486
▁Voyager	-11.8486
▁jaded	-11.8486
▁destiny	-11.8486
▁quasi	-11.8487
▁transparent	-11.8487
▁LIKE	-11.8487
▁scariest	-11.8487
▁Sundance	-11.8487
▁annoyance	-11.8487
▁Rodney	-11.8487
▁Jenna	-11.8487
▁Arnie	-11.8487
▁heartwarming	-11.8487
▁hoot	-11.8487
▁Lead	-11.8488
▁ballet	-11.8488
▁fence	-11.8488
▁underwater	-11.8488
▁youthful	-11.8489
▁Fontaine	-11.8489
▁obsessive	-11.8489
▁repressed	-11.8489
▁possesses	-11.8489
▁clash	-11.849
▁verge	-11.849
▁1969	-11.849
▁Audrey	-11.849
▁Lance	-11.849
▁Want	-11.8491
▁chemical	-11.8491
▁assembled	-11.8491
▁inspirational	-11.8493
▁brooding	-11.8493
▁dictator	-11.8493
▁Clearly	-11.8493
▁glamorous	-11.8494
▁intro	-11.8494
▁stalked	-11.8495
▁Cindy	-11.8495
▁Guess	-11.8495
tain	-11.8497
▁grass	-11.8498
▁Spider	-11.8498
▁Must	-11.8499
▁doom	-11.85
▁Throw	-11.8501
▁strongest	-11.8502
▁clan	-11.8502
▁rose	-11.8505
▁washed	-11.8505
▁confident	-11.8505
▁dumped	-11.8509
▁Asia	-11.8509
▁dates	-11.851
▁Phantom	-11.851
▁Heck	-11.851
▁ne	-11.851
▁bitten	-11.8513
▁Hardly	-11.8513
▁evidently	-11.8513
▁substitute	-11.8514
▁Des	-11.8514
▁March	-11.8515
▁settled	-11.8517
▁defeated	-11.8518
say	-11.8521
▁Tara	-11.8522
▁sinking	-11.8524
▁jam	-11.8525
▁wounds	-11.8525
▁Happy	-11.8529
aki	-11.8533
ening	-11.8536
Neill	-11.8537
▁har	-11.8542
▁endlessly	-11.8545
▁Leave	-11.8546
▁dumber	-11.8549
▁rhyme	-11.8554
▁doubts	-11.8554
▁variation	-11.856
▁pound	-11.8563
ari	-11.8566
▁stages	-11.8568
▁landed	-11.8568
▁2-	-11.8571
▁giggle	-11.8578
sci	-11.858
coat	-11.8589
imp	-11.8601
▁Monkeys	-11.8603
▁flip	-11.8603
▁Sc	-11.8605
▁delve	-11.8616
▁Frankly	-11.8617
cute	-11.8621
▁void	-11.8625
sky	-11.8626
▁temper	-11.8628
▁comparisons	-11.8629
▁boxer	-11.8634
▁partners	-11.8634
▁goof	-11.8636
▁couples	-11.8637
▁brush	-11.8643
place	-11.8644
▁mentions	-11.8644
▁Bull	-11.8645
ev	-11.8645
▁Sheen	-11.8646
Ju	-11.8647
▁gangsters	-11.8654
▁coupled	-11.8659
▁Carr	-11.8659
▁inform	-11.8659
TE	-11.866
▁Tri	-11.8661
▁slip	-11.8662
nda	-11.8665
▁surroundings	-11.8669
▁bum	-11.8673
ston	-11.8681
telling	-11.8684
will	-11.869
Bottom	-11.8691
water	-11.8692
Seriously	-11.8692
Blood	-11.8692
people	-11.8692
winning	-11.8692
flick	-11.8692
▁Bert	-11.8692
Sorry	-11.8693
Jones	-11.8693
▁evolution	-11.8703
▁rang	-11.8705
▁smiles	-11.8705
▁echo	-11.8707
▁Roll	-11.8715
rab	-11.8716
Didn	-11.8717
happy	-11.8719
▁examine	-11.8719
▁preach	-11.8719
▁Andre	-11.872
▁linger	-11.8728
▁Dani	-11.8735
▁grant	-11.8736
▁resolve	-11.8736
▁observe	-11.8736
▁intricate	-11.8737
▁universal	-11.8738
▁relentless	-11.8738
▁excruciating	-11.8738
▁engine	-11.8738
must	-11.874
▁bra	-11.8742
▁routines	-11.8745
cross	-11.8745
▁shameless	-11.8748
▁Small	-11.875
▁1991	-11.875
▁Columbia	-11.875
▁Creek	-11.875
▁Kusturica	-11.875
▁Mabel	-11.875
▁Netflix	-11.875
▁Ritchie	-11.875
▁Rowlands	-11.875
▁Sarandon	-11.875
▁Seattle	-11.875
▁Shatner	-11.875
▁Shepherd	-11.875
▁Turkish	-11.875
▁cemetery	-11.875
▁clerk	-11.875
▁devastating	-11.875
▁flood	-11.875
▁gymnast	-11.875
▁lavish	-11.875
▁macabre	-11.875
▁platform	-11.875
▁releasing	-11.875
▁underneath	-11.875
uentin	-11.875
▁Doyle	-11.875
▁MUST	-11.875
▁disabled	-11.875
▁sincerity	-11.875
▁claustrophobic	-11.875
▁MacMurray	-11.875
▁curtain	-11.875
▁definitive	-11.875
▁1933	-11.875
▁faux	-11.875
▁1988	-11.875
▁1978	-11.875
▁Bogdanovich	-11.875
▁Britney	-11.875
▁limitations	-11.875
▁Ferrell	-11.875
▁furious	-11.875
▁karate	-11.875
▁Bonnie	-11.875
▁declare	-11.875
▁CBS	-11.875
▁rewrite	-11.8751
▁Hawn	-11.8751
▁intact	-11.8751
▁Dunne	-11.8752
▁Russo	-11.8752
▁authenticity	-11.8752
▁stardom	-11.8753
▁respective	-11.8753
▁shotgun	-11.8753
▁Godard	-11.8753
▁werewolves	-11.8754
▁frat	-11.8754
▁chock	-11.8754
▁Snipes	-11.8755
▁Grendel	-11.8757
▁Kathy	-11.8757
▁growth	-11.8757
▁lean	-11.8758
▁Doesn	-11.8758
▁Ajay	-11.8758
▁conveniently	-11.8759
▁Caprica	-11.876
▁Gate	-11.8761
▁Few	-11.8762
▁Shaggy	-11.8762
▁payoff	-11.8763
ATE	-11.8765
▁jealousy	-11.8766
▁distracted	-11.8766
▁pursued	-11.8768
▁popping	-11.8771
▁fatale	-11.8773
▁Fight	-11.8774
▁justification	-11.8776
▁completed	-11.8777
▁stereotyped	-11.8777
▁pole	-11.8779
▁fur	-11.8782
Che	-11.8784
ax	-11.8786
Red	-11.8791
▁drinks	-11.8791
rlock	-11.8792
▁bury	-11.8796
▁lol	-11.8798
▁vehicles	-11.88
▁gained	-11.8802
▁apt	-11.8802
200	-11.8804
▁Tel	-11.8804
brow	-11.881
▁judged	-11.8817
▁breathe	-11.8819
Joe	-11.8821
▁Phillip	-11.8824
ali	-11.8825
▁tunnel	-11.8828
▁principle	-11.883
▁session	-11.8831
▁resident	-11.8831
▁survivor	-11.8832
▁someday	-11.8832
eri	-11.8838
▁Segal	-11.8838
▁Hy	-11.884
▁pairing	-11.8851
▁grounds	-11.8851
mouthed	-11.8864
▁Simpsons	-11.8866
▁establish	-11.8866
▁Sad	-11.8868
▁scripting	-11.887
▁knocks	-11.887
▁layers	-11.8873
▁Fans	-11.8881
▁Fa	-11.8883
▁Less	-11.8883
body	-11.8888
HA	-11.89
▁attacking	-11.8903
ku	-11.8903
▁Side	-11.8909
▁avid	-11.8911
▁shed	-11.892
RY	-11.8924
▁Sta	-11.8926
Making	-11.8935
▁lighter	-11.8937
▁uniforms	-11.8937
▁depends	-11.8941
▁woo	-11.8942
typical	-11.8947
▁launch	-11.8949
▁laws	-11.8952
▁dish	-11.8955
▁detectives	-11.8956
▁bugs	-11.8957
▁Ok	-11.8959
Dark	-11.8961
Acting	-11.8962
Film	-11.8962
Yeah	-11.8962
▁iron	-11.8962
Basically	-11.8962
girlfriend	-11.8962
Paris	-11.8963
Return	-11.8963
Every	-11.8967
▁instances	-11.8968
mind	-11.8968
▁sentences	-11.8968
▁Firstly	-11.8969
uel	-11.897
▁breast	-11.8971
▁den	-11.8975
▁invent	-11.8978
▁scrap	-11.898
IL	-11.8983
Ba	-11.8983
▁render	-11.8984
▁distinguish	-11.8985
▁SH	-11.8986
sia	-11.8992
▁snakes	-11.8993
▁survives	-11.8995
▁glow	-11.8998
▁expand	-11.9005
▁listing	-11.9005
▁Meg	-11.9012
▁virtual	-11.9014
▁Russ	-11.9016
▁engineer	-11.9018
▁DID	-11.9019
▁DOES	-11.902
▁1944	-11.902
▁1981	-11.902
▁Amrita	-11.902
▁Dukakis	-11.902
▁Englund	-11.902
▁Granger	-11.902
▁Owl	-11.902
▁Together	-11.902
▁atrocity	-11.902
▁fiasco	-11.902
▁insanity	-11.902
▁junior	-11.902
▁optimistic	-11.902
▁phenomenon	-11.902
▁privilege	-11.902
▁anthology	-11.902
▁horrified	-11.902
▁sharing	-11.902
▁exploding	-11.902
▁Ingrid	-11.902
▁Irving	-11.902
▁saint	-11.902
▁1979	-11.902
▁Actress	-11.902
▁Machine	-11.902
▁informative	-11.902
▁sensible	-11.902
▁subtext	-11.902
▁Simple	-11.902
▁garner	-11.902
▁bastard	-11.902
▁organization	-11.902
▁pornography	-11.902
▁kidnapping	-11.902
▁Theatre	-11.902
▁investment	-11.902
▁suburban	-11.9021
▁Reese	-11.9021
▁tramp	-11.9021
▁underdeveloped	-11.9021
▁unseen	-11.9021
▁Serbian	-11.9021
▁adaption	-11.9021
▁Cecil	-11.9021
▁Pitch	-11.9022
▁salesman	-11.9022
▁daddy	-11.9022
▁cries	-11.9022
▁submarine	-11.9022
▁invention	-11.9022
pping	-11.9023
▁1985	-11.9023
▁mold	-11.9023
▁Farnsworth	-11.9024
▁Lubitsch	-11.9024
▁Spencer	-11.9024
▁Vaughn	-11.9024
▁irritated	-11.9024
izek	-11.9025
▁Esther	-11.9026
▁Wrong	-11.9027
Mad	-11.9027
▁'60	-11.9028
▁bald	-11.9029
▁published	-11.903
▁Oprah	-11.903
▁Kingdom	-11.9031
▁novelty	-11.9031
▁arranged	-11.9031
▁satirical	-11.9032
▁convicted	-11.9032
▁Antonio	-11.9033
▁Monty	-11.9034
▁Empire	-11.9035
▁Toby	-11.9036
▁invested	-11.9036
▁Romeo	-11.9036
▁Victorian	-11.9036
▁Robertson	-11.9037
▁entirety	-11.9038
self	-11.9039
▁north	-11.9044
lisha	-11.9044
▁disguised	-11.9046
▁meantime	-11.9046
▁secure	-11.9047
▁daytime	-11.9051
▁/>4.	-11.9053
▁Holy	-11.906
▁pimp	-11.9061
▁tuned	-11.9061
▁peaceful	-11.9062
▁Poe	-11.9062
ery	-11.9063
▁roughly	-11.9063
▁participants	-11.9064
▁cons	-11.9065
▁delighted	-11.9065
▁skilled	-11.9069
ute	-11.9073
▁regularly	-11.908
▁appeals	-11.9083
▁brown	-11.9084
ifying	-11.9086
▁dynamics	-11.9087
ombi	-11.909
▁tool	-11.9091
▁followers	-11.9091
oid	-11.9091
aging	-11.9093
far	-11.9093
▁explode	-11.9095
▁breathing	-11.9106
▁vocal	-11.9107
▁forties	-11.9116
▁Production	-11.9117
chy	-11.912
▁psyche	-11.9126
same	-11.9131
store	-11.914
▁su	-11.9154
▁Bear	-11.9155
▁endings	-11.9159
▁mins	-11.9169
ison	-11.917
▁Europeans	-11.9176
ged	-11.9176
▁adaptations	-11.9183
▁spirited	-11.919
▁ta	-11.92
cus	-11.9201
▁characteristics	-11.9201
▁serials	-11.9211
▁goals	-11.9214
▁ch	-11.9222
▁croc	-11.9223
ov	-11.9225
▁Act	-11.9236
Cha	-11.9238
Panic	-11.9238
crew	-11.9239
Life	-11.9239
normal	-11.924
White	-11.924
Much	-11.924
Because	-11.924
Jason	-11.924
Batman	-11.924
dramatic	-11.924
Nothing	-11.924
Wow	-11.9241
Plot	-11.9241
driven	-11.9241
Over	-11.9241
▁specially	-11.9241
erotic	-11.9242
▁items	-11.9242
▁ape	-11.9244
Plan	-11.9244
door	-11.9245
▁bombs	-11.9246
▁poses	-11.9249
▁brides	-11.9249
stick	-11.9249
▁Hand	-11.925
▁Mer	-11.9252
poor	-11.9255
▁Dominic	-11.9258
▁Hum	-11.9259
▁birds	-11.926
▁persons	-11.9262
14	-11.9264
classic	-11.9273
King	-11.9281
▁sustain	-11.9283
quality	-11.9283
▁participate	-11.9284
▁cancel	-11.9285
▁verbal	-11.9285
▁anyways	-11.9286
▁flu	-11.9287
▁restore	-11.9289
▁astounding	-11.9291
▁Sant	-11.9292
▁emphasize	-11.9293
▁excess	-11.9295
semblance	-11.9296
▁royal	-11.9297
▁traffic	-11.9298
▁champion	-11.9298
▁Company	-11.9298
▁Lansbury	-11.9298
▁Lombard	-11.9298
▁Malden	-11.9298
▁McCarthy	-11.9298
▁McDermott	-11.9298
▁Plenty	-11.9298
▁Reagan	-11.9298
▁Sophia	-11.9298
▁Thompson	-11.9298
▁bloke	-11.9298
▁centuries	-11.9298
▁continuing	-11.9298
▁implied	-11.9298
▁innuendo	-11.9298
▁invasion	-11.9298
▁manipulation	-11.9298
▁parodies	-11.9298
▁psychedelic	-11.9298
▁sublime	-11.9298
▁uncanny	-11.9298
▁understatement	-11.9298
▁unwilling	-11.9298
▁Northern	-11.9298
▁sorrow	-11.9298
▁component	-11.9298
▁compound	-11.9298
▁Longoria	-11.9298
▁Keitel	-11.9298
▁psychologist	-11.9298
▁palace	-11.9298
▁mythology	-11.9298
▁snuff	-11.9298
▁Archer	-11.9298
▁orange	-11.9298
▁bimbo	-11.9298
▁Barney	-11.9298
▁stepmother	-11.9298
▁surgeon	-11.9298
▁university	-11.9298
▁MORE	-11.9298
▁hick	-11.9298
▁Cassie	-11.9298
▁diner	-11.9299
▁motorcycle	-11.9299
▁drew	-11.9299
▁ambiguity	-11.9299
▁Fury	-11.9299
▁popped	-11.9299
▁:-)	-11.9299
▁ski	-11.9299
▁Sammi	-11.9299
▁Islam	-11.93
▁halt	-11.9301
▁Roach	-11.9301
▁Della	-11.9301
▁sketches	-11.9301
▁underworld	-11.9301
▁Cain	-11.9302
▁GOD	-11.9302
▁thirties	-11.9302
▁Communist	-11.9302
▁circles	-11.9302
▁Interesting	-11.9303
▁Faith	-11.9303
▁exclusively	-11.9303
▁Box	-11.9303
▁Rochester	-11.9304
▁Travolta	-11.9304
▁Kathleen	-11.9305
▁Rosario	-11.9305
▁Marilyn	-11.9305
▁auteur	-11.9305
▁slimy	-11.9306
OW	-11.9306
▁distributed	-11.9307
▁letdown	-11.9307
▁cookie	-11.9307
▁HOW	-11.9308
▁relentlessly	-11.931
▁Moreover	-11.931
▁Nation	-11.9311
▁fascist	-11.9312
▁freaky	-11.9313
▁Private	-11.9313
▁Gable	-11.9314
▁tormented	-11.9314
▁IMO	-11.9314
▁Gunga	-11.9315
▁masterfully	-11.9315
▁Liam	-11.9316
▁incorporate	-11.9316
rotting	-11.9317
▁altered	-11.9319
▁divorced	-11.9321
illa	-11.9326
▁attended	-11.9326
Mart	-11.9326
▁neatly	-11.9328
▁Cross	-11.933
playing	-11.933
▁steaming	-11.933
▁Direction	-11.933
▁males	-11.9334
▁foundation	-11.9338
▁capitalize	-11.9338
uh	-11.9339
▁Attack	-11.934
▁separated	-11.934
▁placement	-11.9341
▁Mae	-11.9341
▁linear	-11.9343
SH	-11.9343
ying	-11.9346
▁Titanic	-11.9347
▁Basic	-11.9348
ula	-11.9349
kar	-11.9349
▁Dreyfuss	-11.9354
▁wine	-11.9355
▁balanced	-11.9356
▁depict	-11.9358
▁longest	-11.936
▁flashing	-11.9361
▁>	-11.9367
▁veterans	-11.9373
!")	-11.9376
▁executives	-11.9377
cum	-11.9378
▁Gra	-11.9379
30	-11.9379
▁weirdo	-11.9381
plots	-11.9382
▁gap	-11.9387
uring	-11.9389
▁statements	-11.9389
▁likeable	-11.9389
▁Friends	-11.9392
▁Carlos	-11.9392
▁ok	-11.9393
▁Him	-11.9393
▁approached	-11.9393
▁volume	-11.9394
▁slide	-11.9394
ucker	-11.9395
▁cleaning	-11.9397
▁deer	-11.9397
▁races	-11.9401
▁pill	-11.9401
▁colored	-11.9405
▁classy	-11.9406
▁vet	-11.9409
▁Beach	-11.9411
▁Bart	-11.9413
▁cater	-11.9421
▁lion	-11.9426
anti	-11.9426
zz	-11.9427
▁insults	-11.943
▁characteristic	-11.943
▁baddies	-11.943
▁opt	-11.9431
▁Cal	-11.9432
▁Flo	-11.9442
▁mighty	-11.9445
▁outlaw	-11.9449
▁seeming	-11.9452
▁playful	-11.9454
quite	-11.9455
IS	-11.9456
SS	-11.9458
▁com	-11.9462
▁mixing	-11.9463
▁Ste	-11.9475
▁Sar	-11.9478
▁Ph	-11.948
▁tickets	-11.948
Pro	-11.9487
▁seasoned	-11.9487
▁joint	-11.949
▁Muni	-11.9495
lip	-11.9495
▁pounds	-11.9501
mark	-11.9502
▁arguments	-11.9507
▁hears	-11.9512
blood	-11.9512
▁Ti	-11.9513
▁convinces	-11.9514
▁rec	-11.9515
▁frames	-11.9525
Arthur	-11.9525
Meanwhile	-11.9525
adventure	-11.9525
together	-11.9526
please	-11.9526
Old	-11.9527
never	-11.9527
culture	-11.9527
Jim	-11.9527
lop	-11.9528
characterisation	-11.9529
whose	-11.9533
meaning	-11.9536
None	-11.9538
▁Came	-11.9539
▁mouths	-11.9542
▁arc	-11.9544
▁formed	-11.9547
▁Twist	-11.955
fish	-11.9551
gone	-11.9553
best	-11.9561
sexual	-11.9564
▁spray	-11.9569
▁inherit	-11.9569
oy	-11.9569
!!)	-11.9569
▁increase	-11.957
▁extensive	-11.9571
▁frank	-11.9572
▁Frost	-11.9576
▁loop	-11.9577
▁literal	-11.9578
▁fields	-11.9579
Up	-11.9581
▁Michel	-11.9581
▁Greene	-11.9581
▁quant	-11.9583
▁Christensen	-11.9583
▁Crenna	-11.9583
▁Edmund	-11.9583
▁Hilton	-11.9583
▁Izzard	-11.9583
▁Lopez	-11.9583
▁Redgrave	-11.9583
▁Sykes	-11.9583
▁VCR	-11.9583
▁facility	-11.9583
▁gigantic	-11.9583
▁librarian	-11.9583
▁ominous	-11.9583
▁qualify	-11.9583
▁sergeant	-11.9583
▁serum	-11.9583
▁tedium	-11.9583
▁thieves	-11.9583
▁unnecessarily	-11.9583
▁imprison	-11.9583
▁spouse	-11.9583
▁summarize	-11.9583
▁Seuss	-11.9583
▁isolation	-11.9583
Welcome	-11.9583
▁unstable	-11.9583
▁incestuous	-11.9583
▁shelter	-11.9583
▁robbed	-11.9583
▁bittersweet	-11.9583
▁havoc	-11.9583
▁injured	-11.9583
▁cringing	-11.9583
▁vault	-11.9583
▁Fellini	-11.9584
▁supermarket	-11.9584
▁garage	-11.9584
▁Durbin	-11.9584
▁screwball	-11.9584
▁Barker	-11.9584
▁forbidden	-11.9584
▁Anything	-11.9584
▁pump	-11.9584
▁stance	-11.9584
▁instructor	-11.9584
▁Brazilian	-11.9584
▁Egyptian	-11.9584
▁subtly	-11.9584
▁Redford	-11.9584
▁communication	-11.9585
▁mustache	-11.9585
▁authorities	-11.9585
▁Slater	-11.9585
EAR	-11.9585
▁candle	-11.9585
▁ninety	-11.9585
▁spaceship	-11.9585
▁sentimentality	-11.9586
eye	-11.9586
▁Republic	-11.9586
▁agony	-11.9586
▁leaders	-11.9587
▁stabbing	-11.9588
▁phenomenal	-11.9588
▁thrust	-11.9588
▁colours	-11.9589
▁fifth	-11.9589
▁caution	-11.9589
▁Cowboy	-11.9589
▁dramatically	-11.9591
▁stylized	-11.9591
▁Sandy	-11.9591
▁Nope	-11.9591
▁masks	-11.9596
ye	-11.9596
▁HK	-11.9596
▁Extreme	-11.9596
game	-11.9597
▁Christina	-11.9597
along	-11.9599
▁Ironically	-11.96
▁Pig	-11.96
▁Perfect	-11.9601
▁Silent	-11.9603
▁Find	-11.9604
▁wield	-11.9605
▁Kudos	-11.9605
▁vividly	-11.9606
▁reports	-11.9606
▁boost	-11.9607
▁promoted	-11.9607
▁caper	-11.9609
pol	-11.961
▁enhanced	-11.9612
▁concepts	-11.9613
▁hysterically	-11.9614
▁101	-11.9614
▁severed	-11.9615
▁mobile	-11.9615
▁bashing	-11.9618
▁expertly	-11.9625
ograph	-11.9627
▁frontal	-11.9627
▁magically	-11.9632
▁confession	-11.9634
▁encountered	-11.9635
▁eats	-11.9637
▁safely	-11.9639
▁rant	-11.9643
race	-11.9643
five	-11.9644
▁des	-11.9647
▁Bed	-11.965
lia	-11.9652
▁sheet	-11.9653
▁bones	-11.9653
▁reward	-11.9654
▁crashing	-11.9656
▁rounded	-11.9666
▁tapes	-11.9668
▁passengers	-11.9669
▁portrayals	-11.9671
code	-11.9676
!!!!!!	-11.9677
▁MAD	-11.9678
▁suspected	-11.9679
▁marked	-11.968
▁traits	-11.9682
▁hu	-11.9685
▁Bel	-11.9686
witted	-11.969
▁scam	-11.969
▁biker	-11.9691
▁owners	-11.9692
sided	-11.9693
▁slaves	-11.9694
▁Er	-11.9695
ement	-11.97
▁sober	-11.9701
▁pirate	-11.9705
▁Woods	-11.9706
▁Ren	-11.9708
▁Dom	-11.9711
▁flirt	-11.9713
▁Te	-11.9717
▁ba	-11.9718
▁!!	-11.9722
▁Solo	-11.9738
▁fart	-11.9746
▁sources	-11.9755
live	-11.9761
▁(!)	-11.9764
▁pros	-11.9779
taking	-11.9786
▁Pet	-11.979
▁users	-11.9795
▁rejects	-11.9798
zed	-11.98
▁sensation	-11.9803
▁Tu	-11.9806
▁photographs	-11.9808
cia	-11.9815
save	-11.9816
▁guards	-11.9817
takes	-11.9817
realistic	-11.9819
▁DA	-11.982
▁valid	-11.982
Jean	-11.9821
spirited	-11.9821
bomb	-11.9822
▁Going	-11.9822
Mark	-11.9824
▁sunk	-11.9825
Get	-11.9827
▁novelist	-11.9832
mann	-11.9832
▁ratio	-11.9839
Was	-11.9845
▁repeats	-11.9846
▁embarrass	-11.9855
▁elder	-11.9866
▁Hoover	-11.9868
▁neo	-11.987
▁filth	-11.9871
ked	-11.9873
▁Coop	-11.9874
ronic	-11.9874
tz	-11.9875
ole	-11.9876
▁aristocrat	-11.9876
▁Dietrich	-11.9877
▁slut	-11.9877
▁scandal	-11.9877
▁regime	-11.9877
▁mortal	-11.9877
▁Tiger	-11.9877
▁jock	-11.9877
▁smirk	-11.9878
▁1976	-11.9878
▁Aiello	-11.9878
▁Aussie	-11.9878
▁Express	-11.9878
▁Flynn	-11.9878
▁Grudge	-11.9878
▁Lommel	-11.9878
▁Marjorie	-11.9878
▁Rodriguez	-11.9878
▁STILL	-11.9878
▁Sergi	-11.9878
▁biblical	-11.9878
▁ceiling	-11.9878
▁escaping	-11.9878
▁fodder	-11.9878
▁mediocrity	-11.9878
▁mesmerizing	-11.9878
▁playwright	-11.9878
▁slept	-11.9878
▁succumb	-11.9878
▁Bennett	-11.9878
▁Ledger	-11.9878
▁implies	-11.9878
▁suppress	-11.9878
▁misunderstood	-11.9878
▁offense	-11.9878
▁Takashi	-11.9878
▁handicapped	-11.9878
▁improbable	-11.9878
▁biopic	-11.9878
odiac	-11.9878
▁anguish	-11.9878
▁1998	-11.9878
▁foster	-11.9878
▁unconventional	-11.9878
▁1995	-11.9878
▁Chiba	-11.9878
▁padding	-11.9878
▁Barbra	-11.9878
▁Beatty	-11.9878
▁Jolie	-11.9878
▁resistance	-11.9878
▁stating	-11.9878
▁duck	-11.9878
▁inspector	-11.9878
▁miniseries	-11.9878
▁Born	-11.9878
▁accomplishment	-11.9878
▁Agent	-11.9879
▁clunky	-11.9879
▁Jar	-11.988
▁Cunningham	-11.988
▁brick	-11.988
▁undead	-11.9881
▁breakdown	-11.9881
▁sack	-11.9881
▁MJ	-11.9882
ika	-11.9882
▁helmet	-11.9882
▁dopey	-11.9883
▁Brent	-11.9883
▁Philo	-11.9883
▁Harriet	-11.9884
▁Myrna	-11.9884
▁Colonel	-11.9885
▁Urban	-11.9885
▁fable	-11.9886
▁Govinda	-11.9886
▁Askey	-11.9886
▁luckily	-11.9887
▁raising	-11.9887
▁sarcasm	-11.9887
▁tacked	-11.9888
▁Buddy	-11.9888
▁Pul	-11.9889
▁Journey	-11.9891
▁Children	-11.9891
▁rewarded	-11.9893
▁approaches	-11.9893
▁Place	-11.9893
▁controlled	-11.9894
▁Lionel	-11.9895
"!	-11.9896
▁Beverly	-11.9896
▁assist	-11.9896
▁END	-11.9896
▁July	-11.9897
▁rep	-11.9899
▁drowning	-11.9899
▁chuckles	-11.99
▁sexist	-11.9901
▁establishing	-11.9902
▁Paz	-11.9903
▁predicted	-11.9903
▁exploited	-11.9904
▁amuse	-11.9906
▁Fun	-11.9906
▁mount	-11.9909
▁sleeps	-11.9909
▁Cabin	-11.9912
ander	-11.9912
▁bread	-11.9914
▁stoned	-11.9914
▁28	-11.9916
▁hop	-11.9916
▁sc	-11.9917
▁;)	-11.9918
▁aided	-11.992
▁customers	-11.9921
rough	-11.9921
▁Wu	-11.9923
lace	-11.9924
piece	-11.9934
Com	-11.9937
exp	-11.9946
ken	-11.9949
▁conveyed	-11.9951
▁Shin	-11.9951
▁Tobe	-11.9952
mates	-11.9953
▁annoy	-11.9953
isation	-11.9955
▁freeze	-11.9956
worker	-11.9958
▁awarded	-11.9964
omi	-11.9966
▁crossed	-11.9968
▁Paula	-11.9969
▁Within	-11.9971
▁obstacles	-11.9972
hol	-11.9973
▁remark	-11.9979
burn	-11.998
▁Wa	-11.9983
▁(?)	-11.9985
▁blamed	-11.9987
ACT	-11.9988
▁/>****	-11.9988
▁candidate	-11.999
▁hostage	-11.9991
▁Meyer	-11.9991
▁observation	-11.9991
▁composition	-11.9994
▁inmates	-11.9995
ridge	-11.9996
▁zoom	-11.9997
Toole	-12.0003
elli	-12.0005
▁Ber	-12.0009
Mister	-12.0011
▁painter	-12.0016
▁counting	-12.0019
▁stud	-12.0023
▁respond	-12.003
ened	-12.0037
▁flowers	-12.0039
nor	-12.0041
▁nails	-12.0043
ident	-12.0046
▁Doug	-12.0049
▁Sid	-12.005
▁colleagues	-12.0052
▁excuses	-12.0053
▁discipline	-12.0055
hole	-12.0058
▁remembering	-12.0059
▁arty	-12.006
ching	-12.0067
▁BO	-12.0067
rit	-12.0068
▁gaps	-12.0076
▁bent	-12.0084
▁AM	-12.009
rip	-12.0091
▁pee	-12.0092
▁WE	-12.0092
▁videotape	-12.0101
eon	-12.0109
iva	-12.0112
▁scenarios	-12.0112
actually	-12.0112
mill	-12.0116
▁bur	-12.0116
▁networks	-12.0118
Story	-12.0121
inducing	-12.0122
Sound	-12.0122
daughter	-12.0122
Besides	-12.0123
Halloween	-12.0123
frame	-12.0123
wrote	-12.0123
much	-12.0123
Christopher	-12.0123
first	-12.0123
ock	-12.0123
social	-12.0123
through	-12.0124
Unlike	-12.0125
Steve	-12.0125
however	-12.0125
Bar	-12.0128
jack	-12.0129
ERS	-12.0132
ami	-12.0138
▁digest	-12.014
waiting	-12.0142
▁drain	-12.0143
▁drown	-12.0144
▁pic	-12.0145
▁ambitions	-12.0145
Any	-12.0147
▁Belle	-12.0149
▁View	-12.0151
iel	-12.0153
nzo	-12.0155
▁nun	-12.0156
▁bla	-12.0157
▁pioneer	-12.0157
effects	-12.0161
▁servants	-12.0163
▁Sand	-12.0164
Ka	-12.0172
org	-12.0172
▁whine	-12.0173
▁crank	-12.0173
lier	-12.0177
▁taxi	-12.0178
▁soup	-12.0178
▁Lowe	-12.0178
holding	-12.018
▁Egypt	-12.018
▁frantic	-12.018
▁/>10/10	-12.0181
▁Dillinger	-12.0181
▁Episode	-12.0181
▁Iturbi	-12.0181
▁Jabba	-12.0181
▁Liotta	-12.0181
▁Minnelli	-12.0181
▁Portuguese	-12.0181
▁Shannon	-12.0181
▁Sorvino	-12.0181
▁Sydney	-12.0181
▁Witherspoon	-12.0181
▁ambiance	-12.0181
▁captive	-12.0181
▁casino	-12.0181
▁complement	-12.0181
▁murky	-12.0181
▁perpetual	-12.0181
▁policy	-12.0181
▁prevail	-12.0181
▁rehearsal	-12.0181
▁saloon	-12.0181
▁shrill	-12.0181
▁Network	-12.0181
▁overbearing	-12.0181
▁razor	-12.0181
▁sparse	-12.0181
▁tiger	-12.0181
▁Irwin	-12.0181
▁outlandish	-12.0181
▁Combs	-12.0181
▁Holland	-12.0181
▁Judd	-12.0181
▁voodoo	-12.0181
▁earliest	-12.0181
▁phase	-12.0181
▁Fritz	-12.0181
▁/>7/10	-12.0181
▁Kennedy	-12.0181
▁studied	-12.0181
▁Barnes	-12.0181
▁elite	-12.0181
▁1977	-12.0181
▁Garfield	-12.0181
▁misfire	-12.0181
▁Hopper	-12.0181
▁revolving	-12.0181
▁0/10	-12.0181
▁cancelled	-12.0181
▁Sheets	-12.0181
▁uninspiring	-12.0181
▁Winston	-12.0181
▁riff	-12.0181
▁feast	-12.0181
▁waist	-12.0181
▁Irene	-12.0181
▁remainder	-12.0182
▁submit	-12.0182
▁products	-12.0182
▁airport	-12.0182
▁laser	-12.0182
▁missile	-12.0182
▁Fallon	-12.0182
▁Joker	-12.0182
▁Norton	-12.0182
▁desk	-12.0182
▁widescreen	-12.0183
▁Metal	-12.0184
▁sheep	-12.0184
▁Dante	-12.0185
▁Leno	-12.0185
▁Gretchen	-12.0185
▁spaghetti	-12.0185
▁bearable	-12.0185
▁billion	-12.0185
▁deck	-12.0185
▁distorted	-12.0186
▁Peggy	-12.0186
▁readily	-12.0187
▁villainous	-12.0187
▁Possibly	-12.0187
▁Bravo	-12.0187
▁differ	-12.0188
▁Azumi	-12.0189
▁incarnation	-12.0189
US	-12.0189
▁exhibit	-12.0189
▁Corey	-12.0189
▁panic	-12.0189
▁respectable	-12.0191
▁offbeat	-12.0191
▁Angie	-12.0191
▁collector	-12.0192
▁perverted	-12.0192
▁Fantasy	-12.0192
▁spider	-12.0192
▁Terror	-12.0193
▁Isabelle	-12.0193
▁Europa	-12.0194
▁Gregory	-12.0194
▁crown	-12.0195
▁Thankfully	-12.0195
▁NOW	-12.0195
▁celebrated	-12.0198
▁Hollow	-12.0198
▁revolting	-12.0198
▁Might	-12.0198
▁profile	-12.02
▁chronicle	-12.02
lle	-12.0201
Home	-12.0202
▁finishes	-12.0203
▁comprise	-12.0205
▁Pay	-12.0206
▁Creature	-12.0209
▁parallels	-12.0209
▁progressed	-12.0211
▁cannon	-12.0211
▁Meet	-12.0212
▁tremendously	-12.0213
▁gathered	-12.0214
bot	-12.0214
▁Muslims	-12.0215
▁ensue	-12.0215
▁cooking	-12.0216
▁Directed	-12.0217
▁addressed	-12.0217
▁produces	-12.0218
▁admired	-12.0218
▁dolls	-12.0221
▁swinging	-12.0222
▁clad	-12.0223
▁tightly	-12.0224
▁feeding	-12.0227
ros	-12.0228
▁tomb	-12.0228
▁Stay	-12.0228
Both	-12.023
▁reminding	-12.0237
app	-12.0237
▁interviewed	-12.0239
▁Mick	-12.024
▁8.	-12.0241
▁List	-12.0242
▁laying	-12.0248
▁phones	-12.025
▁tech	-12.025
▁fleshed	-12.0255
▁informed	-12.0256
▁dreadfully	-12.0257
▁ridden	-12.026
▁achieves	-12.0267
▁port	-12.0269
▁Butch	-12.027
▁wars	-12.0278
▁listened	-12.0281
▁campus	-12.0283
ira	-12.0286
▁sour	-12.0286
▁damned	-12.029
▁recruit	-12.029
▁indicate	-12.0291
▁spoiling	-12.0294
ANT	-12.0294
▁talky	-12.0301
▁newcomer	-12.0304
▁consequence	-12.0306
▁geek	-12.0306
▁gestures	-12.0307
▁muscle	-12.0308
▁nuances	-12.0313
▁slower	-12.0315
▁Sister	-12.0318
▁accepting	-12.0326
lover	-12.0332
itting	-12.0337
bur	-12.0341
▁squeeze	-12.0342
glo	-12.035
▁mon	-12.0357
▁stepp	-12.036
ium	-12.0361
▁grabbe	-12.0376
ush	-12.0378
▁inflict	-12.0379
▁Kent	-12.038
▁locals	-12.039
lost	-12.039
uous	-12.0392
ssing	-12.0392
▁alot	-12.0398
▁camping	-12.0409
scape	-12.041
shoot	-12.0411
ei	-12.0412
▁locale	-12.0417
conscious	-12.0423
▁AL	-12.0424
city	-12.043
▁babes	-12.0433
conceived	-12.0434
Mystery	-12.0435
Hamlet	-12.0435
Henry	-12.0435
filled	-12.0435
better	-12.0435
About	-12.0436
Dress	-12.0437
Young	-12.0438
related	-12.0438
found	-12.0439
▁politicians	-12.0439
▁paints	-12.0439
Never	-12.0442
ona	-12.0443
▁Boo	-12.0444
Car	-12.0445
turned	-12.0445
▁epics	-12.0446
zing	-12.0446
killer	-12.0451
dream	-12.0456
ealand	-12.046
▁sane	-12.0464
▁Fer	-12.0465
▁ads	-12.0466
▁bands	-12.047
▁enlist	-12.0479
▁blunt	-12.0481
▁bias	-12.0482
▁rapid	-12.0482
▁determine	-12.0485
▁recreate	-12.0487
▁Thorn	-12.0488
▁bully	-12.0489
▁Mis	-12.0489
▁surf	-12.049
▁Holm	-12.0491
▁trivia	-12.0491
Am	-12.0492
▁motor	-12.0492
▁Foot	-12.0493
▁Aliens	-12.0493
Written	-12.0493
▁1967	-12.0493
▁1974	-12.0493
▁ANYTHING	-12.0493
▁Caesar	-12.0493
▁Czech	-12.0493
▁Fawcett	-12.0493
▁Floriane	-12.0493
▁HUGE	-12.0493
▁Kristofferson	-12.0493
▁Mastroianni	-12.0493
▁McDowell	-12.0493
▁Melody	-12.0493
▁Neeson	-12.0493
▁Plummer	-12.0493
▁applies	-12.0493
▁brunette	-12.0493
▁cocaine	-12.0493
▁conniving	-12.0493
▁continent	-12.0493
▁exaggeration	-12.0493
▁fragile	-12.0493
▁haphazard	-12.0493
▁henchmen	-12.0493
▁overwrought	-12.0493
▁relating	-12.0493
▁sleeve	-12.0493
▁superfluous	-12.0493
▁testament	-12.0493
▁varied	-12.0493
▁Buffy	-12.0493
▁aftermath	-12.0493
▁Ladies	-12.0493
▁Mountain	-12.0493
▁bounce	-12.0493
▁ghastly	-12.0493
▁whimsical	-12.0493
▁eleven	-12.0493
▁injury	-12.0493
▁mutual	-12.0493
▁ordeal	-12.0493
▁McLaglen	-12.0493
▁obscurity	-12.0493
▁graveyard	-12.0493
▁Hayward	-12.0493
▁McDonald	-12.0493
▁predator	-12.0493
▁COULD	-12.0493
▁drummer	-12.0493
▁diving	-12.0493
▁grey	-12.0493
▁ladder	-12.0493
▁Farrah	-12.0493
▁Sgt	-12.0493
▁jury	-12.0493
▁incest	-12.0493
▁Garner	-12.0494
▁kingdom	-12.0494
▁request	-12.0494
▁sanity	-12.0494
▁Marvin	-12.0494
▁beef	-12.0494
▁diverse	-12.0494
▁dragging	-12.0494
▁Chevy	-12.0494
▁Angelina	-12.0494
▁capacity	-12.0494
▁Payne	-12.0494
▁TR	-12.0494
▁revisit	-12.0494
▁attendant	-12.0494
▁Knightley	-12.0494
▁riddle	-12.0494
▁shack	-12.0494
▁laboratory	-12.0494
▁sought	-12.0494
▁HATE	-12.0494
▁grating	-12.0494
▁Blonde	-12.0494
▁noteworthy	-12.0494
▁acceptance	-12.0495
▁delay	-12.0495
▁replacement	-12.0495
▁Romance	-12.0495
▁EVERY	-12.0496
▁Chamberlain	-12.0496
▁artistry	-12.0496
Being	-12.0496
▁Kung	-12.0496
▁HIS	-12.0496
▁unclear	-12.0497
▁skeptical	-12.0497
▁gentleman	-12.0497
▁AWAY	-12.0497
▁Keanu	-12.0498
▁Purple	-12.0498
▁forgiveness	-12.0498
▁glossy	-12.0498
▁Bates	-12.0498
▁Toward	-12.0499
▁Chloe	-12.05
▁hometown	-12.05
▁enduring	-12.0501
▁overboard	-12.0501
▁Sophie	-12.0501
▁Wesley	-12.0502
▁swell	-12.0503
▁admitted	-12.0503
▁momentum	-12.0503
▁Dumb	-12.0504
▁Hour	-12.0505
▁Totally	-12.0505
▁Toni	-12.0505
▁Hostel	-12.0505
▁Vivian	-12.0505
▁filthy	-12.0505
▁armor	-12.0507
▁drowned	-12.0508
▁Regardless	-12.0509
Yet	-12.051
▁Faye	-12.0511
▁Locke	-12.0511
▁inserted	-12.0512
▁factual	-12.0514
▁lad	-12.0516
▁plead	-12.0518
▁Jude	-12.0519
▁rendering	-12.0519
mart	-12.052
▁purse	-12.052
▁Jaws	-12.0522
raw	-12.0523
▁complications	-12.0526
ico	-12.0527
▁linked	-12.053
▁/>1/10	-12.0531
▁pr	-12.0532
▁Citizen	-12.0533
▁holy	-12.0533
tress	-12.0539
▁accidental	-12.0541
▁attending	-12.0542
▁Chi	-12.0545
▁Luci	-12.0546
▁Jacques	-12.055
▁contemplat	-12.0553
▁200	-12.0556
▁targeted	-12.0558
got	-12.0558
▁windows	-12.0567
▁Bur	-12.0567
▁tactics	-12.0568
tale	-12.0568
▁morals	-12.0569
▁awfulness	-12.0571
▁manic	-12.0572
▁midst	-12.0574
▁likewise	-12.0578
▁retrieve	-12.0578
Note	-12.0578
▁disappoints	-12.0579
▁Dukes	-12.0582
close	-12.0582
▁robbers	-12.0587
▁yell	-12.0592
▁unconscious	-12.0593
▁Dolls	-12.06
▁depths	-12.0602
bag	-12.0605
▁affairs	-12.0608
▁warrant	-12.0609
▁expose	-12.061
▁counterparts	-12.0612
▁civilians	-12.0612
▁incidents	-12.0614
rail	-12.0615
▁custom	-12.0617
▁robotic	-12.0618
▁stumble	-12.0618
▁/>7	-12.062
▁convict	-12.0621
▁anytime	-12.0621
enchant	-12.0622
hum	-12.0622
▁collaboration	-12.0624
▁trains	-12.0625
▁Martian	-12.0627
▁colleague	-12.0627
▁virtue	-12.063
▁entertainer	-12.0632
▁admirer	-12.0632
▁excellently	-12.0632
▁Der	-12.064
▁ga	-12.0641
▁Demons	-12.0653
▁afterward	-12.0654
Chris	-12.0656
▁Cho	-12.0658
▁Jose	-12.066
▁flames	-12.0673
▁Killers	-12.0674
Marc	-12.0685
goers	-12.0702
▁pushe	-12.0713
aid	-12.0718
▁paintings	-12.0718
atic	-12.072
half	-12.0721
▁heal	-12.0726
▁26	-12.0727
▁MI	-12.0729
▁gu	-12.073
Sha	-12.0741
▁GET	-12.0747
Add	-12.0753
▁Wing	-12.0756
aries	-12.0756
Technically	-12.0756
Basic	-12.0756
centered	-12.0757
plus	-12.0758
secret	-12.0758
Those	-12.0758
Planet	-12.0758
political	-12.0758
level	-12.0758
loving	-12.0758
force	-12.0759
tical	-12.0759
since	-12.0759
Back	-12.0762
▁crop	-12.0762
Neal	-12.0765
super	-12.0765
▁enable	-12.0767
▁sock	-12.0771
▁romances	-12.0772
change	-12.0773
More	-12.0774
95	-12.0778
unch	-12.078
▁rounds	-12.0782
▁Ab	-12.0785
▁Sara	-12.0792
▁tease	-12.0793
▁!!!	-12.0795
true	-12.0797
▁acclaim	-12.0801
▁polish	-12.0801
▁collapse	-12.0801
▁entrance	-12.0802
▁amaze	-12.0802
▁tolerate	-12.0802
END	-12.0802
▁6.	-12.0805
▁Inc	-12.0806
▁splash	-12.0808
date	-12.0809
kill	-12.0811
hit	-12.0812
▁Korea	-12.0812
▁blur	-12.0814
▁Brennan	-12.0816
▁Conrad	-12.0816
▁Dickinson	-12.0816
▁Duryea	-12.0816
▁Hilliard	-12.0816
▁Peckinpah	-12.0816
▁Public	-12.0816
▁Rooney	-12.0816
▁Rudd	-12.0816
▁Service	-12.0816
▁Sheridan	-12.0816
▁Stallone	-12.0816
▁Swayze	-12.0816
▁Switzerland	-12.0816
▁Ursula	-12.0816
▁arrogance	-12.0816
▁chaotic	-12.0816
▁cycle	-12.0816
▁destination	-12.0816
▁detached	-12.0816
▁medieval	-12.0816
▁oblivious	-12.0816
▁sophistication	-12.0816
▁stubborn	-12.0816
▁swamp	-12.0816
▁tattoo	-12.0816
▁vacuous	-12.0816
▁Busey	-12.0816
▁essay	-12.0816
▁Clutter	-12.0816
▁Internet	-12.0816
▁Cheech	-12.0816
▁Lorre	-12.0816
▁plod	-12.0816
▁hollywood	-12.0816
▁Blank	-12.0816
▁1936	-12.0816
▁MacDonald	-12.0816
▁Pickford	-12.0816
▁honour	-12.0816
▁shiny	-12.0816
▁awry	-12.0816
▁array	-12.0816
▁Extras	-12.0816
▁apple	-12.0816
▁Battlestar	-12.0816
▁frozen	-12.0816
▁Kamal	-12.0816
▁knight	-12.0816
▁landmark	-12.0816
▁Rican	-12.0816
▁cease	-12.0816
▁polar	-12.0816
▁revival	-12.0816
▁predictably	-12.0816
▁Cannes	-12.0816
▁mentor	-12.0817
▁Danning	-12.0817
▁Weaver	-12.0817
▁Wang	-12.0817
▁loot	-12.0818
▁Delia	-12.0818
▁DAY	-12.0818
▁Steele	-12.0818
▁Hayes	-12.0819
▁Television	-12.0819
▁Sort	-12.0819
▁gunfight	-12.0819
▁lightning	-12.082
▁Modesty	-12.082
▁Samurai	-12.082
▁imaginary	-12.082
▁nonexistent	-12.0821
▁crippled	-12.0821
▁Globe	-12.0821
▁Edge	-12.0821
▁preacher	-12.0822
track	-12.0822
▁Benjamin	-12.0822
▁bubble	-12.0822
▁Tashan	-12.0822
▁elected	-12.0823
▁Morse	-12.0824
▁Exorcist	-12.0824
▁Palestinian	-12.0824
▁Truth	-12.0824
▁Honor	-12.0825
▁courtes	-12.0825
▁Euro	-12.0826
▁satisfaction	-12.0826
▁Jodie	-12.0827
▁shoved	-12.0827
▁Cuban	-12.0827
▁convenient	-12.0828
▁beforehand	-12.0829
▁Double	-12.083
▁Criminal	-12.083
space	-12.083
▁lighthearted	-12.0831
▁fairness	-12.0831
▁downward	-12.0832
▁Duck	-12.0832
▁infant	-12.0832
▁Mayor	-12.0833
▁Colman	-12.0833
▁Goodman	-12.0833
▁Liz	-12.0833
▁Low	-12.0834
▁fuss	-12.0835
▁impose	-12.0838
▁reported	-12.0838
▁Sullivan	-12.084
▁Claude	-12.0842
shi	-12.0843
▁WTF	-12.0844
▁Har	-12.0844
▁Boss	-12.0844
SON	-12.0845
▁unfolding	-12.0846
▁sap	-12.0849
▁questioning	-12.0849
▁widowed	-12.085
ched	-12.0851
▁Tall	-12.0851
▁sells	-12.0852
rating	-12.0854
▁shave	-12.0855
▁Forest	-12.0856
TION	-12.0858
▁stupidest	-12.0859
▁hunted	-12.0861
▁Vic	-12.0863
▁forgetting	-12.0864
▁Va	-12.0867
▁Total	-12.0867
▁billing	-12.0867
ERO	-12.0869
▁73	-12.087
▁lap	-12.087
(!)	-12.087
▁Vol	-12.0873
▁HAS	-12.0874
▁deft	-12.0876
▁palm	-12.0878
▁Sim	-12.0879
Mac	-12.088
ify	-12.088
▁outcast	-12.0882
▁cameraman	-12.0882
.........	-12.0886
▁bombed	-12.0889
▁symbol	-12.0894
amp	-12.0894
▁NA	-12.0894
▁lasting	-12.0895
▁Fl	-12.0896
▁paired	-12.0897
▁longing	-12.0899
▁Ang	-12.0904
igh	-12.0904
▁stuffed	-12.0904
▁AS	-12.0906
sized	-12.0911
▁dreamy	-12.0915
▁fetched	-12.0918
▁weary	-12.0924
99	-12.0926
▁judgement	-12.093
▁license	-12.0932
▁achievements	-12.0934
▁hum	-12.0945
Se	-12.0949
q	-12.0949
▁weekly	-12.0949
▁profit	-12.0957
flo	-12.0957
▁sibling	-12.0961
bor	-12.0961
▁chop	-12.0964
▁diver	-12.0966
▁Kara	-12.0967
▁ver	-12.0971
▁flame	-12.0972
board	-12.0975
lot	-12.0979
▁thumb	-12.0979
▁Pam	-12.098
▁Dai	-12.0987
▁para	-12.0995
60	-12.0996
▁um	-12.0999
▁4)	-12.1012
▁/>4	-12.1013
▁CA	-12.1016
ological	-12.1016
▁sync	-12.1019
▁theatres	-12.1024
▁Bean	-12.1026
▁cent	-12.1026
anna	-12.1027
Par	-12.1029
▁Eye	-12.1029
▁rightly	-12.1031
▁suggesting	-12.1032
▁explodes	-12.104
▁residents	-12.1046
▁/>2)	-12.1054
▁apes	-12.106
je	-12.1063
▁spoofs	-12.1064
▁Barr	-12.1064
lyn	-12.1074
▁10-	-12.1083
▁masters	-12.1083
▁Mon	-12.1087
▁seats	-12.1089
Titanic	-12.109
Grade	-12.1091
despite	-12.1091
Eddie	-12.1091
Baby	-12.1092
win	-12.1092
▁cells	-12.1093
young	-12.1094
around	-12.1095
Someone	-12.1096
rack	-12.1096
haired	-12.1098
▁hippies	-12.1104
ua	-12.1104
Secondly	-12.1106
LESS	-12.1109
▁ignor	-12.1109
oooo	-12.111
boring	-12.1111
Ray	-12.1112
▁Luc	-12.1113
▁accepts	-12.1117
▁jewel	-12.1119
▁distress	-12.1126
▁Cap	-12.1134
▁provoke	-12.1135
Miss	-12.1135
▁eliminate	-12.1135
▁cultures	-12.1145
▁Marx	-12.1148
▁meteor	-12.1149
▁masquerad	-12.1149
▁1982	-12.1149
▁1987	-12.1149
▁BLOOD	-12.1149
▁Cartwright	-12.1149
▁Guevara	-12.1149
▁McIntire	-12.1149
▁Olympic	-12.1149
▁Pertwee	-12.1149
▁Samantha	-12.1149
▁Square	-12.1149
▁Travis	-12.1149
▁Valerie	-12.1149
▁abstract	-12.1149
▁applause	-12.1149
▁blossom	-12.1149
▁cohesive	-12.1149
▁cunning	-12.1149
▁dazzling	-12.1149
▁dvd	-12.1149
▁escort	-12.1149
▁fierce	-12.1149
▁homicidal	-12.1149
▁irrational	-12.1149
▁kibbutz	-12.1149
▁monstrosity	-12.1149
▁occult	-12.1149
▁paranoid	-12.1149
▁refund	-12.1149
▁regain	-12.1149
▁stalwart	-12.1149
▁staple	-12.1149
▁surrender	-12.1149
▁vintage	-12.1149
▁Daisies	-12.1149
▁elicit	-12.1149
▁fraud	-12.1149
▁rampant	-12.1149
▁shelves	-12.1149
▁vibe	-12.1149
▁Additionally	-12.1149
▁wheelchair	-12.1149
▁Luthor	-12.1149
▁Costner	-12.1149
▁Lumet	-12.1149
▁Stefan	-12.1149
▁admission	-12.1149
▁repair	-12.1149
▁Glenda	-12.1149
▁1945	-12.1149
▁padded	-12.1149
▁programming	-12.1149
▁skimp	-12.1149
▁1975	-12.1149
▁1994	-12.1149
▁gruff	-12.1149
▁upbringing	-12.1149
▁perverse	-12.1149
▁Mummy	-12.1149
▁deputy	-12.1149
▁perversion	-12.1149
▁fairytale	-12.1149
▁constraints	-12.1149
▁taut	-12.1149
▁aircraft	-12.1149
▁golf	-12.1149
▁Jovi	-12.1149
▁crass	-12.1149
▁keyboard	-12.1149
▁lump	-12.1149
▁enigmatic	-12.1149
▁uneasy	-12.1149
▁hostile	-12.1149
▁courtroom	-12.115
▁sunny	-12.115
▁Samuel	-12.115
▁bondage	-12.115
▁Haines	-12.115
▁fuzzy	-12.115
Gloria	-12.115
▁skipping	-12.115
▁punchline	-12.1151
▁Somebody	-12.1151
▁homosexuality	-12.1151
▁Saif	-12.1152
▁infinitely	-12.1152
▁Benny	-12.1152
▁Anita	-12.1152
▁Bunch	-12.1152
▁Erika	-12.1152
▁Arkin	-12.1153
▁Omar	-12.1153
▁passive	-12.1153
▁Rice	-12.1153
▁Fourth	-12.1153
▁Lola	-12.1154
▁Duff	-12.1154
▁Cinematography	-12.1154
▁Entertainment	-12.1154
▁Screenplay	-12.1154
▁radiation	-12.1154
▁Chainsaw	-12.1156
▁trumpet	-12.1156
▁fruit	-12.1156
▁DJ	-12.1157
▁Frye	-12.1157
▁haircut	-12.1158
▁Orlando	-12.1158
▁Penelope	-12.1158
▁CO	-12.1158
▁Flash	-12.1159
▁AVOID	-12.116
▁Rabbit	-12.116
▁nemesis	-12.116
MAN	-12.1161
▁Carey	-12.1162
▁fleeting	-12.1162
OD	-12.1163
▁Rainer	-12.1164
▁Whilst	-12.1164
▁Terminator	-12.1164
▁strung	-12.1164
▁ironically	-12.1164
▁digress	-12.1165
▁WOW	-12.1165
▁Problem	-12.1166
▁SOME	-12.1166
▁Gross	-12.1167
▁husbands	-12.1167
▁penis	-12.1168
gal	-12.1168
ien	-12.1168
▁Soldiers	-12.1168
late	-12.1171
addest	-12.1171
▁injustice	-12.1171
numbers	-12.1172
▁commander	-12.1172
▁Penny	-12.1172
▁lawn	-12.1173
▁demonstrated	-12.1177
▁establishment	-12.1179
▁Tam	-12.1182
▁/>2/10	-12.1183
▁Wonderland	-12.1185
18	-12.1185
▁Deep	-12.1192
▁apologize	-12.1193
▁smarter	-12.1194
▁PS	-12.1195
▁grind	-12.1201
▁tricked	-12.1202
▁Ultimately	-12.1202
road	-12.1203
▁nights	-12.1203
▁gathering	-12.1204
mis	-12.1206
RS	-12.121
▁Dress	-12.1215
▁defending	-12.1216
▁screenwriters	-12.1217
▁unusually	-12.1225
hmm	-12.1229
Jo	-12.123
▁Makes	-12.1234
▁willingly	-12.1236
17	-12.1241
sort	-12.1241
▁convention	-12.1242
using	-12.1246
▁numbing	-12.1258
...........	-12.1262
▁Mira	-12.1264
▁bombing	-12.1265
lee	-12.1265
▁outsider	-12.127
▁Pu	-12.1276
▁borders	-12.1282
▁cube	-12.1286
▁/>2	-12.1287
▁chill	-12.1291
▁monitor	-12.1302
▁prank	-12.1302
▁elephant	-12.1302
▁cigarette	-12.1303
▁stripper	-12.1303
aaaa	-12.1304
▁shoe	-12.1307
▁cloud	-12.1307
▁unre	-12.1308
▁Scenes	-12.1315
gging	-12.1316
▁Giant	-12.1317
▁tower	-12.132
▁RO	-12.132
▁Tales	-12.133
▁signal	-12.1331
▁Cl	-12.1332
▁Streets	-12.1332
▁gra	-12.1332
▁Nell	-12.1333
▁chops	-12.1338
▁Th	-12.1338
atory	-12.1341
ION	-12.1342
▁Turn	-12.1342
ease	-12.1344
▁ob	-12.1346
▁Martians	-12.1348
▁yells	-12.1349
break	-12.1353
ubb	-12.1354
▁Georges	-12.1354
person	-12.136
▁festivals	-12.1365
state	-12.1386
FF	-12.1392
▁Dreams	-12.1398
▁Crow	-12.14
▁mutants	-12.1401
▁Sub	-12.1402
ility	-12.1407
▁bothering	-12.1408
▁doc	-12.1411
INE	-12.1416
heart	-12.1416
feel	-12.1417
▁fo	-12.1421
▁DR	-12.1422
▁thereof	-12.1423
serious	-12.1424
▁careless	-12.1424
weight	-12.1427
lack	-12.1428
▁boo	-12.1429
▁Elliot	-12.1434
Alien	-12.1436
laugh	-12.1436
Before	-12.1436
worst	-12.1436
Alice	-12.1436
Under	-12.1436
Scream	-12.1437
literally	-12.1437
Down	-12.1438
Lost	-12.1438
whatever	-12.1441
Gary	-12.1442
neck	-12.1442
▁assert	-12.1446
▁plug	-12.1452
▁conduct	-12.1452
ished	-12.1453
▁fades	-12.1455
▁interpretations	-12.1456
▁Blues	-12.1458
breed	-12.1461
▁dr	-12.1466
▁awaken	-12.1479
chen	-12.148
▁extend	-12.148
▁Work	-12.1481
▁revive	-12.1483
▁incidental	-12.1487
▁Venezuela	-12.149
▁Fried	-12.1492
▁Gerald	-12.1493
▁Drama	-12.1493
▁revel	-12.1494
Brien	-12.1494
▁Ashraf	-12.1494
▁Bauer	-12.1494
▁Future	-12.1494
▁Jersey	-12.1494
▁Melbourne	-12.1494
▁Pfeiffer	-12.1494
▁Tomlinson	-12.1494
▁appalled	-12.1494
▁athletic	-12.1494
▁brow	-12.1494
▁cheesiness	-12.1494
▁circus	-12.1494
▁clarity	-12.1494
▁decay	-12.1494
▁impersonation	-12.1494
▁inclined	-12.1494
▁neutral	-12.1494
▁ounce	-12.1494
▁squirm	-12.1494
▁tomorrow	-12.1494
▁ALERT	-12.1494
▁Apollo	-12.1494
▁BTK	-12.1494
▁Raider	-12.1494
▁suave	-12.1494
▁Barbarian	-12.1494
▁Parents	-12.1494
▁Muriel	-12.1494
▁Tsui	-12.1494
▁gallery	-12.1494
▁prehistoric	-12.1494
▁foremost	-12.1494
▁reprise	-12.1494
▁Denver	-12.1494
▁mockery	-12.1494
▁patron	-12.1494
▁puke	-12.1494
▁beware	-12.1494
▁extract	-12.1494
▁mud	-12.1494
▁Shaq	-12.1494
▁navy	-12.1494
▁representative	-12.1494
▁reign	-12.1494
▁retirement	-12.1494
▁idealistic	-12.1494
▁email	-12.1494
▁singular	-12.1494
▁Garland	-12.1494
▁Cathy	-12.1494
▁adultery	-12.1495
▁Schwarzenegger	-12.1495
▁Blaine	-12.1495
▁drone	-12.1495
▁Nicole	-12.1496
▁aspire	-12.1496
▁homo	-12.1496
▁Nina	-12.1496
▁grandma	-12.1496
▁retelling	-12.1496
▁standpoint	-12.1496
▁Bathsheba	-12.1497
▁conductor	-12.1497
▁supportive	-12.1497
▁gloomy	-12.1498
▁hardened	-12.1498
▁pink	-12.1498
wow	-12.1498
liance	-12.1499
▁cinematographic	-12.1499
rick	-12.15
▁staging	-12.15
▁Around	-12.1501
▁Kareena	-12.1501
▁minority	-12.1501
▁miraculously	-12.1502
▁cowardly	-12.1502
(?)	-12.1503
▁sn	-12.1503
▁Daisy	-12.1503
▁pornographic	-12.1503
▁realistically	-12.1504
▁absorbing	-12.1504
▁Greenaway	-12.1504
▁Heather	-12.1504
▁pointing	-12.1504
bal	-12.1505
▁48	-12.1505
▁nuanced	-12.1505
▁abundance	-12.1505
▁Always	-12.1505
▁Cliff	-12.1505
slow	-12.1505
▁varying	-12.1507
▁motivated	-12.1507
▁Anyways	-12.1509
▁Revenge	-12.1509
▁Thelma	-12.1509
yer	-12.1511
▁talentless	-12.1513
▁coolest	-12.1514
▁Whereas	-12.1514
▁realization	-12.1514
▁coma	-12.1515
▁THEY	-12.1516
▁needlessly	-12.1516
▁mole	-12.1517
▁readers	-12.1517
▁Compare	-12.1518
▁blade	-12.1518
▁wholesome	-12.1519
▁superstar	-12.152
▁stares	-12.1522
▁po	-12.1522
▁enormously	-12.1522
▁faded	-12.1522
▁weirdness	-12.1523
▁Connor	-12.1523
▁lingering	-12.1523
▁consciousness	-12.1524
▁texture	-12.1527
boiled	-12.1528
▁discussed	-12.1529
▁def	-12.1532
▁Pecker	-12.1532
▁pains	-12.1534
Roman	-12.1535
▁Trying	-12.1539
▁spelled	-12.154
▁coaster	-12.1541
▁Ham	-12.1542
invited	-12.1545
▁BY	-12.1547
▁switching	-12.1547
▁/>8/10	-12.155
▁"10	-12.1554
▁thereafter	-12.1557
▁log	-12.1557
▁advised	-12.1562
▁chewing	-12.1563
****	-12.1565
working	-12.1565
▁classmates	-12.1566
▁sinks	-12.1566
▁outset	-12.1566
een	-12.1568
ique	-12.1579
iro	-12.1582
NOT	-12.1583
▁Rocky	-12.1585
yo	-12.159
▁boots	-12.1595
gore	-12.1604
▁ongoing	-12.1604
▁Brazil	-12.1604
▁Lot	-12.1604
hill	-12.1611
▁Apes	-12.1612
lig	-12.162
ew	-12.1623
▁saddle	-12.1628
hate	-12.1633
▁economic	-12.1634
tell	-12.1634
▁blues	-12.1637
▁hallucinations	-12.1639
▁mor	-12.1639
wait	-12.164
▁sucking	-12.164
▁socially	-12.1641
▁sins	-12.1646
pieces	-12.1655
CE	-12.166
▁interior	-12.166
▁suspicion	-12.166
▁fe	-12.166
ured	-12.1663
▁tenant	-12.1666
AGE	-12.1671
▁1920	-12.1674
▁openly	-12.1677
▁cracks	-12.1684
▁stations	-12.1684
▁arise	-12.169
▁pans	-12.1692
▁horn	-12.1694
CU	-12.1698
▁mates	-12.17
AND	-12.1702
IR	-12.1706
▁teams	-12.1709
▁scar	-12.1717
▁gr	-12.1725
▁fa	-12.1727
being	-12.173
Li	-12.1736
▁toned	-12.1736
▁BA	-12.1743
dog	-12.1748
▁senses	-12.1748
▁slam	-12.1751
▁flower	-12.1752
sign	-12.1753
▁nap	-12.1753
mus	-12.1766
▁tools	-12.1766
▁cannibals	-12.1768
▁battl	-12.1768
▁practic	-12.177
sound	-12.177
▁Doc	-12.1777
▁Borg	-12.1781
count	-12.1783
High	-12.1785
Ed	-12.1786
▁records	-12.1791
Happy	-12.1793
Scary	-12.1793
Poor	-12.1793
Next	-12.1793
Sadly	-12.1793
drawn	-12.1793
camera	-12.1793
Instead	-12.1794
Out	-12.1798
Gi	-12.1798
▁gam	-12.1804
Give	-12.1805
▁thug	-12.1807
▁qua	-12.1811
talking	-12.1812
▁slack	-12.1818
▁needing	-12.182
dan	-12.1824
Boy	-12.1826
early	-12.1828
oshi	-12.1828
▁mist	-12.1828
Seven	-12.1828
▁fold	-12.1828
▁decid	-12.1829
Cat	-12.1834
▁construct	-12.1835
▁Thin	-12.1836
▁interrupt	-12.1836
▁bars	-12.1837
▁outrage	-12.1837
▁/>**	-12.1838
▁spill	-12.1839
▁fortunate	-12.1839
▁precise	-12.1839
▁slug	-12.1839
▁thankful	-12.1841
▁whack	-12.1843
▁indulge	-12.1846
▁depictions	-12.1847
▁mi	-12.1848
ARD	-12.1848
▁Bruckheimer	-12.1851
▁Hindu	-12.1851
▁Schmid	-12.1851
▁Shadow	-12.1851
▁Suddenly	-12.1851
▁YouTube	-12.1851
▁bachelor	-12.1851
▁bounty	-12.1851
▁combining	-12.1851
▁dodgy	-12.1851
▁happier	-12.1851
▁idiocy	-12.1851
▁inconsistencies	-12.1851
▁lurid	-12.1851
▁nightmarish	-12.1851
▁paragraph	-12.1851
▁recipe	-12.1851
▁replies	-12.1851
▁scheming	-12.1851
▁sensibilities	-12.1851
▁sensibility	-12.1851
▁tepid	-12.1851
▁Afghanistan	-12.1851
▁BORING	-12.1851
▁CBC	-12.1851
▁Dyke	-12.1851
▁lampoon	-12.1851
▁reckless	-12.1851
▁Ugly	-12.1851
▁decency	-12.1851
▁discernible	-12.1851
▁Intentions	-12.1851
▁shudder	-12.1851
▁witchcraft	-12.1851
▁Wanda	-12.1851
▁yarn	-12.1851
▁1963	-12.1851
▁Rudy	-12.1851
▁Kingsley	-12.1851
▁reception	-12.1851
▁scarier	-12.1851
▁2009	-12.1851
▁penned	-12.1851
▁College	-12.1851
▁Levy	-12.1851
▁Carface	-12.1851
▁SHOW	-12.1852
▁hurl	-12.1852
▁snail	-12.1852
▁mythical	-12.1852
▁promoting	-12.1852
Jeff	-12.1852
▁undercover	-12.1852
▁alcoholism	-12.1852
▁flock	-12.1852
▁identified	-12.1853
▁Hadley	-12.1853
▁raunchy	-12.1853
▁annoyingly	-12.1853
▁tits	-12.1854
▁slavery	-12.1854
▁espionage	-12.1854
ipul	-12.1854
▁Marty	-12.1854
▁Shue	-12.1855
▁Sammy	-12.1855
▁rogue	-12.1855
▁witless	-12.1856
▁Coleman	-12.1856
▁Eight	-12.1856
▁catholic	-12.1856
▁gorilla	-12.1856
▁loner	-12.1856
▁Passion	-12.1857
▁Romanian	-12.1858
▁'90	-12.1858
▁stunk	-12.1858
▁Crazy	-12.1858
▁narrated	-12.1859
▁coverage	-12.1859
▁policemen	-12.186
▁confined	-12.186
▁playboy	-12.186
▁Atlantic	-12.1861
▁Chandler	-12.1861
▁Debbie	-12.1861
▁Alexandre	-12.1861
▁Orwell	-12.1861
▁stretches	-12.1861
▁Darkman	-12.1861
▁awareness	-12.1862
▁Surprisingly	-12.1863
▁communist	-12.1863
▁john	-12.1863
▁dominated	-12.1864
waving	-12.1866
▁Toro	-12.1866
▁Often	-12.1868
May	-12.1868
▁quaint	-12.1869
▁bitchy	-12.187
▁Noam	-12.1871
▁registered	-12.1872
▁neglected	-12.1873
▁revere	-12.1874
▁Body	-12.1874
▁awakening	-12.1875
▁protective	-12.1875
▁wartime	-12.1877
▁Frankie	-12.1877
▁wherever	-12.1878
▁jerky	-12.1879
▁Stick	-12.1879
Files	-12.1883
▁adequately	-12.1884
▁ranting	-12.1884
▁sang	-12.1885
▁premiered	-12.1885
▁Uh	-12.1885
▁crushed	-12.1888
▁Test	-12.1889
▁Tell	-12.1889
▁Hedy	-12.189
▁professionals	-12.189
▁Capt	-12.1895
nch	-12.1896
▁Hark	-12.1896
mother	-12.19
ITY	-12.1903
▁winners	-12.1909
▁mastermind	-12.1909
▁masked	-12.191
▁therapy	-12.192
▁Tak	-12.1921
▁Hartman	-12.1925
▁pressed	-12.1927
Pickup	-12.1929
Th	-12.1931
▁solved	-12.1932
▁Kerr	-12.1935
hip	-12.1936
▁Mama	-12.1937
▁grader	-12.1938
aime	-12.1945
▁intensely	-12.1945
▁Weird	-12.1946
ore	-12.1949
▁insulted	-12.1951
▁ghostly	-12.1952
▁fashions	-12.1959
▁tables	-12.1964
▁persuade	-12.1967
friend	-12.1968
Hi	-12.1972
spoiler	-12.1976
▁cheaper	-12.198
▁flicker	-12.198
▁Words	-12.198
eth	-12.1983
▁Ve	-12.1984
▁Games	-12.1994
▁integrate	-12.1994
iko	-12.1994
▁mat	-12.1995
err	-12.1996
▁Reno	-12.1997
▁tele	-12.2
▁boobs	-12.2
▁deeds	-12.2002
workers	-12.2009
▁dock	-12.2009
▁tin	-12.2023
wer	-12.2027
▁Liza	-12.2027
▁Fr	-12.203
▁stake	-12.2034
▁drum	-12.2042
▁corporation	-12.2042
▁Jen	-12.2043
▁Mont	-12.2043
Les	-12.2046
▁scriptwriter	-12.2049
zen	-12.2055
nder	-12.2058
Mel	-12.2064
ois	-12.2064
escent	-12.2068
lord	-12.2071
▁Jed	-12.2071
▁observations	-12.2079
▁Spoiler	-12.2081
▁Beat	-12.2087
▁pi	-12.2087
due	-12.2089
▁clinic	-12.2089
sure	-12.2094
ional	-12.21
▁Bears	-12.21
fighting	-12.2104
▁existent	-12.2111
vid	-12.2115
▁mirrors	-12.2118
quel	-12.2123
▁HER	-12.2124
▁haired	-12.2124
▁Toy	-12.2128
ata	-12.2135
▁evokes	-12.215
talent	-12.215
cies	-12.2151
▁contemplate	-12.2151
▁Weir	-12.2153
▁seam	-12.2154
▁traditions	-12.2155
▁Stop	-12.2155
▁TOO	-12.216
▁regards	-12.2161
▁Job	-12.2161
Ultimately	-12.2163
Guy	-12.2163
Power	-12.2163
Definitely	-12.2163
Police	-12.2163
Oliver	-12.2163
▁ants	-12.2163
Think	-12.2163
Horror	-12.2163
Stewart	-12.2163
Scott	-12.2163
should	-12.2164
Danny	-12.2164
black	-12.2165
dark	-12.2165
Such	-12.2165
million	-12.2165
actresses	-12.2166
Code	-12.2166
Full	-12.2168
▁lib	-12.2168
ode	-12.2169
ET	-12.2169
▁slash	-12.2175
IVE	-12.2181
▁Wi	-12.2183
▁figur	-12.2184
▁MAKE	-12.2184
mail	-12.2184
▁pauses	-12.2186
Aside	-12.219
▁Wave	-12.2193
▁churn	-12.2198
▁bleed	-12.2199
▁Hmm	-12.2201
▁contend	-12.2202
empt	-12.2203
lew	-12.2204
▁Sur	-12.2205
▁Um	-12.2206
▁perceive	-12.2207
▁dominate	-12.2208
▁permanent	-12.2209
▁prompt	-12.2209
▁asset	-12.2218
▁prospect	-12.2218
▁contradict	-12.2218
▁1000	-12.2219
▁Romania	-12.2219
▁Nine	-12.2219
atherine	-12.2219
▁Errol	-12.222
▁archive	-12.222
▁automatic	-12.2221
▁stereo	-12.2221
▁Argento	-12.2221
▁Furious	-12.2221
▁Krueger	-12.2221
▁Madeleine	-12.2221
▁Rathbone	-12.2221
▁academic	-12.2221
▁agonizing	-12.2221
▁ceremony	-12.2221
▁coarse	-12.2221
▁compilation	-12.2221
▁intestines	-12.2221
▁medicine	-12.2221
▁pulse	-12.2221
▁quintessential	-12.2221
▁rebellion	-12.2221
▁signature	-12.2221
▁smarmy	-12.2221
▁spectator	-12.2221
▁spoon	-12.2221
▁stereotyping	-12.2221
▁unnerving	-12.2221
▁visceral	-12.2221
▁Eleanor	-12.2221
▁Hazzard	-12.2221
▁Holocaust	-12.2221
▁Kaufman	-12.2221
▁Mafia	-12.2221
▁Portman	-12.2221
▁Scorpion	-12.2221
▁henchman	-12.2221
▁ravishing	-12.2221
▁carnage	-12.2221
▁Ethel	-12.2221
▁tolerance	-12.2221
▁Newhart	-12.2221
▁hesitate	-12.2221
▁banana	-12.2221
▁carpet	-12.2221
▁Hickock	-12.2221
▁overseas	-12.2221
▁censorship	-12.2221
▁predictability	-12.2221
▁Coast	-12.2221
▁guise	-12.2222
▁Cassel	-12.2222
▁tissue	-12.2222
▁gaze	-12.2222
▁concentration	-12.2222
▁Seberg	-12.2222
▁thespian	-12.2222
▁stir	-12.2222
▁Castro	-12.2222
▁marred	-12.2222
▁digging	-12.2222
▁patent	-12.2222
▁unfamiliar	-12.2222
▁Lambert	-12.2222
▁disappearance	-12.2222
▁Hulk	-12.2222
▁Ironside	-12.2222
▁Connie	-12.2222
▁Tube	-12.2222
▁distinctive	-12.2222
▁breakthrough	-12.2222
▁Report	-12.2222
▁stoop	-12.2222
▁budd	-12.2222
▁condescending	-12.2223
▁Hugo	-12.2223
▁mum	-12.2223
▁WWE	-12.2223
▁Incredible	-12.2223
▁Lars	-12.2224
▁Rico	-12.2224
▁Atwill	-12.2224
▁girlfriends	-12.2224
▁gently	-12.2224
▁hairstyle	-12.2225
▁contradiction	-12.2225
▁Gail	-12.2225
▁prone	-12.2225
▁vanity	-12.2226
▁prolonged	-12.2226
▁Tilly	-12.2226
▁recreation	-12.2226
elda	-12.2227
▁Archie	-12.2227
▁Cradle	-12.2227
▁Violence	-12.2227
▁believability	-12.2227
▁Corpse	-12.2227
▁masturbation	-12.2227
▁Mission	-12.2228
▁compassionate	-12.2228
▁captivated	-12.2228
▁WANT	-12.2229
▁Wo	-12.2229
▁Coppola	-12.2229
▁Maurice	-12.2229
▁Treasure	-12.2229
indulgence	-12.223
▁announced	-12.2231
▁divine	-12.2231
▁Tina	-12.2232
▁gown	-12.2232
▁Monday	-12.2232
▁crooked	-12.2232
▁Benson	-12.2233
▁OVER	-12.2233
▁Bernie	-12.2233
▁peek	-12.2233
▁IMHO	-12.2234
▁Joshua	-12.2234
▁500	-12.2234
▁WWI	-12.2235
▁Pride	-12.2235
roy	-12.2235
▁Scarecrow	-12.2236
▁closure	-12.2237
▁Fran	-12.2237
▁Soles	-12.2238
▁Cruel	-12.2238
▁backed	-12.224
▁Ruper	-12.224
▁casually	-12.2242
▁Eater	-12.2243
pass	-12.2243
ired	-12.2246
▁dense	-12.2247
▁eagerly	-12.2247
aming	-12.2248
▁educated	-12.2248
▁Brand	-12.2252
▁subsequently	-12.2253
▁slaughtered	-12.2256
▁Simone	-12.2257
▁Open	-12.2259
-8	-12.2264
▁seriousness	-12.2264
▁poop	-12.2264
▁attain	-12.2265
▁98	-12.2266
▁Terri	-12.2267
▁Hmmm	-12.2269
▁Newman	-12.2271
▁endured	-12.2277
▁conscious	-12.2284
▁ruled	-12.2285
▁hills	-12.2287
digger	-12.2288
una	-12.2288
▁begun	-12.2293
▁Lamas	-12.2295
▁Dogs	-12.2299
▁defy	-12.2303
▁badness	-12.2307
hur	-12.231
▁nu	-12.2312
▁east	-12.2313
▁transferr	-12.2314
▁plotline	-12.2317
▁traveled	-12.2322
▁Dec	-12.2326
▁Warriors	-12.2326
▁jar	-12.2329
▁drawings	-12.233
▁Fre	-12.2334
▁bills	-12.2337
▁Fall	-12.2337
▁Heat	-12.2338
▁hats	-12.2343
udi	-12.2345
▁surfers	-12.235
▁Ni	-12.2351
▁Shi	-12.2352
▁Hay	-12.2356
▁violently	-12.2359
▁slot	-12.2361
▁Lovely	-12.2363
▁overacts	-12.2364
laden	-12.2367
▁stalks	-12.2378
ego	-12.2384
esh	-12.2391
▁crossing	-12.2396
▁instincts	-12.2399
▁criticise	-12.2401
misunderstanding	-12.2404
........	-12.2408
▁Isn	-12.2408
▁throats	-12.241
▁mod	-12.2412
rel	-12.2417
▁PA	-12.2417
▁murderers	-12.2419
hall	-12.2423
▁hug	-12.2425
▁clouds	-12.2427
mine	-12.2432
standing	-12.2436
▁Producer	-12.244
▁Scene	-12.2443
▁erase	-12.2445
holes	-12.2448
angle	-12.2451
▁Moran	-12.2454
▁rides	-12.2455
▁respects	-12.2456
arious	-12.2458
▁arrow	-12.2464
▁Hawk	-12.247
▁attribute	-12.2476
▁Sen	-12.2478
overs	-12.248
TO	-12.2481
▁Lives	-12.2491
▁Lone	-12.2495
▁rips	-12.2495
▁Wil	-12.2495
▁Lyn	-12.2498
loo	-12.25
▁pigs	-12.2504
turn	-12.2506
▁immigrants	-12.251
▁tourists	-12.2511
▁heights	-12.2511
rn	-12.2516
▁snatch	-12.2521
gue	-12.2521
ography	-12.2522
writing	-12.2538
▁sights	-12.2542
▁gate	-12.2543
professional	-12.2546
actress	-12.2546
Angel	-12.2547
Attack	-12.2547
Honestly	-12.2548
Again	-12.2548
Stephen	-12.2548
death	-12.2548
stupid	-12.2548
Brad	-12.2548
Death	-12.2548
Johnny	-12.2549
Anyone	-12.2549
Christian	-12.2549
Thomas	-12.2549
Actually	-12.255
Play	-12.255
job	-12.2551
office	-12.2552
Rex	-12.2553
packed	-12.2559
Show	-12.2562
lag	-12.2562
heads	-12.2563
unlike	-12.2564
Matt	-12.2566
▁canon	-12.2566
lived	-12.2567
▁airing	-12.2571
▁Ce	-12.2575
▁ninjas	-12.2577
Marie	-12.2577
▁Class	-12.2579
▁poet	-12.2579
▁revolt	-12.2584
▁85	-12.2586
▁proclaim	-12.2591
▁pervert	-12.2591
▁ponder	-12.2591
▁accuse	-12.2592
▁immense	-12.2594
reality	-12.2596
▁Slow	-12.26
▁Date	-12.2601
▁Cannon	-12.2602
▁grain	-12.2603
▁branch	-12.2604
▁tomato	-12.2604
rich	-12.2604
▁fabric	-12.2606
▁discern	-12.2606
Humphrey	-12.2606
▁Abhay	-12.2606
▁Berkowitz	-12.2606
▁Daphne	-12.2606
▁Government	-12.2606
▁Gwyne	-12.2606
▁Malta	-12.2606
▁Maureen	-12.2606
▁Meredith	-12.2606
▁PEOPLE	-12.2606
▁TERRIBLE	-12.2606
▁autobiography	-12.2606
▁categories	-12.2606
▁celebrities	-12.2606
▁crummy	-12.2606
▁demographic	-12.2606
▁endeavor	-12.2606
▁fencing	-12.2606
▁flamboyant	-12.2606
▁incompetence	-12.2606
▁ineffective	-12.2606
▁interminable	-12.2606
▁luxury	-12.2606
▁maximum	-12.2606
▁oblivion	-12.2606
▁prevalent	-12.2606
▁torturing	-12.2606
▁turgid	-12.2606
▁unimpressive	-12.2606
▁verdict	-12.2606
▁whisper	-12.2606
Between	-12.2606
▁Carlyle	-12.2606
▁Fleet	-12.2606
▁Hospital	-12.2606
▁frenetic	-12.2606
▁grandparents	-12.2606
▁greet	-12.2606
▁mandatory	-12.2606
▁solving	-12.2606
▁brawl	-12.2606
▁diversity	-12.2606
▁globe	-12.2606
▁mercifully	-12.2606
▁sociopath	-12.2606
▁gusto	-12.2606
▁Crypt	-12.2606
▁marathon	-12.2606
▁Dillon	-12.2606
▁diabolical	-12.2606
▁obscene	-12.2606
▁chimp	-12.2606
▁climate	-12.2606
▁peasant	-12.2606
▁robbing	-12.2606
▁satanic	-12.2606
▁Celie	-12.2606
▁Cahill	-12.2606
▁enchanting	-12.2606
▁Eyre	-12.2606
▁Sergeant	-12.2606
▁Olsen	-12.2606
▁dawn	-12.2606
▁pompous	-12.2606
▁Midler	-12.2606
▁boundaries	-12.2606
Snake	-12.2606
▁Iowa	-12.2606
▁Holden	-12.2606
▁terminal	-12.2606
▁unemployed	-12.2606
▁towel	-12.2606
▁Norris	-12.2606
▁thunder	-12.2606
▁traumatic	-12.2607
▁drugged	-12.2607
▁commendable	-12.2607
▁Crispin	-12.2607
▁Bigfoot	-12.2607
▁marine	-12.2607
▁Emmy	-12.2607
▁Tomei	-12.2607
▁intersperse	-12.2607
▁courageous	-12.2607
▁uber	-12.2608
▁inadvertently	-12.2608
▁replacing	-12.2608
▁Wray	-12.2608
▁spotlight	-12.2608
▁booze	-12.2608
▁Katie	-12.2608
▁comparable	-12.2608
▁Dench	-12.2608
▁Patty	-12.2608
▁Odd	-12.2609
▁slit	-12.2609
▁gunshot	-12.2609
▁Phyllis	-12.2609
▁protection	-12.261
▁exploitative	-12.261
▁Paine	-12.261
▁distinction	-12.261
▁suggestive	-12.261
▁interpret	-12.261
▁Barton	-12.261
▁backyard	-12.261
▁mutated	-12.2611
▁psychiatric	-12.2611
▁hopeful	-12.2611
▁Rita	-12.2611
▁Tiny	-12.2611
▁cocky	-12.2612
▁Sullavan	-12.2612
▁Vacation	-12.2612
▁Lamarr	-12.2612
▁overshadowed	-12.2612
▁Tess	-12.2612
▁frontier	-12.2612
▁Hawaii	-12.2613
▁KING	-12.2613
▁fiend	-12.2613
▁hunky	-12.2613
▁Shop	-12.2613
▁Wouldn	-12.2613
▁controlling	-12.2613
spitting	-12.2613
▁batman	-12.2614
▁restrained	-12.2614
▁improvised	-12.2614
▁Kerry	-12.2614
▁Shahid	-12.2615
▁hairdo	-12.2615
PO	-12.2616
▁Lange	-12.2616
▁Gena	-12.2616
▁continuously	-12.2617
▁MacArthur	-12.2617
▁bash	-12.2617
▁Noah	-12.2618
▁Latino	-12.2619
▁Stephanie	-12.2619
▁Trelkovsky	-12.2619
▁Ernest	-12.2619
▁Officer	-12.2619
▁evolved	-12.2619
▁County	-12.262
▁Yep	-12.262
▁magician	-12.262
▁sue	-12.2621
▁Juan	-12.2622
▁conception	-12.2622
▁whacked	-12.2622
▁trendy	-12.2623
▁Reality	-12.2623
▁madman	-12.2624
▁highway	-12.2625
▁raging	-12.2625
▁Ricky	-12.2627
▁bosses	-12.2627
▁nerdy	-12.2628
hat	-12.2628
▁inhabited	-12.263
▁strained	-12.263
▁Stardust	-12.263
▁arriving	-12.2631
▁puzzled	-12.2631
▁Soha	-12.2632
▁butchered	-12.2632
SM	-12.2632
▁Mass	-12.2632
ndy	-12.2632
▁Braveheart	-12.2633
▁NIGHT	-12.2633
▁20-	-12.2634
▁'50	-12.2635
▁relaxed	-12.2638
▁preaching	-12.2639
▁giants	-12.264
▁rewind	-12.2641
▁earns	-12.2642
▁warriors	-12.2644
▁Yo	-12.2645
▁Bing	-12.2645
▁Shock	-12.2645
▁Ker	-12.2646
▁forbid	-12.265
▁Wall	-12.2652
▁Bla	-12.2652
▁reasoning	-12.2653
▁Rosemary	-12.2654
EE	-12.2656
▁Darkness	-12.2656
▁Generally	-12.2657
▁proudly	-12.2663
▁Lau	-12.2664
▁pitched	-12.2665
▁sir	-12.2669
▁crashed	-12.267
▁transitions	-12.2674
ppe	-12.2675
▁stoic	-12.2678
▁inducing	-12.2682
▁surpasse	-12.2682
▁pur	-12.2682
▁insanely	-12.2682
TY	-12.2687
▁Franc	-12.2689
vez	-12.269
▁hir	-12.2692
▁Cast	-12.2693
▁Step	-12.2699
need	-12.2699
▁reruns	-12.2703
EEN	-12.2706
▁protecting	-12.271
▁searched	-12.2713
▁fools	-12.2714
▁hairy	-12.2715
erb	-12.2718
▁prostitutes	-12.2719
▁plants	-12.2723
-17	-12.2724
▁excels	-12.2725
▁Kiss	-12.2729
fla	-12.2734
▁Cru	-12.2734
▁strapp	-12.2739
▁fend	-12.2741
agon	-12.2745
▁Tomb	-12.2746
spoilers	-12.2749
▁shades	-12.2753
chan	-12.2757
monster	-12.2758
▁decor	-12.2758
quin	-12.2758
▁Les	-12.2761
▁Ol	-12.2763
▁organs	-12.2766
own	-12.2766
▁Fra	-12.2767
▁intelligently	-12.2768
shock	-12.2769
train	-12.2781
▁Harp	-12.2782
▁mothers	-12.2783
▁cheat	-12.2784
▁Whit	-12.2788
▁sections	-12.279
▁Pole	-12.2791
▁evolve	-12.2799
▁attributes	-12.2801
▁Falls	-12.2801
▁outer	-12.2802
eli	-12.2805
▁LOOK	-12.2808
▁/>1	-12.2812
▁cyborg	-12.2816
▁stab	-12.2816
ote	-12.2816
▁instinct	-12.2818
▁sailor	-12.2819
▁legends	-12.282
give	-12.2824
ALLY	-12.2824
▁committ	-12.2825
▁keys	-12.2828
▁profits	-12.283
Ch	-12.2834
pen	-12.2837
▁burnt	-12.2837
▁seal	-12.2839
▁recruits	-12.2843
▁10)	-12.2845
▁baddie	-12.2845
▁Stones	-12.285
bli	-12.2861
every	-12.2864
Are	-12.2865
cu	-12.2866
▁27	-12.2868
▁environmental	-12.2872
▁shove	-12.2874
▁wee	-12.2877
▁Janet	-12.2879
▁culminat	-12.2881
bat	-12.2881
▁sessions	-12.2883
▁slips	-12.2887
ava	-12.2887
▁degrees	-12.2889
Set	-12.2892
▁weigh	-12.2897
▁epitom	-12.2908
▁Pal	-12.2913
▁Marg	-12.292
huh	-12.292
-10	-12.2921
▁prejudices	-12.2922
cle	-12.2928
▁Yu	-12.2928
▁idol	-12.2931
aro	-12.2933
▁Twin	-12.2934
▁Byron	-12.2934
▁/>3	-12.2939
met	-12.294
▁Guys	-12.2941
eman	-12.2945
▁biting	-12.2945
father	-12.2946
Super	-12.2947
Friends	-12.2948
dropping	-12.2948
Brian	-12.2948
Earth	-12.2948
heavy	-12.2948
Disney	-12.2948
apparently	-12.2948
Freddy	-12.2948
sometimes	-12.2948
everything	-12.2948
▁ja	-12.2948
▁trans	-12.2948
edited	-12.2951
eu	-12.2958
▁chip	-12.2958
▁10/10.	-12.2961
▁doses	-12.297
▁Sy	-12.2979
▁vent	-12.2979
▁sweep	-12.2983
runs	-12.2987
▁Opera	-12.2988
▁select	-12.299
▁amid	-12.2991
▁locate	-12.2992
▁polite	-12.2994
▁undermine	-12.2994
▁Gil	-12.2994
▁Bri	-12.2995
fisted	-12.2996
▁commend	-12.2996
uction	-12.2999
▁threads	-12.2999
▁pals	-12.2999
▁intellect	-12.3
▁zoo	-12.3002
▁Stein	-12.3004
▁execute	-12.3004
▁nausea	-12.3005
appointed	-12.3006
▁Berkeley	-12.3006
▁Capshaw	-12.3006
▁Dynamite	-12.3006
▁Fleming	-12.3006
▁Gomez	-12.3006
▁Jungle	-12.3006
▁Melinda	-12.3006
▁Merrill	-12.3006
▁Palermo	-12.3006
▁Ruby	-12.3006
▁SHOULD	-12.3006
▁Savini	-12.3006
▁admiration	-12.3006
▁assortment	-12.3006
▁chocolate	-12.3006
▁coherence	-12.3006
▁consummate	-12.3006
▁feminine	-12.3006
▁framing	-12.3006
▁harrowing	-12.3006
▁hypnotic	-12.3006
▁innovation	-12.3006
▁intrusive	-12.3006
▁notwithstanding	-12.3006
▁penalty	-12.3006
▁pistol	-12.3006
▁pretense	-12.3006
▁puzzling	-12.3006
▁reckon	-12.3006
▁remorse	-12.3006
▁repertoire	-12.3006
▁sabotage	-12.3006
▁satisfactory	-12.3006
▁shady	-12.3006
▁vigilante	-12.3006
▁AFTER	-12.3006
▁Earp	-12.3006
▁Fiennes	-12.3006
▁Nurse	-12.3006
▁Poirot	-12.3006
▁allegory	-12.3006
▁astonished	-12.3006
▁Clyde	-12.3006
▁Stiles	-12.3006
▁motif	-12.3006
▁raving	-12.3006
▁skirt	-12.3006
▁voting	-12.3006
▁jolt	-12.3006
▁townspeople	-12.3006
▁Basil	-12.3006
▁overtones	-12.3006
▁wreak	-12.3006
▁Rhys	-12.3006
▁Rookie	-12.3006
▁Bishop	-12.3006
▁Denmark	-12.3006
▁percent	-12.3006
▁technological	-12.3006
▁1948	-12.3006
▁HORRIBLE	-12.3006
▁Shemp	-12.3006
▁Underground	-12.3006
▁Fagin	-12.3006
▁disservice	-12.3006
▁fiery	-12.3006
▁Jaffe	-12.3006
▁Devgan	-12.3006
▁determination	-12.3006
▁housing	-12.3006
▁stirring	-12.3006
▁entries	-12.3006
▁Cause	-12.3006
▁Coburn	-12.3006
▁Hines	-12.3006
▁granddaughter	-12.3006
▁uptight	-12.3006
▁sophomoric	-12.3006
▁Priya	-12.3006
▁bogus	-12.3006
▁Morning	-12.3007
▁breakfast	-12.3007
▁interplay	-12.3007
▁uncredited	-12.3007
▁cement	-12.3007
▁CRAP	-12.3007
▁Thornton	-12.3007
▁unlucky	-12.3007
▁spinning	-12.3007
▁lightweight	-12.3007
▁undeveloped	-12.3007
▁capitalism	-12.3008
▁Sheila	-12.3008
▁canvas	-12.3008
▁dung	-12.3008
▁Hotel	-12.3008
▁distasteful	-12.3008
▁Carson	-12.3008
▁decapitated	-12.3008
▁Eddy	-12.3009
▁virginity	-12.3009
▁Doris	-12.3009
▁Riff	-12.3009
▁Tito	-12.3009
▁oddball	-12.3009
▁elementary	-12.3009
▁temple	-12.301
▁700	-12.301
▁bait	-12.301
▁clunker	-12.301
▁spotted	-12.301
▁Trent	-12.3012
▁scattered	-12.3012
▁Showtime	-12.3012
▁dorm	-12.3012
▁putrid	-12.3012
▁Kramer	-12.3012
▁Pasolini	-12.3012
▁Regina	-12.3012
▁lizard	-12.3012
▁Winger	-12.3012
▁hunk	-12.3013
▁baffled	-12.3014
▁sponsor	-12.3014
▁syndrome	-12.3014
▁amok	-12.3014
▁pivotal	-12.3015
▁retreat	-12.3016
▁Finn	-12.3016
▁effortlessly	-12.3017
proverbial	-12.3017
▁divided	-12.3018
▁lyrical	-12.3018
▁utilize	-12.3019
▁Forrest	-12.3019
▁Shakespearean	-12.3019
▁Thunder	-12.3019
▁Domino	-12.3019
▁Mostel	-12.302
▁lament	-12.3021
▁deepest	-12.3021
Rob	-12.3021
▁Further	-12.3021
▁STORY	-12.3022
▁interrupted	-12.3023
▁icons	-12.3023
▁stumbl	-12.3024
▁NEW	-12.3025
▁shamelessly	-12.3025
▁Tooth	-12.3026
▁'73	-12.3027
▁juice	-12.3029
11	-12.3029
▁adulthood	-12.303
▁ilk	-12.3031
▁transported	-12.3032
▁shadowy	-12.3033
▁progression	-12.3033
▁Main	-12.3034
▁Frenchman	-12.3034
vous	-12.3035
IAN	-12.3036
▁(3	-12.3036
▁destructive	-12.3036
▁confirmed	-12.3038
▁Clarke	-12.3041
▁Visually	-12.3042
personal	-12.3043
▁functions	-12.3048
▁Norma	-12.3048
77	-12.305
▁encouraged	-12.3051
ISH	-12.3051
tory	-12.3052
▁cringed	-12.3056
▁Tar	-12.3057
▁cheering	-12.3057
Alan	-12.3059
tention	-12.3059
▁complained	-12.3062
▁eh	-12.3067
▁allies	-12.3068
▁prayer	-12.3071
!!!)	-12.3076
▁boards	-12.3076
Bend	-12.3077
▁climbing	-12.3079
▁existential	-12.308
▁Ada	-12.3086
▁sleepy	-12.3087
▁prolif	-12.3089
▁Sol	-12.3091
NA	-12.3095
▁curiously	-12.3097
Dir	-12.3098
vie	-12.31
▁Demi	-12.31
▁Monsters	-12.3101
▁Pure	-12.3103
▁deservedly	-12.3103
▁Willy	-12.3105
▁sting	-12.3107
▁Maris	-12.3107
▁wings	-12.3107
▁punish	-12.3108
▁behaves	-12.311
▁Soup	-12.3111
▁sitcoms	-12.3111
▁censors	-12.3112
▁herrings	-12.3112
................	-12.3115
▁Damn	-12.3118
▁8/10.	-12.3119
▁papers	-12.3121
ae	-12.3121
▁Bro	-12.313
Joan	-12.313
gate	-12.3132
Lan	-12.3133
ribal	-12.3135
talk	-12.3135
▁practices	-12.3136
▁peers	-12.3137
iya	-12.3143
▁bearing	-12.3155
▁seed	-12.3156
▁ke	-12.3157
▁outta	-12.316
▁projection	-12.3161
25	-12.3164
▁Gul	-12.3165
▁tack	-12.3166
▁Debo	-12.3171
▁fewer	-12.3174
▁Yorker	-12.3174
seen	-12.3175
▁Ace	-12.3175
thank	-12.3177
▁Lan	-12.3181
▁Elia	-12.3182
▁richly	-12.3185
nar	-12.3186
▁researcher	-12.3188
TS	-12.3188
▁advances	-12.3189
fact	-12.3189
Anne	-12.3192
▁Daria	-12.3196
▁Nic	-12.3196
▁stabs	-12.3199
▁shout	-12.3202
▁sacrifices	-12.3204
gian	-12.3206
▁float	-12.3208
whom	-12.3214
▁notices	-12.3216
▁bomber	-12.3219
▁magazines	-12.3219
fly	-12.322
▁Sig	-12.322
▁packs	-12.3223
iac	-12.3227
stand	-12.3228
▁instrument	-12.3228
▁article	-12.323
complete	-12.3233
oooooo	-12.3235
▁client	-12.3237
▁layer	-12.3239
▁Monkey	-12.3241
▁watered	-12.3242
▁Mag	-12.3247
▁targets	-12.3248
[...]
