<pad>	0
<unk>	0
▁the	-3.35411
,	-3.43308
.	-3.48334
s	-3.56219
▁a	-3.87879
▁and	-3.99237
▁of	-4.05531
▁to	-4.10282
'	-4.1533
▁is	-4.35076
br	-4.35436
▁/>	-4.37547
▁in	-4.52552
▁I	-4.57144
▁it	-4.60859
▁that	-4.75682
t	-4.79151
▁this	-4.83772
<	-4.91943
▁	-4.93511
▁was	-5.07267
▁movie	-5.12852
-	-5.14336
▁for	-5.24749
▁with	-5.27146
▁film	-5.28424
.<	-5.38752
▁as	-5.39556
▁but	-5.45094
▁The	-5.45874
▁on	-5.50381
▁"	-5.53498
▁you	-5.54671
▁(	-5.5811
ing	-5.62009
▁be	-5.62154
▁are	-5.64217
▁not	-5.6438
▁have	-5.65376
ed	-5.72133
"	-5.73945
▁his	-5.76087
▁one	-5.78141
▁he	-5.82865
d	-5.86727
▁all	-5.91862
▁by	-5.95868
)	-5.95998
▁an	-5.96141
▁at	-5.97702
ly	-5.99068
▁like	-5.99635
▁who	-6.02182
▁they	-6.04266
▁so	-6.04793
▁from	-6.05563
▁just	-6.13853
▁out	-6.14821
▁about	-6.15232
▁or	-6.16982
▁her	-6.17822
▁It	-6.18509
y	-6.18897
▁has	-6.21529
▁can	-6.29797
▁good	-6.30495
▁some	-6.3068
m	-6.39263
▁more	-6.39267
?	-6.4081
er	-6.41219
!	-6.41651
▁very	-6.44349
▁would	-6.44434
▁This	-6.44929
▁time	-6.45088
▁up	-6.46234
▁there	-6.47016
▁what	-6.47368
▁me	-6.50326
▁no	-6.51713
▁really	-6.52979
▁see	-6.54341
▁only	-6.55016
e	-6.55322
▁even	-6.55394
▁when	-6.55446
▁if	-6.55966
▁had	-6.56067
The	-6.56502
▁story	-6.566
▁were	-6.58425
▁she	-6.59681
▁my	-6.63726
▁their	-6.65486
▁bad	-6.65626
re	-6.66398
▁which	-6.67621
...	-6.69118
I	-6.69637
▁than	-6.71604
▁do	-6.72917
▁much	-6.73751
▁get	-6.74575
▁-	-6.74691
▁been	-6.76616
:	-6.77194
▁people	-6.79502
a	-6.81903
▁other	-6.83395
▁A	-6.83683
▁because	-6.83947
▁we	-6.84109
▁into	-6.84143
▁made	-6.85773
▁make	-6.85948
▁will	-6.86132
▁could	-6.88316
ve	-6.88646
▁well	-6.88745
▁great	-6.91089
▁him	-6.9205
▁first	-6.92101
▁don	-6.92598
▁way	-6.92638
▁any	-6.94794
▁think	-6.96194
▁most	-6.96519
▁too	-6.9753
▁how	-6.98192
n	-6.99291
▁them	-7.01115
▁plot	-7.01315
or	-7.0304
▁over	-7.03567
▁character	-7.04605
▁also	-7.05708
▁acting	-7.05978
in	-7.06233
▁watch	-7.06751
r	-7.07534
▁seen	-7.08416
▁characters	-7.08707
▁movies	-7.1208
▁then	-7.1327
▁'	-7.13532
▁But	-7.13675
▁know	-7.14897
▁show	-7.15063
c	-7.15432
▁being	-7.16614
▁did	-7.17196
▁And	-7.17638
▁i	-7.17655
;	-7.18406
▁many	-7.19227
▁never	-7.19338
▁two	-7.19727
S	-7.20235
▁ever	-7.20476
▁better	-7.20701
▁off	-7.20989
▁after	-7.21835
▁end	-7.22352
▁love	-7.22494
▁little	-7.22808
▁He	-7.22903
▁your	-7.2324
▁where	-7.2337
ll	-7.24047
▁life	-7.24066
o	-7.27125
▁say	-7.27193
▁does	-7.27478
es	-7.28639
▁best	-7.28952
g	-7.29249
▁<	-7.29768
▁films	-7.30454
al	-7.30711
▁should	-7.31737
▁In	-7.31768
).	-7.31809
▁go	-7.32081
▁There	-7.32522
▁scene	-7.33079
▁here	-7.36969
▁back	-7.37282
▁S	-7.38739
▁scenes	-7.39373
▁something	-7.39601
l	-7.40381
▁through	-7.40537
A	-7.40706
▁thing	-7.41041
▁man	-7.41944
▁such	-7.42337
▁still	-7.42697
),	-7.43114
▁its	-7.43352
▁watching	-7.44614
▁doesn	-7.46538
▁didn	-7.46736
/	-7.46815
p	-7.46831
▁actors	-7.47907
▁If	-7.48423
b	-7.48473
▁real	-7.48847
▁these	-7.48944
▁funny	-7.49736
▁work	-7.52016
▁those	-7.53113
i	-7.53142
and	-7.56285
▁few	-7.57366
▁look	-7.57888
▁years	-7.57946
▁part	-7.58049
▁old	-7.58491
▁going	-7.58495
▁find	-7.58557
▁actually	-7.58803
▁B	-7.58975
▁nothing	-7.59786
▁why	-7.60382
▁same	-7.60833
▁director	-7.60974
▁want	-7.61411
▁lot	-7.61421
▁re	-7.63207
▁cast	-7.63395
on	-7.63934
▁before	-7.64111
▁down	-7.66148
▁though	-7.66193
▁fact	-7.66262
an	-7.66423
it	-7.67566
▁makes	-7.6767
the	-7.67784
▁script	-7.68393
le	-7.68497
▁thought	-7.68933
▁pretty	-7.69684
▁another	-7.70279
▁got	-7.70466
▁while	-7.70868
el	-7.72181
▁again	-7.72321
ic	-7.7296
▁seems	-7.73111
▁every	-7.73144
▁enough	-7.73301
▁original	-7.74225
u	-7.75146
▁around	-7.75242
th	-7.75749
▁un	-7.75779
▁quite	-7.75925
▁give	-7.76298
▁C	-7.76448
▁long	-7.76617
▁point	-7.78741
▁action	-7.79146
▁least	-7.79482
en	-7.8118
▁take	-7.81273
▁horror	-7.81624
▁minutes	-7.82248
▁whole	-7.82338
▁things	-7.8237
▁right	-7.82815
▁bit	-7.82822
▁own	-7.83501
▁new	-7.83725
▁young	-7.83979
▁interesting	-7.83998
▁role	-7.84071
▁saw	-7.84401
▁far	-7.84652
▁world	-7.84915
▁worst	-7.84929
▁&	-7.84997
D	-7.85376
▁come	-7.85984
man	-7.86084
▁isn	-7.86138
▁guy	-7.86223
▁must	-7.8701
▁anything	-7.87151
▁now	-7.87176
▁between	-7.87241
▁F	-7.87593
▁kind	-7.88441
▁She	-7.887
▁may	-7.88992
▁might	-7.89008
▁done	-7.89241
▁big	-7.89569
T	-7.89703
ri	-7.89957
▁comedy	-7.90215
as	-7.90309
▁without	-7.90625
f	-7.90747
▁us	-7.92051
▁am	-7.9221
▁always	-7.92363
▁almost	-7.92553
▁feel	-7.92867
ra	-7.9318
▁series	-7.93245
▁You	-7.93944
▁gets	-7.93961
▁They	-7.94248
w	-7.95231
▁So	-7.95717
▁believe	-7.96057
▁hard	-7.97855
h	-7.9786
▁last	-7.97926
▁P	-7.98699
ers	-7.98721
▁music	-7.99008
▁family	-7.99044
▁girl	-7.99106
▁performance	-7.99156
C	-7.99219
▁T	-7.99358
P	-8.00804
▁both	-8.01
▁found	-8.01043
▁times	-8.01062
▁What	-8.01224
▁2	-8.01268
k	-8.01285
▁probably	-8.01774
▁fun	-8.01779
▁W	-8.01821
▁As	-8.01876
▁making	-8.02253
This	-8.02394
able	-8.02487
--	-8.02752
▁reason	-8.0286
▁TV	-8.03457
is	-8.03672
▁woman	-8.03675
▁since	-8.04122
ness	-8.04794
▁away	-8.05037
▁rather	-8.05517
▁money	-8.05952
▁D	-8.06026
▁trying	-8.06481
ar	-8.06559
▁anyone	-8.08202
il	-8.08513
est	-8.08566
ne	-8.08632
▁wasn	-8.08694
B	-8.09014
ion	-8.09023
▁That	-8.09261
▁actor	-8.09654
▁put	-8.09857
ie	-8.10104
▁set	-8.10588
▁sense	-8.10596
▁DVD	-8.12478
▁ending	-8.1253
G	-8.13012
(	-8.13017
▁screen	-8.1306
▁place	-8.13594
▁play	-8.13671
▁book	-8.14227
▁looks	-8.1467
ter	-8.14757
▁watched	-8.1499
▁sure	-8.1513
▁We	-8.15161
▁goes	-8.15205
▁course	-8.15756
ro	-8.15762
▁day	-8.15974
ity	-8.16371
▁seem	-8.164
▁G	-8.1643
▁job	-8.16961
ent	-8.1699
▁E	-8.17027
▁comes	-8.17054
▁main	-8.17342
E	-8.1791
▁someone	-8.17928
▁effects	-8.18309
▁worth	-8.18976
▁version	-8.19088
▁idea	-8.19945
▁audience	-8.20178
▁played	-8.20222
▁R	-8.20597
It	-8.2062
▁said	-8.20732
lo	-8.20876
▁special	-8.20894
at	-8.209
ur	-8.20903
▁mind	-8.21161
▁each	-8.21177
▁de	-8.21295
la	-8.21633
et	-8.21879
▁yet	-8.21934
▁read	-8.21959
▁half	-8.22012
▁looking	-8.22073
▁our	-8.2208
▁short	-8.22444
▁different	-8.22537
ment	-8.23019
O	-8.23396
▁having	-8.23442
un	-8.23513
▁To	-8.24157
R	-8.24331
▁10	-8.24615
▁fan	-8.24652
",	-8.25316
▁else	-8.25366
up	-8.25453
▁When	-8.25743
ul	-8.25998
▁boring	-8.2603
to	-8.26275
ist	-8.26469
▁No	-8.26473
▁awful	-8.26609
▁poor	-8.26736
▁rest	-8.26955
▁together	-8.2698
▁left	-8.27366
▁Not	-8.27404
▁stupid	-8.27417
ate	-8.27575
▁plays	-8.28314
ation	-8.28324
ive	-8.28364
▁shot	-8.28696
▁year	-8.28755
F	-8.28782
▁three	-8.28994
ce	-8.29029
▁mean	-8.29947
▁high	-8.30153
▁For	-8.3055
▁shows	-8.31153
ch	-8.31323
▁completely	-8.3135
▁f	-8.32298
▁waste	-8.32407
▁seeing	-8.32421
ty	-8.32489
▁true	-8.32503
▁himself	-8.32549
▁wife	-8.32782
▁camera	-8.33069
".	-8.33288
z	-8.33641
▁John	-8.3368
▁low	-8.33904
▁simply	-8.3397
▁especially	-8.34006
▁father	-8.34367
us	-8.34405
▁start	-8.34864
ir	-8.35209
▁need	-8.35244
▁help	-8.3528
▁takes	-8.35298
▁line	-8.35627
▁American	-8.35895
▁co	-8.36077
▁3	-8.36087
▁wrong	-8.3615
K	-8.36383
▁everything	-8.36387
▁either	-8.36681
▁under	-8.36765
▁classic	-8.36946
▁terrible	-8.37183
▁let	-8.37304
▁during	-8.37335
▁production	-8.37521
▁home	-8.37911
H	-8.37957
less	-8.37967
▁death	-8.38467
▁H	-8.38841
▁couple	-8.38913
▁used	-8.38977
▁less	-8.38986
▁enjoy	-8.39217
▁everyone	-8.39241
▁head	-8.39272
▁nice	-8.39446
▁try	-8.39739
▁beautiful	-8.39959
am	-8.39998
▁tell	-8.40005
se	-8.40297
▁De	-8.40469
▁understand	-8.40494
▁Hollywood	-8.40921
▁once	-8.41039
N	-8.41367
▁sex	-8.41545
▁video	-8.41557
▁later	-8.41574
▁use	-8.41893
▁person	-8.42425
▁dialogue	-8.42993
M	-8.43123
▁instead	-8.43229
▁star	-8.43481
▁All	-8.43622
▁However	-8.44211
▁second	-8.44331
▁given	-8.44673
▁recommend	-8.44688
li	-8.44772
▁supposed	-8.44875
▁One	-8.44878
▁won	-8.45062
ine	-8.45136
ling	-8.45253
W	-8.4552
▁1	-8.45577
me	-8.45742
▁title	-8.45782
no	-8.45784
▁K	-8.45862
ting	-8.45988
▁O	-8.46249
▁excellent	-8.46266
▁name	-8.46853
▁kids	-8.46946
im	-8.47171
▁budget	-8.47489
▁house	-8.47495
ma	-8.47569
▁My	-8.47677
▁case	-8.48023
▁night	-8.48112
▁worse	-8.48153
▁remember	-8.48411
ian	-8.48903
▁b	-8.49529
▁couldn	-8.49534
▁piece	-8.49938
▁women	-8.50076
▁war	-8.50195
um	-8.50274
▁sort	-8.50342
▁school	-8.50381
▁doing	-8.50512
▁car	-8.50519
co	-8.50757
ol	-8.5076
▁--	-8.50778
▁small	-8.50839
▁black	-8.51524
▁episode	-8.51622
▁M	-8.51758
ant	-8.51801
▁getting	-8.52181
▁truly	-8.52296
▁came	-8.52531
▁keep	-8.52886
▁At	-8.53042
▁friends	-8.53366
▁lines	-8.53573
▁until	-8.53742
▁laugh	-8.54204
▁men	-8.54482
▁performances	-8.54519
▁full	-8.54732
▁moments	-8.54736
▁along	-8.54969
▁entire	-8.5538
▁care	-8.55489
U	-8.55548
▁face	-8.55582
na	-8.55679
."	-8.55727
son	-8.55806
sh	-8.56071
ton	-8.56277
▁felt	-8.56348
▁problem	-8.56417
id	-8.56671
be	-8.57719
▁absolutely	-8.57942
▁itself	-8.5797
▁Well	-8.58179
ry	-8.58555
▁stars	-8.58576
▁Even	-8.58687
▁went	-8.58852
▁top	-8.58885
L	-8.59011
te	-8.59075
▁playing	-8.59095
ia	-8.59097
▁guess	-8.59554
▁st	-8.59616
▁direction	-8.5965
▁maybe	-8.5973
▁L	-8.59858
ish	-8.60052
▁example	-8.60383
▁Ma	-8.60549
▁next	-8.6057
▁style	-8.60774
▁however	-8.61576
▁seemed	-8.6165
▁close	-8.6175
de	-8.62181
▁mother	-8.62423
▁live	-8.62724
he	-8.62926
▁human	-8.63182
▁early	-8.63752
In	-8.63767
▁written	-8.6401
▁flick	-8.64435
▁drama	-8.64525
▁THE	-8.64641
ful	-8.64704
▁killer	-8.64843
▁liked	-8.64874
one	-8.65116
▁Mr	-8.65425
▁beginning	-8.65475
▁entertaining	-8.65633
ad	-8.6574
▁hope	-8.65925
▁hand	-8.66179
3	-8.66267
▁picture	-8.66536
ni	-8.6663
▁children	-8.66664
▁writing	-8.66996
▁horrible	-8.67158
▁side	-8.67245
▁become	-8.67278
ard	-8.67421
▁sound	-8.67518
▁often	-8.67836
dy	-8.682
▁lead	-8.68477
▁wanted	-8.69013
▁humor	-8.69275
▁heart	-8.69335
▁turn	-8.69367
▁After	-8.69604
out	-8.69686
ies	-8.69892
▁Re	-8.70005
▁friend	-8.70133
▁boy	-8.70145
▁cinema	-8.70727
▁against	-8.70789
▁Don	-8.70807
ig	-8.70982
▁wonderful	-8.71012
▁past	-8.71061
▁quality	-8.71379
▁already	-8.71456
▁expect	-8.71602
▁gives	-8.71943
▁g	-8.7212
V	-8.72234
▁act	-8.72275
▁perfect	-8.72483
▁totally	-8.72539
▁tries	-8.72726
▁crap	-8.72952
em	-8.73081
▁voice	-8.73174
▁slow	-8.73199
ally	-8.7323
▁dead	-8.73963
▁son	-8.73989
▁light	-8.74447
ha	-8.74965
▁several	-8.75292
ous	-8.75543
ge	-8.75854
1	-8.76145
▁gave	-8.76165
ism	-8.76371
fi	-8.76412
▁certainly	-8.76413
▁fine	-8.76524
▁New	-8.76615
▁definitely	-8.76624
▁Why	-8.76746
v	-8.77019
▁decent	-8.77165
▁becomes	-8.77168
▁kid	-8.77456
▁Man	-8.77552
Y	-8.77588
▁called	-8.77635
▁although	-8.77637
▁matter	-8.77711
▁stuff	-8.77829
▁art	-8.78119
▁favorite	-8.78159
pe	-8.78362
▁run	-8.78378
▁His	-8.78634
▁myself	-8.79182
▁p	-8.79291
▁viewer	-8.79547
▁lost	-8.79973
▁daughter	-8.80009
▁dis	-8.80388
▁lack	-8.80423
▁etc	-8.80488
do	-8.80567
x	-8.80747
go	-8.80759
▁child	-8.80796
▁late	-8.80868
▁Do	-8.80929
▁wonder	-8.80986
▁4	-8.81094
like	-8.811
▁loved	-8.81222
▁annoying	-8.8136
▁guys	-8.81463
▁How	-8.81612
ted	-8.8191
age	-8.81979
▁fans	-8.82154
▁based	-8.82367
but	-8.82541
▁others	-8.8277
▁experience	-8.82955
There	-8.82999
▁5	-8.8308
▁genre	-8.83084
If	-8.83141
▁dark	-8.83287
▁hour	-8.8331
▁lives	-8.83371
vi	-8.83435
▁attempt	-8.83595
▁thinking	-8.83782
▁evil	-8.83858
ster	-8.83888
ck	-8.83955
▁self	-8.83969
▁throughout	-8.8398
▁cheap	-8.84742
▁history	-8.84862
▁finally	-8.84971
▁behind	-8.8534
▁enjoyed	-8.85377
▁kill	-8.85958
▁novel	-8.8607
▁type	-8.86117
▁actress	-8.86121
ated	-8.86328
▁game	-8.86393
▁complete	-8.86464
▁Some	-8.86536
▁feeling	-8.86703
▁Also	-8.86724
▁starts	-8.86807
▁With	-8.86814
!!	-8.87213
4	-8.87272
5	-8.87316
▁interest	-8.874
▁moment	-8.87683
▁able	-8.87864
▁An	-8.8797
▁Then	-8.88081
hi	-8.88179
▁involved	-8.88183
▁chance	-8.88274
mo	-8.88356
▁wish	-8.88356
▁ridiculous	-8.88759
▁killed	-8.88848
▁white	-8.88955
▁themselves	-8.89011
▁town	-8.89341
▁career	-8.89399
▁wouldn	-8.89619
▁Le	-8.89717
▁looked	-8.89722
▁U	-8.89744
▁age	-8.89947
▁stop	-8.9002
▁heard	-8.90084
▁level	-8.90391
▁save	-8.904
▁group	-8.90519
▁Robert	-8.90597
▁cannot	-8.90665
▁directed	-8.90906
▁works	-8.91364
▁wants	-8.91365
ance	-8.91376
▁Michael	-8.91378
per	-8.91384
▁days	-8.91394
!<	-8.91927
▁obvious	-8.92209
▁sad	-8.92264
▁happen	-8.92812
▁La	-8.93026
▁blood	-8.9332
▁final	-8.93417
▁ago	-8.93456
▁happens	-8.93569
▁bring	-8.93794
▁St	-8.93857
▁Of	-8.93892
▁parts	-8.93913
▁happened	-8.93929
▁con	-8.9401
▁fight	-8.94038
▁turns	-8.94057
▁took	-8.94224
▁ex	-8.94244
tic	-8.94323
2	-8.94921
▁hit	-8.95011
▁view	-8.9504
▁amazing	-8.9506
ta	-8.95382
▁dialog	-8.95436
▁e	-8.95564
▁girls	-8.9564
▁While	-8.95741
▁writer	-8.95771
▁Ha	-8.9594
▁opinion	-8.95977
▁!	-8.96113
▁Just	-8.96185
▁cut	-8.96215
▁stories	-8.96244
▁score	-8.96386
▁Co	-8.96421
▁today	-8.96444
▁husband	-8.96667
min	-8.9671
▁murder	-8.97055
▁eyes	-8.97056
▁jokes	-8.97398
▁mention	-8.97417
▁musical	-8.97756
▁extremely	-8.97811
▁Be	-8.98188
▁non	-8.9819
om	-8.98192
▁Ho	-8.98284
▁obviously	-8.98403
ey	-8.98479
▁yourself	-8.98557
▁order	-8.98865
ru	-8.98981
time	-8.9906
▁female	-8.99098
▁local	-8.99099
ver	-8.99169
And	-8.99251
▁disappointed	-8.99281
But	-8.99308
▁soon	-8.99412
ever	-8.99446
▁perhaps	-8.99561
va	-8.99595
ke	-8.99667
ick	-8.9972
▁leave	-8.99747
▁c	-9.00006
▁dull	-9.00373
▁Bo	-9.00391
▁roles	-9.00402
ber	-9.00577
▁talent	-9.00715
for	-9.00796
▁call	-9.00809
▁mess	-9.00833
▁hours	-9.01041
*	-9.01159
▁brilliant	-9.01501
▁started	-9.01569
▁ten	-9.0163
ure	-9.01652
▁serious	-9.01978
ley	-9.02296
▁review	-9.02447
▁hilarious	-9.02462
▁predictable	-9.02612
▁clich	-9.02743
▁single	-9.02925
ow	-9.03374
ut	-9.03407
ner	-9.03426
▁Now	-9.03571
▁told	-9.0359
▁gore	-9.03767
▁brother	-9.03831
▁police	-9.03858
▁simple	-9.04042
▁coming	-9.04354
mon	-9.04398
ary	-9.04443
▁possible	-9.04478
▁saying	-9.04565
▁rating	-9.04589
▁body	-9.0461
lu	-9.04643
▁running	-9.04781
▁word	-9.048
▁OK	-9.04941
▁pro	-9.0499
▁lame	-9.05043
▁silly	-9.05061
!"	-9.05337
▁strong	-9.05529
▁violence	-9.05648
▁Dr	-9.05675
ti	-9.05693
▁Mar	-9.0572
if	-9.058
we	-9.05803
!!!	-9.05923
▁except	-9.06027
▁hate	-9.06031
▁Me	-9.06051
▁N	-9.06109
▁cinematography	-9.06238
ect	-9.06298
▁taken	-9.06407
▁huge	-9.0654
op	-9.06634
▁shown	-9.07002
▁cool	-9.0708
▁Al	-9.07107
▁David	-9.07531
▁J	-9.07875
▁English	-9.07882
mi	-9.07959
▁number	-9.08601
nd	-9.08622
▁comic	-9.08733
▁similar	-9.08782
▁subject	-9.08787
▁change	-9.08924
ap	-9.0894
▁Go	-9.09042
ph	-9.09126
by	-9.09302
▁stay	-9.09334
▁talking	-9.0944
▁highly	-9.09643
▁particularly	-9.09647
!)	-9.0965
▁weak	-9.09734
ach	-9.09775
▁usual	-9.09778
▁figure	-9.09793
so	-9.09854
▁knew	-9.09857
▁alone	-9.09861
who	-9.09905
▁sequel	-9.09963
▁across	-9.10031
▁shots	-9.10042
ring	-9.10082
bo	-9.10096
▁seriously	-9.10127
ating	-9.10156
▁released	-9.10265
▁stand	-9.10276
▁effort	-9.10278
▁song	-9.10341
po	-9.10453
▁known	-9.10466
▁usually	-9.10569
▁sub	-9.10638
▁Her	-9.10898
8	-9.10956
▁turned	-9.10964
▁somewhat	-9.11014
▁message	-9.11133
▁bunch	-9.11251
▁class	-9.11382
▁attention	-9.11438
▁James	-9.11481
▁due	-9.1164
▁opening	-9.11676
▁scary	-9.11772
ving	-9.11838
▁Paul	-9.11854
▁exactly	-9.11925
▁Or	-9.12084
▁hell	-9.1225
▁Richard	-9.12264
which	-9.1241
▁strange	-9.12517
▁sometimes	-9.12664
▁20	-9.12804
▁middle	-9.12816
▁talk	-9.12881
line	-9.12888
che	-9.13102
▁sister	-9.13133
▁comment	-9.13175
▁songs	-9.13183
▁aren	-9.13546
▁sit	-9.13644
ba	-9.13784
ee	-9.13793
▁major	-9.139
▁doubt	-9.13929
not	-9.14047
▁hero	-9.14056
▁storyline	-9.14073
▁near	-9.14312
ial	-9.145
▁British	-9.14733
▁reality	-9.14882
▁Oscar	-9.14893
▁fast	-9.15053
▁War	-9.15146
▁says	-9.15257
ho	-9.15302
▁poorly	-9.15336
ence	-9.15506
os	-9.15516
▁room	-9.1565
▁killing	-9.15864
▁television	-9.15866
▁First	-9.15926
?)	-9.16066
▁episodes	-9.16165
▁team	-9.16384
▁God	-9.16438
▁whose	-9.16467
▁dumb	-9.1652
▁actual	-9.16772
▁sh	-9.16873
mer	-9.17085
▁George	-9.17089
▁pre	-9.17156
▁material	-9.17344
▁Ben	-9.17697
▁remind	-9.17831
▁thriller	-9.17846
ex	-9.18071
▁write	-9.18081
▁despite	-9.1821
▁pay	-9.18231
▁documentary	-9.18391
▁straight	-9.18675
▁taking	-9.1868
6	-9.18684
▁di	-9.18739
▁entertainment	-9.18875
▁relationship	-9.18885
old	-9.1903
▁box	-9.1928
▁premise	-9.19349
▁giving	-9.19349
▁clearly	-9.19421
▁realize	-9.19442
of	-9.19485
▁easily	-9.19518
▁V	-9.19579
▁important	-9.19651
▁none	-9.19755
")	-9.20037
▁Lo	-9.20219
▁Oh	-9.2038
▁present	-9.2041
▁falls	-9.20483
So	-9.20564
▁problems	-9.20588
▁Ra	-9.20603
▁Peter	-9.20641
▁release	-9.20656
▁tale	-9.20736
▁King	-9.2079
▁hear	-9.20907
▁future	-9.21051
▁On	-9.21238
▁break	-9.21289
oo	-9.21591
▁appears	-9.21666
da	-9.21669
▁respect	-9.21673
▁country	-9.21741
▁modern	-9.21806
all	-9.21846
▁wait	-9.21853
▁decided	-9.2191
▁tried	-9.22086
7	-9.22097
▁mostly	-9.22213
▁crime	-9.2226
▁kept	-9.2226
der	-9.22274
▁form	-9.22324
▁follow	-9.22412
What	-9.22761
▁admit	-9.22783
▁clear	-9.22882
▁editing	-9.23005
ven	-9.23073
▁agree	-9.23135
▁v	-9.23136
▁buy	-9.23298
▁sequence	-9.23299
▁eye	-9.23355
▁four	-9.23467
▁7	-9.23471
▁weird	-9.23487
com	-9.23532
▁Lee	-9.23612
▁events	-9.2365
▁living	-9.23664
▁result	-9.23664
cy	-9.24017
▁surprised	-9.24067
ier	-9.24114
▁cover	-9.24258
▁Maybe	-9.24333
▁romantic	-9.24575
ably	-9.24595
▁add	-9.24646
▁feature	-9.24687
les	-9.24741
ized	-9.24857
▁haven	-9.24893
▁Disney	-9.25111
▁ends	-9.25191
▁Unfortunately	-9.25383
▁happy	-9.25487
▁supporting	-9.25516
▁words	-9.25676
▁Tom	-9.25676
▁needs	-9.25731
cu	-9.25768
▁among	-9.25811
off	-9.25815
▁fall	-9.25816
▁including	-9.25987
▁free	-9.26083
▁viewing	-9.26108
▁York	-9.26158
▁setting	-9.26235
▁Li	-9.26266
▁stage	-9.26361
▁deal	-9.26363
▁joke	-9.2642
▁imagine	-9.26701
▁period	-9.26701
ler	-9.26758
au	-9.2686
▁beyond	-9.26883
▁question	-9.26952
ron	-9.26971
▁Jack	-9.27115
▁five	-9.27132
▁cop	-9.27218
▁r	-9.27321
▁enjoyable	-9.27326
▁potential	-9.2743
▁comments	-9.27558
▁theater	-9.27771
▁power	-9.27948
io	-9.28163
▁average	-9.28194
▁reviews	-9.28306
▁above	-9.28352
pi	-9.28513
land	-9.28614
▁nor	-9.28624
▁...	-9.2878
▁ch	-9.28853
▁hold	-9.28879
▁badly	-9.29032
▁Although	-9.2907
▁NOT	-9.29161
▁rent	-9.29584
lan	-9.29597
ag	-9.29678
▁check	-9.29723
▁dance	-9.29898
▁soundtrack	-9.30213
▁nearly	-9.30319
▁basically	-9.30601
▁animation	-9.3078
?"	-9.31009
rs	-9.31219
▁difficult	-9.31331
▁hair	-9.31449
▁sets	-9.31608
▁anyway	-9.32017
ped	-9.32067
▁Na	-9.32089
▁working	-9.32189
lin	-9.3224
ak	-9.32369
▁move	-9.32394
▁points	-9.32403
▁air	-9.32621
▁typical	-9.32696
▁spend	-9.32718
▁(19	-9.32804
▁bar	-9.32823
▁herself	-9.3292
side	-9.3297
▁America	-9.33006
▁Who	-9.33047
ud	-9.33065
ning	-9.33118
way	-9.33145
▁overall	-9.33371
led	-9.33603
▁ma	-9.33698
▁minute	-9.33905
▁Mo	-9.33934
▁elements	-9.34233
▁mo	-9.34398
▁expected	-9.34463
ER	-9.34517
ran	-9.34523
con	-9.3465
▁*	-9.34886
▁upon	-9.35117
▁certain	-9.35177
▁forward	-9.35177
As	-9.35184
▁fantastic	-9.35229
▁die	-9.35267
▁tells	-9.35395
▁finds	-9.35592
▁Ba	-9.35666
j	-9.35687
▁begin	-9.357
▁learn	-9.35907
▁Most	-9.35971
di	-9.36333
....	-9.36393
ious	-9.36398
▁Star	-9.36414
▁famous	-9.36423
▁win	-9.36425
▁flat	-9.36425
9	-9.3651
▁using	-9.36563
▁Con	-9.3658
▁feels	-9.36604
▁en	-9.36727
▁30	-9.36774
▁background	-9.36824
▁possibly	-9.36858
▁season	-9.3704
ac	-9.37053
▁named	-9.37119
▁pick	-9.37168
▁easy	-9.37227
▁forget	-9.3729
▁Like	-9.37368
▁apparently	-9.37372
▁particular	-9.37381
▁choice	-9.37429
▁remake	-9.37439
▁development	-9.37444
▁fails	-9.37615
▁front	-9.37728
well	-9.38033
▁suggest	-9.38175
▁truth	-9.38241
▁screenplay	-9.38255
ator	-9.3826
▁wasted	-9.38327
▁showing	-9.38335
▁male	-9.38531
▁per	-9.38539
tal	-9.38678
▁brain	-9.38686
▁credits	-9.38696
▁villain	-9.387
▁odd	-9.39016
▁hot	-9.39063
▁realistic	-9.39116
▁Yes	-9.39153
▁mystery	-9.39266
▁open	-9.39268
▁sequences	-9.39277
tion	-9.393
▁suspense	-9.39454
▁plain	-9.39741
▁within	-9.39744
▁moving	-9.39764
▁city	-9.3993
▁8	-9.40005
▁dream	-9.40029
▁Pa	-9.40063
ug	-9.40073
▁Sam	-9.40083
▁positive	-9.40093
▁parents	-9.40119
▁please	-9.40284
▁footage	-9.40515
mm	-9.40534
▁la	-9.40656
▁IMDb	-9.40718
ab	-9.40773
▁needed	-9.40817
▁list	-9.40873
▁Christmas	-9.40954
ide	-9.41018
▁project	-9.41137
▁whether	-9.41138
▁battle	-9.41213
▁Ro	-9.41236
ah	-9.41252
▁became	-9.41347
▁believable	-9.41375
▁Sa	-9.41591
My	-9.41618
ca	-9.41643
▁Th	-9.41716
▁means	-9.41731
▁viewers	-9.41798
▁brough	-9.42115
▁sexual	-9.42235
red	-9.42358
▁theme	-9.42429
▁shame	-9.42549
▁forced	-9.42593
gu	-9.42648
▁begins	-9.4266
kin	-9.42684
▁avoid	-9.42905
▁gun	-9.42943
▁cheesy	-9.43044
▁third	-9.43258
▁copy	-9.43282
▁knows	-9.43381
▁somehow	-9.43388
ga	-9.43504
ger	-9.43911
▁stick	-9.44047
▁surprise	-9.44078
▁previous	-9.44085
▁French	-9.44119
▁dog	-9.44127
▁directing	-9.44159
RE	-9.44177
▁ask	-9.44216
▁cat	-9.44261
▁public	-9.44336
istic	-9.4448
▁w	-9.44517
▁success	-9.4453
▁Japanese	-9.44576
▁total	-9.44604
▁girlfriend	-9.44621
▁Jo	-9.44652
end	-9.44655
over	-9.44705
▁superb	-9.44709
▁leads	-9.4471
▁pointless	-9.44892
▁laughs	-9.44981
▁reading	-9.45135
▁romance	-9.45206
▁situation	-9.45229
▁secret	-9.45242
▁Ca	-9.45478
▁rock	-9.45533
▁dramatic	-9.45552
▁Vi	-9.45613
qu	-9.45639
ping	-9.4565
▁effect	-9.45653
wa	-9.45749
movie	-9.46025
▁incredibly	-9.46084
▁nudity	-9.46084
▁Po	-9.46122
▁concept	-9.46308
▁Mc	-9.46309
▁camp	-9.46333
my	-9.46389
▁twist	-9.46571
▁post	-9.46573
▁interested	-9.46673
▁gay	-9.46766
▁gone	-9.46771
▁casting	-9.46789
ff	-9.46843
pp	-9.46919
▁Good	-9.47344
▁convincing	-9.4764
▁writers	-9.47692
▁worked	-9.477
▁appear	-9.47707
ise	-9.47812
▁expecting	-9.47965
▁super	-9.47998
▁d	-9.48002
pa	-9.4803
▁greatest	-9.48041
▁earlier	-9.48089
▁rate	-9.481
▁older	-9.48271
our	-9.48301
▁bored	-9.48416
▁adult	-9.48444
▁store	-9.48647
▁shoot	-9.48677
▁atmosphere	-9.48766
▁From	-9.48769
▁speak	-9.48831
ear	-9.4899
gen	-9.49063
ile	-9.49218
ue	-9.49488
▁19	-9.49556
ble	-9.49947
tro	-9.49997
▁quickly	-9.50054
▁clever	-9.50134
▁water	-9.50151
▁Indian	-9.50217
ell	-9.50243
▁miss	-9.50282
ip	-9.50293
ay	-9.50318
▁general	-9.50344
▁sorry	-9.50389
ang	-9.50409
▁Frank	-9.50456
▁credit	-9.5057
▁masterpiece	-9.50596
00	-9.50619
▁space	-9.50621
▁Film	-9.50658
▁note	-9.50704
▁cr	-9.50905
OR	-9.51018
▁By	-9.51039
▁nature	-9.51057
▁era	-9.51145
▁meant	-9.51215
▁Watch	-9.51272
▁Joe	-9.51276
act	-9.51404
ten	-9.51543
low	-9.51589
▁These	-9.51633
▁sc	-9.51696
▁Scott	-9.51781
ny	-9.51799
▁leaves	-9.52059
▁consider	-9.52196
▁German	-9.52254
▁m	-9.52315
ical	-9.52318
work	-9.52537
▁Ar	-9.52553
You	-9.52613
▁features	-9.5268
▁cute	-9.52852
▁meet	-9.52886
▁answer	-9.52929
▁value	-9.52943
with	-9.52992
▁spent	-9.53188
▁trash	-9.53198
▁sick	-9.53198
tra	-9.53245
▁create	-9.53385
men	-9.53469
▁keeps	-9.53496
▁rich	-9.53572
ward	-9.53641
▁deep	-9.53703
▁9	-9.53722
▁missing	-9.53787
▁fairly	-9.53826
▁amount	-9.53942
▁ho	-9.54008
▁business	-9.54079
▁memorable	-9.54116
▁mis	-9.54266
▁spot	-9.54361
▁land	-9.54402
▁Di	-9.54494
ice	-9.54578
▁cartoon	-9.5464
▁hardly	-9.54833
▁doctor	-9.54835
▁pathetic	-9.55135
▁studio	-9.55318
▁color	-9.55331
To	-9.55475
▁fire	-9.55516
▁filmed	-9.55548
▁US	-9.55651
▁match	-9.56054
▁unique	-9.56057
▁step	-9.56134
ress	-9.56202
▁appearance	-9.56304
▁Da	-9.56443
vo	-9.56493
▁wrote	-9.56592
▁talented	-9.56614
▁6	-9.56867
▁garbage	-9.57025
▁laughing	-9.57051
▁attack	-9.57193
▁Bill	-9.57242
▁acted	-9.57253
▁anti	-9.57432
ize	-9.57509
▁fear	-9.57562
▁control	-9.57582
▁Ta	-9.57719
▁deserves	-9.57773
ub	-9.57867
▁fighting	-9.57954
All	-9.58013
▁monster	-9.58182
▁purpose	-9.58264
▁track	-9.58271
▁creepy	-9.58325
▁crazy	-9.58512
▁emotional	-9.58559
▁social	-9.58604
▁hands	-9.58621
▁leading	-9.58652
uck	-9.58786
▁taste	-9.58815
▁portrayed	-9.58919
▁Mi	-9.58924
▁state	-9.59021
▁fake	-9.59033
▁eventually	-9.59038
▁political	-9.59074
▁support	-9.59154
▁various	-9.59264
▁drive	-9.59481
▁plenty	-9.59516
▁yes	-9.59943
▁waiting	-9.60045
▁focus	-9.60131
▁crew	-9.60286
day	-9.60293
▁unless	-9.60423
▁th	-9.60521
▁sign	-9.6055
▁lady	-9.60552
▁train	-9.60683
▁po	-9.60696
▁attempts	-9.60743
▁trouble	-9.60756
▁fantasy	-9.60785
ung	-9.60851
▁Italian	-9.61042
ple	-9.61042
▁tension	-9.61043
▁personal	-9.61049
▁red	-9.61203
▁excuse	-9.61297
▁accent	-9.61303
J	-9.61393
ina	-9.61549
▁western	-9.61593
▁Here	-9.6162
▁appeal	-9.61708
▁band	-9.6172
▁mentioned	-9.61917
den	-9.61949
▁whatever	-9.62102
▁towards	-9.6211
▁bother	-9.62228
▁lo	-9.62326
▁door	-9.62491
▁appreciate	-9.62565
▁meets	-9.62595
▁unfortunately	-9.62691
▁directors	-9.62795
▁par	-9.62854
▁Instead	-9.62867
▁Love	-9.62884
▁adventure	-9.62932
▁indeed	-9.63121
▁Night	-9.63211
▁sounds	-9.63261
▁failed	-9.6329
▁amusing	-9.63373
this	-9.63457
que	-9.63703
ING	-9.63898
▁conclusion	-9.63898
▁manages	-9.63941
▁filmmakers	-9.63943
her	-9.64017
▁lots	-9.64034
▁15	-9.64093
ON	-9.64102
▁William	-9.64141
▁computer	-9.64162
▁travel	-9.64162
▁further	-9.64164
▁married	-9.64192
▁missed	-9.64549
▁Tr	-9.64565
▁whom	-9.64645
▁weren	-9.64686
▁record	-9.64692
▁common	-9.64704
▁outside	-9.64735
ship	-9.64805
▁soul	-9.64857
▁walk	-9.64905
▁pop	-9.64928
▁portrayal	-9.64992
▁imp	-9.65051
▁large	-9.65156
▁depth	-9.65225
▁visit	-9.65232
▁spirit	-9.65293
▁Che	-9.65487
▁pace	-9.6549
▁bizarre	-9.65492
▁telling	-9.65688
▁90	-9.65701
ight	-9.65708
▁week	-9.6571
▁ways	-9.65811
▁ended	-9.65973
▁perfectly	-9.66128
▁shooting	-9.6619
▁inside	-9.66252
▁mood	-9.66308
ned	-9.66351
▁Let	-9.66458
▁brings	-9.66462
▁exception	-9.66467
▁ideas	-9.66559
▁sat	-9.66599
▁trip	-9.66757
▁recently	-9.66796
▁society	-9.6686
▁kills	-9.6692
▁reasons	-9.67185
▁laughable	-9.67212
▁biggest	-9.67384
▁Movie	-9.67437
▁catch	-9.67549
▁god	-9.6765
▁impression	-9.6767
top	-9.67688
▁intelligent	-9.67702
▁barely	-9.67714
port	-9.67721
▁finish	-9.67879
▁popular	-9.67906
▁Ne	-9.67972
▁produced	-9.68174
bi	-9.68254
gi	-9.68398
▁chase	-9.68475
▁language	-9.68481
▁sweet	-9.68481
▁com	-9.68539
lly	-9.68546
king	-9.68622
ging	-9.68647
▁pure	-9.68696
▁familiar	-9.68757
▁earth	-9.68777
▁powerful	-9.68927
making	-9.68983
bu	-9.69115
od	-9.69115
▁Black	-9.69177
▁Will	-9.69198
▁pass	-9.69271
▁disappointment	-9.6932
▁slightly	-9.69376
▁dancing	-9.69378
▁producers	-9.69749
▁Pe	-9.69824
▁otherwise	-9.69926
▁tr	-9.69937
▁Cl	-9.69939
ka	-9.69972
▁wall	-9.7014
▁slasher	-9.70192
▁exist	-9.70231
▁mark	-9.70347
▁visual	-9.70457
▁disappointing	-9.70533
▁members	-9.70592
▁beauty	-9.70713
▁caught	-9.70715
▁following	-9.70735
▁created	-9.70767
▁50	-9.70795
▁sp	-9.70829
ng	-9.70831
ek	-9.70872
▁Mary	-9.70911
▁sleep	-9.70913
▁mad	-9.70927
ze	-9.70928
▁entirely	-9.70941
▁culture	-9.71101
▁na	-9.71129
ack	-9.71139
light	-9.71218
▁unbelievable	-9.71281
▁Te	-9.71308
ker	-9.7134
▁explain	-9.71467
▁fit	-9.71544
rr	-9.71682
lic	-9.71693
ris	-9.7199
par	-9.72107
▁basic	-9.72118
▁college	-9.72133
ible	-9.72158
▁filled	-9.72187
ions	-9.72421
▁decide	-9.72476
▁loud	-9.7255
▁arm	-9.72626
uff	-9.7273
jo	-9.72739
▁World	-9.72995
▁baby	-9.73002
▁mere	-9.73046
▁trailer	-9.73066
▁died	-9.73102
▁da	-9.73154
.....	-9.73188
▁decides	-9.73232
An	-9.73235
▁approach	-9.73574
▁bought	-9.73577
that	-9.73652
hy	-9.73785
He	-9.73807
▁exciting	-9.73865
▁tough	-9.73978
head	-9.73999
▁suspect	-9.74156
▁apart	-9.74201
▁painful	-9.74215
star	-9.74291
fa	-9.74415
▁kick	-9.74424
▁random	-9.74451
▁chemistry	-9.74742
▁charm	-9.74798
▁cult	-9.74821
ens	-9.75229
▁adaptation	-9.75342
▁former	-9.7539
aw	-9.75398
▁Gu	-9.75401
IN	-9.7544
One	-9.75446
▁moral	-9.75452
▁Martin	-9.75649
▁Car	-9.75669
fe	-9.75735
iv	-9.75777
die	-9.75921
▁Big	-9.75978
▁em	-9.75996
▁nowhere	-9.75998
amp	-9.76018
▁Perhaps	-9.7607
ual	-9.76209
▁scientist	-9.76221
▁longer	-9.76224
▁recent	-9.76313
▁count	-9.76448
▁younger	-9.7646
lar	-9.76488
▁neither	-9.7652
▁solid	-9.76523
▁million	-9.7654
▁singing	-9.76558
row	-9.76561
▁mistake	-9.76604
qui	-9.76627
▁showed	-9.76763
▁situations	-9.76788
▁impossible	-9.76827
▁sci	-9.76863
even	-9.77111
▁sitting	-9.77173
▁escape	-9.77333
▁compared	-9.77428
▁utterly	-9.77596
▁historical	-9.77607
ren	-9.77617
▁Com	-9.77696
how	-9.77737
▁moves	-9.77926
▁gr	-9.77932
▁Ed	-9.77978
▁changed	-9.77984
▁opera	-9.7801
▁roll	-9.78031
some	-9.78117
▁Great	-9.78161
▁genuine	-9.7833
▁struggle	-9.7833
▁violent	-9.7833
rd	-9.78337
▁pain	-9.7834
▁disturbing	-9.78362
AR	-9.78376
▁considered	-9.78754
EN	-9.78758
▁100	-9.78882
ja	-9.78943
▁direct	-9.79022
▁throw	-9.79047
▁Van	-9.79127
▁Ka	-9.79169
▁Smith	-9.79248
▁describe	-9.79274
▁successful	-9.79329
▁suddenly	-9.7936
▁Du	-9.79378
▁suit	-9.79553
▁Ga	-9.79561
▁Stewart	-9.79614
▁inter	-9.79627
▁jump	-9.79798
▁aspect	-9.79825
▁difference	-9.79865
▁gra	-9.80028
▁notice	-9.80051
▁revenge	-9.80173
▁okay	-9.80173
▁office	-9.80409
▁zombie	-9.80462
▁glad	-9.80484
▁share	-9.80505
▁Earth	-9.80539
▁values	-9.80776
▁mix	-9.80786
▁London	-9.80795
▁smart	-9.80801
▁impressive	-9.80803
rry	-9.80815
▁40	-9.80952
▁honest	-9.80967
use	-9.80994
ite	-9.81106
▁follows	-9.81164
▁meaning	-9.81205
▁ability	-9.81295
▁Director	-9.81307
▁Mor	-9.81326
rew	-9.81327
▁awesome	-9.81736
▁Dan	-9.81777
▁standard	-9.81785
▁boys	-9.81833
▁Can	-9.82125
▁uses	-9.82266
▁fashion	-9.82323
gan	-9.82366
▁gang	-9.82377
▁victim	-9.82401
For	-9.82405
▁artist	-9.82533
starring	-9.82609
▁hoping	-9.82697
ass	-9.82798
▁House	-9.82827
▁date	-9.82879
▁fair	-9.82889
▁Ri	-9.82896
▁porn	-9.82924
▁added	-9.82949
▁leaving	-9.83004
▁rare	-9.83088
▁See	-9.8319
▁Se	-9.8322
you	-9.83241
▁humour	-9.83325
▁building	-9.83328
▁return	-9.83335
▁suppose	-9.8336
▁somewhere	-9.83409
▁Another	-9.83613
▁mysterious	-9.83644
▁expectations	-9.83656
len	-9.83689
▁effective	-9.83751
val	-9.83781
▁considering	-9.83818
▁sn	-9.8394
▁touch	-9.83945
ney	-9.83977
▁("	-9.83997
▁happening	-9.8422
▁Sure	-9.84228
▁heavy	-9.84346
???	-9.84365
▁questions	-9.84443
▁sing	-9.84519
▁o	-9.84542
▁generally	-9.8464
▁charming	-9.84687
ki	-9.84688
▁manner	-9.8475
AN	-9.84805
▁genius	-9.84936
▁horse	-9.84936
▁makers	-9.85008
▁bomb	-9.85015
▁cross	-9.85066
ative	-9.85151
iness	-9.85178
▁incredible	-9.85262
▁Best	-9.85292
ties	-9.85359
ities	-9.85437
▁drug	-9.85449
▁scenery	-9.85491
▁deliver	-9.85555
▁accept	-9.85557
▁party	-9.85622
▁master	-9.85625
ily	-9.85647
▁magic	-9.85889
▁channel	-9.85917
▁involving	-9.85917
fully	-9.85945
▁Y	-9.86238
▁Rock	-9.86287
▁El	-9.86319
ED	-9.86353
▁Dead	-9.86443
▁managed	-9.8648
▁Every	-9.8648
▁law	-9.86524
▁mouth	-9.86576
▁tired	-9.86619
▁People	-9.86685
▁cause	-9.86917
▁Tim	-9.87137
▁key	-9.87303
▁normal	-9.87464
▁Where	-9.87472
▁motion	-9.8749
▁company	-9.87572
▁80	-9.87596
▁Christian	-9.87614
▁military	-9.87617
▁Only	-9.87727
Mar	-9.87775
wo	-9.87845
ged	-9.87911
back	-9.87955
▁minor	-9.87961
sp	-9.88015
war	-9.88087
ther	-9.88197
▁boyfriend	-9.88251
▁paid	-9.88256
▁cold	-9.88292
ump	-9.88335
▁rip	-9.88344
ail	-9.88399
▁regard	-9.88558
▁bear	-9.88663
▁shock	-9.88681
ld	-9.88814
▁City	-9.8882
▁Too	-9.88875
▁ground	-9.88928
▁ball	-9.88993
nt	-9.89042
▁redeeming	-9.89054
dge	-9.89067
▁grow	-9.89182
cent	-9.89198
don	-9.89215
▁Gra	-9.89227
▁detective	-9.89256
▁marriage	-9.89257
▁books	-9.89401
▁Su	-9.89401
▁Jim	-9.89436
We	-9.89546
▁street	-9.8956
▁climax	-9.89596
▁mediocre	-9.89596
▁six	-9.89604
▁wide	-9.89618
▁ultimately	-9.89721
▁remote	-9.89937
▁presence	-9.89938
Do	-9.90101
▁prison	-9.90198
▁silent	-9.9028
▁innocent	-9.9028
▁fresh	-9.90348
▁thrown	-9.90381
▁OF	-9.90387
▁laughed	-9.9052
▁beat	-9.90548
▁join	-9.90624
▁blame	-9.90642
▁ran	-9.90671
▁runs	-9.9068
ai	-9.90736
▁develop	-9.90945
▁conflict	-9.90968
▁serial	-9.90968
▁addition	-9.90978
▁soldiers	-9.90982
ok	-9.9103
▁cinematic	-9.91034
▁send	-9.91059
▁emotion	-9.91184
▁absurd	-9.91285
▁commercial	-9.91314
▁comedies	-9.91316
▁Bad	-9.91328
▁dad	-9.91413
▁natural	-9.91502
car	-9.91562
ake	-9.91602
▁hurt	-9.91662
▁design	-9.91696
▁immediately	-9.917
▁fell	-9.92046
▁costumes	-9.92095
ink	-9.9211
▁twists	-9.92264
▁vampire	-9.92339
▁suffer	-9.92371
rate	-9.9244
▁oh	-9.92549
▁ride	-9.92584
art	-9.92588
▁stunning	-9.9271
▁terrific	-9.9271
▁Young	-9.92755
▁sent	-9.92829
▁professional	-9.92906
▁Har	-9.9291
▁Other	-9.92916
▁80'	-9.92967
▁Day	-9.93048
▁confusing	-9.93062
lock	-9.93162
▁walking	-9.9319
▁appeared	-9.93223
▁sexy	-9.93279
▁High	-9.93588
▁road	-9.93622
▁element	-9.93792
▁zombies	-9.93795
▁cry	-9.93816
▁drawn	-9.93929
▁Adam	-9.94137
▁agent	-9.9418
▁photography	-9.94181
??	-9.942
▁build	-9.94208
▁plus	-9.94223
▁literally	-9.94231
yn	-9.94268
▁images	-9.94353
▁rented	-9.94395
uc	-9.94404
OW	-9.94412
▁wondering	-9.94535
▁animated	-9.94539
▁terms	-9.94689
▁wild	-9.94842
▁wooden	-9.94842
ition	-9.94847
▁intended	-9.94917
▁extra	-9.94923
▁Jane	-9.94991
▁content	-9.95095
▁ship	-9.95111
▁government	-9.95202
▁sa	-9.95228
▁Un	-9.95282
▁Henry	-9.95284
▁teacher	-9.95331
▁Jones	-9.95341
lon	-9.95434
▁student	-9.95637
▁Sho	-9.95654
▁brief	-9.95673
▁force	-9.95689
van	-9.95869
house	-9.95947
▁gem	-9.95986
▁Mac	-9.96074
what	-9.96114
ire	-9.96168
▁damn	-9.9629
▁prop	-9.96401
▁phone	-9.96504
▁pan	-9.96531
▁ha	-9.96628
▁alive	-9.9665
▁opportunity	-9.96653
▁graphic	-9.96654
AT	-9.96654
▁equally	-9.96778
▁Sha	-9.96798
▁station	-9.96806
▁Ju	-9.96841
▁Very	-9.96944
▁negative	-9.9702
budget	-9.97034
▁treat	-9.97038
tain	-9.97083
▁grand	-9.9713
▁Wood	-9.97137
▁lighting	-9.97155
▁contains	-9.97226
▁details	-9.97228
▁draw	-9.97311
sen	-9.97344
▁century	-9.97387
▁race	-9.97409
▁offer	-9.97458
she	-9.97473
▁Because	-9.97485
Re	-9.97493
▁sea	-9.97705
nch	-9.97754
▁outstanding	-9.97757
▁vote	-9.97785
▁nobody	-9.97826
▁Nothing	-9.97865
▁Charles	-9.9789
▁Chris	-9.97916
No	-9.97949
▁honestly	-9.98053
▁presented	-9.98094
▁narrative	-9.98127
▁fault	-9.98132
nes	-9.98134
▁Fe	-9.98188
▁cons	-9.98222
▁constantly	-9.98304
▁audiences	-9.98415
▁available	-9.98499
▁Jean	-9.98545
▁aspects	-9.98546
▁subtle	-9.98549
▁Two	-9.98702
▁issues	-9.98719
▁fill	-9.98726
▁students	-9.98795
▁complex	-9.98843
▁whatsoever	-9.98872
real	-9.98909
▁Still	-9.98962
ically	-9.99131
▁imagination	-9.99246
▁affair	-9.99246
▁Charlie	-9.99257
▁boss	-9.99258
film	-9.99279
ps	-9.99323
▁Dark	-9.99509
air	-9.99512
▁Pro	-9.99554
▁likable	-9.99622
▁mid	-9.99825
▁rep	-9.99864
▁l	-10.0003
▁se	-10.0031
ft	-10.0044
▁enter	-10.0046
▁remains	-10.0048
▁thin	-10.0053
ES	-10.0055
eg	-10.0056
▁naked	-10.0076
cut	-10.0078
▁allow	-10.0091
unk	-10.0092
▁ghost	-10.0099
▁rated	-10.0103
▁listen	-10.0107
▁disaster	-10.0114
ified	-10.0121
▁reaction	-10.0122
▁Chan	-10.0142
▁planet	-10.0143
▁blow	-10.0147
▁likely	-10.0147
▁confused	-10.0157
▁fully	-10.0172
▁lacks	-10.0174
ugh	-10.0183
▁accident	-10.0189
year	-10.0192
▁attractive	-10.0192
▁Story	-10.0201
▁quick	-10.0204
ou	-10.0206
▁tone	-10.0218
La	-10.0223
tan	-10.0223
▁South	-10.0229
▁fascinating	-10.0229
▁science	-10.0231
▁assume	-10.0231
▁touching	-10.0234
▁Ch	-10.0244
▁dies	-10.0262
▁Shakespeare	-10.0268
▁afraid	-10.0268
▁ill	-10.0278
▁Steven	-10.028
▁actresses	-10.0291
▁plan	-10.0305
▁smile	-10.0307
▁include	-10.0309
▁island	-10.0311
pro	-10.0313
That	-10.0315
▁slowly	-10.0321
▁names	-10.0321
▁Ray	-10.0323
izing	-10.0327
▁Steve	-10.0333
▁clue	-10.0344
▁Fred	-10.0353
ball	-10.0355
▁Part	-10.0356
On	-10.0363
▁knowing	-10.0365
vin	-10.0366
▁Gar	-10.0383
▁accurate	-10.0385
▁Green	-10.0386
▁judge	-10.0386
let	-10.0391
Don	-10.0392
▁anymore	-10.0393
▁AND	-10.0407
ya	-10.0414
▁alien	-10.0419
▁hospital	-10.0425
▁May	-10.0428
▁Per	-10.0435
Some	-10.0437
▁folks	-10.0438
ien	-10.0444
▁surprisingly	-10.0444
life	-10.0447
▁filmmaker	-10.0448
▁Wal	-10.0452
▁Ber	-10.0454
Ma	-10.0467
▁shocking	-10.0467
▁rape	-10.047
▁bed	-10.0473
▁funniest	-10.0504
▁Paris	-10.0505
▁stuck	-10.0507
▁Hu	-10.0521
▁Allen	-10.0527
▁Sp	-10.0533
ude	-10.0538
▁bottom	-10.0544
▁clean	-10.0544
▁trick	-10.0546
▁sight	-10.0547
▁insult	-10.0548
▁Miss	-10.0549
▁Christopher	-10.0553
▁developed	-10.0555
▁Though	-10.056
▁officer	-10.0567
▁standards	-10.0582
▁double	-10.0584
▁ruin	-10.0591
▁Eddie	-10.0593
▁deserve	-10.0594
▁idiot	-10.0595
▁10.	-10.0599
▁lovely	-10.0606
▁noir	-10.0609
can	-10.0612
▁soft	-10.0612
▁Was	-10.0616
▁bland	-10.063
▁display	-10.0633
good	-10.0635
▁pull	-10.0635
▁wise	-10.064
▁Please	-10.0646
Not	-10.0649
▁creative	-10.0664
▁critics	-10.0665
▁highlight	-10.0668
▁frame	-10.0674
▁pictures	-10.0674
▁model	-10.068
▁Bu	-10.0682
▁Pri	-10.0687
ombie	-10.0688
tch	-10.0688
AL	-10.0691
▁victims	-10.0701
▁favor	-10.0704
▁latter	-10.0705
▁test	-10.071
RA	-10.0714
han	-10.0715
▁Mark	-10.0723
▁changes	-10.0726
ute	-10.0728
▁18	-10.0736
▁murders	-10.0738
nny	-10.0741
▁chick	-10.0741
▁vision	-10.0744
▁Pre	-10.0744
▁giant	-10.0745
▁Anyway	-10.0746
▁compelling	-10.0755
read	-10.0758
▁Show	-10.0765
ane	-10.0768
▁individual	-10.0786
▁clothes	-10.0786
▁Jerry	-10.0787
ette	-10.0788
▁recommended	-10.0789
▁edge	-10.0792
▁partner	-10.0801
▁ca	-10.0818
du	-10.0824
▁sadly	-10.0825
▁childhood	-10.0828
iff	-10.0836
▁area	-10.0838
▁im	-10.0848
▁dreams	-10.0849
▁lover	-10.0855
▁unlike	-10.0855
▁flicks	-10.0862
▁Yet	-10.0864
Al	-10.0867
itch	-10.0868
▁system	-10.0868
▁instance	-10.0868
▁joy	-10.0869
▁forgotten	-10.0873
▁stands	-10.0882
▁hasn	-10.089
▁mom	-10.0907
▁Hi	-10.0908
▁pleasant	-10.091
▁freak	-10.091
▁current	-10.091
▁ahead	-10.0911
▁pleasure	-10.0916
▁ready	-10.0917
&	-10.0921
though	-10.0929
▁extreme	-10.093
▁soap	-10.0932
0	-10.0935
▁70	-10.0937
▁acts	-10.0939
▁encounter	-10.0951
▁intense	-10.0951
▁fellow	-10.0953
▁artistic	-10.0958
▁concern	-10.096
▁Red	-10.0961
▁putting	-10.0969
▁Arthur	-10.0971
lay	-10.0974
▁pretentious	-10.0993
▁knock	-10.0993
▁desert	-10.0993
▁epic	-10.0994
▁Pat	-10.1007
▁absolute	-10.101
▁turning	-10.1015
▁du	-10.1019
▁teen	-10.102
get	-10.1029
▁dreadful	-10.1042
▁beautifully	-10.1046
ky	-10.1052
▁loose	-10.1052
▁pen	-10.1055
▁Did	-10.1055
/10	-10.1069
▁experiment	-10.1077
▁explanation	-10.1077
▁quiet	-10.1077
▁falling	-10.1077
▁unfunny	-10.1078
▁Nick	-10.1082
▁holes	-10.1082
▁embarrassing	-10.1082
rated	-10.1082
▁Bar	-10.1085
room	-10.1085
Now	-10.1087
▁Thank	-10.1092
▁tape	-10.1101
▁numbers	-10.1102
gar	-10.1107
za	-10.1108
▁k	-10.1113
▁intelligence	-10.1119
▁rubbish	-10.1119
▁pair	-10.1123
screen	-10.1132
boy	-10.1145
▁animals	-10.1159
▁twice	-10.1161
▁unnecessary	-10.1161
▁ugly	-10.1162
▁Boy	-10.1163
▁supposedly	-10.1166
lit	-10.117
▁location	-10.1177
▁image	-10.1177
▁fu	-10.1184
▁relationships	-10.1194
▁followed	-10.1198
play	-10.1203
▁emotions	-10.121
When	-10.1217
▁program	-10.123
bor	-10.1233
▁forever	-10.1239
az	-10.1244
▁nasty	-10.1247
▁collection	-10.1248
▁skip	-10.125
▁information	-10.1259
▁impressed	-10.1261
▁becoming	-10.1265
▁Ni	-10.1271
▁detail	-10.1275
ica	-10.1276
▁industry	-10.1289
▁Hitler	-10.1289
right	-10.129
▁member	-10.1293
▁Batman	-10.1302
▁watchable	-10.1316
▁center	-10.1321
▁n	-10.1322
▁producer	-10.133
▁:	-10.1333
▁Col	-10.1333
▁bright	-10.1336
cing	-10.1336
▁apartment	-10.1337
▁utter	-10.1341
▁discover	-10.1345
▁Overall	-10.136
LE	-10.1362
▁teenage	-10.1365
▁Lynch	-10.1376
cha	-10.1376
▁flash	-10.1376
▁surely	-10.1385
▁Daniel	-10.1389
▁paint	-10.1393
▁adults	-10.1394
▁picked	-10.1403
▁youth	-10.1409
▁lived	-10.1418
▁comparison	-10.1419
▁West	-10.142
▁tragic	-10.1422
vy	-10.1424
▁search	-10.1427
just	-10.1439
▁shouldn	-10.1446
fer	-10.1452
nce	-10.1455
▁Billy	-10.1455
▁justice	-10.1459
▁author	-10.146
▁machine	-10.1463
till	-10.1466
▁European	-10.1471
director	-10.1483
▁compare	-10.1495
▁research	-10.1507
▁mainly	-10.1512
▁Ke	-10.1514
▁Horror	-10.1515
▁bi	-10.1518
▁wa	-10.1539
▁tend	-10.1539
▁bat	-10.1545
Bo	-10.1545
▁remain	-10.1547
▁Cor	-10.1549
LY	-10.155
wood	-10.1551
▁choose	-10.1551
▁gorgeous	-10.1551
▁superior	-10.1551
10	-10.1553
ular	-10.1566
Overall	-10.1567
▁Girl	-10.1572
▁proves	-10.1572
▁flaws	-10.1578
▁criminal	-10.1578
▁hated	-10.1581
ham	-10.1595
▁theatre	-10.1598
▁CGI	-10.1599
▁wind	-10.1611
cid	-10.1611
Ro	-10.1637
Oh	-10.1639
▁journey	-10.164
▁Kelly	-10.164
ino	-10.1642
▁award	-10.1648
▁mental	-10.1661
ade	-10.1677
bad	-10.1682
▁angry	-10.1684
▁desire	-10.1701
▁carry	-10.1703
▁themes	-10.1711
Well	-10.172
▁express	-10.1722
▁allowed	-10.1723
▁pilot	-10.1729
▁club	-10.1729
des	-10.1741
▁drop	-10.1742
board	-10.1752
▁Ko	-10.176
▁Ja	-10.1768
field	-10.1768
▁thoroughly	-10.1774
▁convey	-10.1774
▁comedic	-10.1775
yes	-10.1776
▁wit	-10.1783
ain	-10.1793
▁wearing	-10.1798
▁board	-10.1801
▁ob	-10.1815
▁deserved	-10.1815
iz	-10.1816
▁central	-10.1819
▁terribly	-10.1819
▁breath	-10.1819
▁hu	-10.1821
▁Bruce	-10.1826
ski	-10.1833
▁Lu	-10.1836
▁torture	-10.1836
▁round	-10.1838
ez	-10.1856
▁rap	-10.1857
▁arts	-10.1858
▁drunk	-10.1859
▁Street	-10.1865
▁energy	-10.1865
▁blind	-10.1865
▁seemingly	-10.1866
▁religious	-10.1871
▁anywhere	-10.1871
▁Stone	-10.1872
ray	-10.1872
down	-10.1876
▁feelings	-10.1879
▁More	-10.1889
▁fe	-10.189
ists	-10.1892
ev	-10.19
▁willing	-10.1909
▁decision	-10.191
▁regular	-10.1911
▁favourite	-10.1911
zz	-10.192
▁12	-10.1924
pre	-10.1931
▁sucks	-10.1933
▁delivers	-10.1933
▁Jr	-10.1937
▁manage	-10.194
***	-10.1943
▁places	-10.1945
▁70'	-10.1947
▁van	-10.1955
▁realized	-10.1956
▁awkward	-10.1956
▁crash	-10.1956
▁dying	-10.1958
▁Fi	-10.1958
▁dig	-10.1964
▁asks	-10.1967
▁disc	-10.2002
▁study	-10.2002
▁pacing	-10.2003
▁hint	-10.2003
▁woods	-10.2005
▁commentary	-10.2006
▁personality	-10.2008
▁li	-10.2011
▁fiction	-10.2011
▁Little	-10.2017
▁warm	-10.2018
▁hat	-10.2019
▁IS	-10.202
▁apparent	-10.2024
ole	-10.2027
ill	-10.2031
▁eat	-10.2032
▁Once	-10.2033
▁pa	-10.2034
ability	-10.2038
▁lay	-10.2039
see	-10.2046
▁Keaton	-10.2049
▁Taylor	-10.2049
▁bank	-10.2049
▁worthy	-10.205
▁began	-10.2056
▁singer	-10.2068
▁physical	-10.207
▁def	-10.2073
▁lose	-10.2075
▁hi	-10.2075
Le	-10.2077
▁player	-10.2077
▁spin	-10.2087
▁spoil	-10.2089
lie	-10.209
▁Many	-10.2092
har	-10.2094
▁creature	-10.2098
nk	-10.2103
▁seconds	-10.2104
▁****	-10.2105
run	-10.2117
▁drugs	-10.2118
▁Despite	-10.2122
▁Mu	-10.2133
▁nonsense	-10.2142
▁tune	-10.2143
▁Joan	-10.2152
▁hotel	-10.2152
▁aside	-10.2154
▁onto	-10.2156
▁Men	-10.216
▁offers	-10.2165
▁Ex	-10.2178
▁San	-10.2179
De	-10.2184
▁Douglas	-10.2189
▁process	-10.2189
▁product	-10.219
▁everybody	-10.2192
▁explained	-10.2196
set	-10.2196
▁intention	-10.2196
▁scream	-10.22
ore	-10.2201
▁promise	-10.2208
▁Both	-10.2217
IC	-10.2221
lum	-10.2231
cra	-10.2234
▁Hill	-10.2234
▁endless	-10.2236
▁unusual	-10.2236
▁blue	-10.2236
,000	-10.2236
▁provide	-10.2239
▁heroine	-10.2243
OM	-10.2243
▁Stephen	-10.2245
▁finished	-10.2245
▁gotten	-10.2246
▁held	-10.2246
▁speaking	-10.2264
▁sucked	-10.2266
▁Mad	-10.2282
▁dr	-10.2283
▁provides	-10.2284
▁paper	-10.2285
fu	-10.2292
teen	-10.2309
▁fail	-10.2316
▁army	-10.2317
TH	-10.2319
CH	-10.232
▁vehicle	-10.2331
▁independent	-10.2331
▁sell	-10.2334
berg	-10.2335
▁grace	-10.2336
▁scared	-10.2336
▁Matt	-10.2349
▁brutal	-10.2351
▁technical	-10.2354
especially	-10.2355
▁formula	-10.2376
▁advice	-10.2379
▁trust	-10.238
▁curious	-10.238
▁NO	-10.2381
▁cash	-10.2384
▁anybody	-10.2385
Fi	-10.2395
▁desperate	-10.2402
wn	-10.2412
▁sun	-10.242
▁Ms	-10.2426
▁tragedy	-10.2427
▁account	-10.2427
▁shallow	-10.2427
▁failure	-10.2428
▁Jason	-10.2429
▁Mel	-10.2433
▁consist	-10.2438
▁below	-10.2455
▁Pu	-10.2463
illa	-10.2466
▁Time	-10.2468
▁length	-10.2475
night	-10.2475
▁court	-10.2476
▁Morgan	-10.2476
ana	-10.2477
ident	-10.2481
▁attitude	-10.2482
▁owner	-10.2485
▁Sean	-10.2486
ov	-10.2489
▁Everything	-10.2489
▁Williams	-10.25
pen	-10.2504
▁fat	-10.251
▁floor	-10.2524
▁Jesus	-10.2524
▁dozen	-10.2524
▁Moore	-10.2525
▁window	-10.2525
▁stock	-10.2526
ised	-10.2531
aking	-10.2531
ari	-10.2532
▁debut	-10.2535
▁gags	-10.2546
▁correct	-10.2547
▁leader	-10.2557
▁Cat	-10.2568
▁junk	-10.2573
▁1950	-10.2573
▁amateurish	-10.2575
▁impact	-10.2578
▁pieces	-10.2587
▁Sch	-10.2593
American	-10.2599
▁range	-10.2614
▁Their	-10.2617
bur	-10.2618
▁aware	-10.2623
▁Russian	-10.2625
▁Out	-10.2631
Co	-10.2631
▁claim	-10.2633
▁cable	-10.2636
▁Americans	-10.2637
▁sum	-10.2637
▁Si	-10.2641
▁Having	-10.2644
▁60	-10.2647
looking	-10.2652
▁bull	-10.2653
Ho	-10.2655
▁rarely	-10.266
action	-10.2663
▁Harris	-10.2667
▁amateur	-10.2669
▁necessary	-10.2671
▁THIS	-10.2671
▁martial	-10.2671
▁knowledge	-10.2671
▁rescue	-10.2671
▁Santa	-10.2673
▁personally	-10.2681
▁represent	-10.2684
Be	-10.269
▁relative	-10.2693
Even	-10.2706
app	-10.2707
▁grade	-10.2709
▁rise	-10.2716
▁church	-10.272
▁unexpected	-10.272
▁plane	-10.2725
▁Jackson	-10.2726
▁produce	-10.2732
▁reviewers	-10.2735
▁Blood	-10.2737
▁limited	-10.2738
▁steal	-10.275
▁thanks	-10.2763
**	-10.2764
▁treated	-10.2765
▁noticed	-10.2768
▁Chinese	-10.277
▁generation	-10.277
▁intriguing	-10.277
▁regret	-10.277
▁responsible	-10.277
▁village	-10.277
▁Davis	-10.277
▁Sci	-10.2772
▁connection	-10.2775
▁rank	-10.2776
▁movement	-10.2777
there	-10.2793
▁moved	-10.2794
chi	-10.2807
urn	-10.2814
▁behavior	-10.282
▁challenge	-10.282
▁memories	-10.282
▁suicide	-10.282
▁belief	-10.282
▁tedious	-10.282
▁Western	-10.282
▁root	-10.282
▁priest	-10.282
▁prefer	-10.2822
▁hide	-10.2824
▁seven	-10.2824
away	-10.2826
round	-10.2846
▁ba	-10.2847
rie	-10.285
▁players	-10.2857
▁continue	-10.2862
▁routine	-10.287
▁food	-10.2871
▁unknown	-10.2873
▁shop	-10.2875
▁le	-10.2878
!!!!	-10.2881
▁somebody	-10.2882
▁Roman	-10.2885
▁site	-10.2885
▁pe	-10.2885
▁abuse	-10.2886
▁cops	-10.29
mate	-10.2901
▁luck	-10.2902
▁issue	-10.2902
▁hadn	-10.2904
▁finding	-10.2904
▁Am	-10.2909
▁painfully	-10.2915
▁13	-10.2918
▁crappy	-10.2921
mar	-10.2925
▁includes	-10.2933
▁winning	-10.2937
▁delightful	-10.2945
▁led	-10.2946
▁destroy	-10.2953
▁guns	-10.2957
▁screaming	-10.296
▁Ver	-10.2968
▁flesh	-10.2972
▁memory	-10.2972
▁expert	-10.2972
▁robot	-10.2972
▁thank	-10.2973
▁sake	-10.2976
▁Ford	-10.2976
▁passion	-10.2979
?!	-10.2989
▁bill	-10.2989
▁born	-10.3001
▁j	-10.3007
▁drag	-10.3009
▁target	-10.3023
▁1970	-10.3023
▁Kevin	-10.3023
▁crack	-10.3025
▁Pi	-10.3032
▁park	-10.3039
▁Since	-10.304
SE	-10.3041
50	-10.3042
ock	-10.3045
▁safe	-10.305
Lo	-10.3072
fo	-10.3073
▁occur	-10.3073
▁appropriate	-10.3074
▁spoof	-10.3074
▁1980	-10.3074
▁Ki	-10.3076
▁pile	-10.3078
▁summer	-10.3085
▁suck	-10.309
▁introduced	-10.3091
▁inspired	-10.3092
▁asked	-10.3093
oh	-10.3095
▁murdered	-10.3095
▁survive	-10.3097
▁helped	-10.3098
▁field	-10.3105
▁engaging	-10.3126
▁irritating	-10.3126
▁empty	-10.3126
▁lousy	-10.3126
▁mine	-10.3132
▁lacking	-10.3134
▁Min	-10.3141
imp	-10.3143
▁Ti	-10.3144
▁rat	-10.3147
part	-10.3156
▁prove	-10.3157
▁adds	-10.3167
▁pulled	-10.3168
pri	-10.3169
ix	-10.3174
▁parody	-10.3177
▁twenty	-10.3177
▁VHS	-10.3177
▁deeply	-10.318
▁factor	-10.3181
▁Harry	-10.3182
▁portray	-10.3184
ory	-10.3194
▁puts	-10.3204
more	-10.3217
▁loss	-10.322
▁filming	-10.3221
put	-10.3221
▁load	-10.3225
▁perspective	-10.3229
▁religion	-10.3229
▁speech	-10.3229
▁substance	-10.3229
▁crowd	-10.3229
▁capture	-10.3232
▁Everyone	-10.3232
▁Cha	-10.3239
▁pal	-10.3241
▁Danny	-10.3242
▁Mon	-10.3245
▁kinda	-10.325
▁constant	-10.3257
▁decade	-10.3261
▁radio	-10.3262
▁skill	-10.3262
▁surprising	-10.3266
▁cost	-10.3269
uring	-10.3277
▁dangerous	-10.3283
▁humorous	-10.329
▁host	-10.329
▁saved	-10.3295
▁Eric	-10.3299
▁disgusting	-10.3299
played	-10.3301
▁market	-10.3303
ries	-10.3311
First	-10.3315
▁concerned	-10.3323
);	-10.3334
▁context	-10.3334
▁contrived	-10.3334
used	-10.3335
▁tight	-10.3336
▁ta	-10.334
▁Anthony	-10.3341
ama	-10.3343
▁bra	-10.3353
▁White	-10.3353
▁wanting	-10.3354
▁Tri	-10.3356
▁cameo	-10.3357
▁brothers	-10.3359
rack	-10.3366
▁practical	-10.337
▁Ann	-10.3371
▁lower	-10.3375
▁Kate	-10.3379
▁text	-10.3387
▁Clark	-10.3388
▁satire	-10.3388
▁Luke	-10.3389
▁media	-10.3407
they	-10.3408
▁faces	-10.3413
▁tears	-10.3417
▁Bro	-10.342
▁interview	-10.3424
▁included	-10.3426
are	-10.3433
▁boat	-10.3441
▁loving	-10.3443
cia	-10.3446
▁Johnny	-10.3446
▁Hall	-10.3448
▁corny	-10.3448
▁mini	-10.3449
oke	-10.3455
▁costs	-10.346
▁repeat	-10.3462
▁Asian	-10.3464
▁pr	-10.3464
John	-10.3476
However	-10.3477
Also	-10.3477
▁dated	-10.3496
▁insane	-10.3498
▁Mike	-10.3504
▁Bob	-10.3513
▁dry	-10.3523
▁demon	-10.3525
▁Park	-10.3528
▁costume	-10.3535
!).	-10.3538
▁driving	-10.3548
Man	-10.3548
▁lies	-10.3556
▁gold	-10.356
pping	-10.3577
▁Gary	-10.359
although	-10.3593
▁object	-10.3599
▁conversation	-10.3602
▁hidden	-10.3602
▁comedian	-10.3602
▁unrealistic	-10.3602
▁Jeff	-10.3603
mal	-10.3604
▁mar	-10.3605
ST	-10.3611
▁bigger	-10.3612
ations	-10.3612
law	-10.3626
▁convince	-10.3628
▁bloody	-10.3632
wise	-10.3636
most	-10.3649
▁path	-10.365
▁commit	-10.3652
▁months	-10.3654
▁gratuitous	-10.3656
▁Brown	-10.3657
▁remarkable	-10.3658
▁fame	-10.366
▁talents	-10.366
ET	-10.3665
ko	-10.3673
▁Which	-10.3674
▁Ya	-10.3675
▁hopes	-10.3676
▁Really	-10.368
▁warning	-10.3692
ubb	-10.3692
▁hang	-10.3706
▁scenario	-10.3711
▁zero	-10.3711
▁speed	-10.3711
▁Fu	-10.3711
ueen	-10.3721
▁skills	-10.3732
sses	-10.3736
EL	-10.3756
ken	-10.3756
▁mixed	-10.3768
▁stopped	-10.377
▁semi	-10.3771
LL	-10.3771
▁shadow	-10.3775
▁attend	-10.3775
▁stereotypes	-10.3781
gh	-10.3787
▁Okay	-10.3788
▁Avoid	-10.3804
plot	-10.3808
▁strength	-10.3821
▁device	-10.3821
▁gonna	-10.3821
▁opposite	-10.3821
▁green	-10.3822
▁gangster	-10.3824
▁grew	-10.3824
▁wedding	-10.3829
ization	-10.383
▁Victoria	-10.3836
▁disappear	-10.3844
▁push	-10.3845
▁Ste	-10.3854
▁entertain	-10.3861
▁charge	-10.3865
▁dealing	-10.3876
▁excited	-10.3877
▁asleep	-10.3877
▁praise	-10.3877
▁therefore	-10.3877
▁Superman	-10.388
▁seat	-10.3896
▁wonderfully	-10.3902
rent	-10.3903
▁Anne	-10.3912
▁flow	-10.3912
Ha	-10.3923
OO	-10.3925
mark	-10.3927
▁soldier	-10.3931
nder	-10.3931
▁demand	-10.3933
▁thus	-10.3938
ik	-10.395
▁LA	-10.3951
▁fish	-10.3952
▁received	-10.3964
▁locations	-10.3968
Ra	-10.397
▁ruined	-10.3978
▁Tu	-10.3987
▁Nancy	-10.3989
▁community	-10.3989
▁Gr	-10.3992
▁reviewer	-10.3994
▁Those	-10.4001
▁mission	-10.4001
▁min	-10.4007
▁rental	-10.4009
▁appealing	-10.4011
▁handle	-10.4012
▁blonde	-10.4023
▁ring	-10.4029
ising	-10.4035
▁TO	-10.4043
▁creating	-10.4045
▁psychological	-10.4045
▁spell	-10.4047
▁witty	-10.4048
Je	-10.4049
▁skin	-10.405
▁psycho	-10.4051
▁majority	-10.4055
▁grab	-10.4057
▁Wow	-10.4069
under	-10.4071
▁II	-10.4072
▁complain	-10.4076
▁bore	-10.4077
▁foot	-10.4079
▁Look	-10.4079
ita	-10.4082
▁understanding	-10.4086
▁toward	-10.4095
IS	-10.4095
▁atrocious	-10.4102
▁Japan	-10.4102
▁Nor	-10.4102
▁France	-10.4102
existent	-10.4103
▁animal	-10.4105
▁Alex	-10.4106
▁Angel	-10.4108
▁Jackie	-10.4117
▁recall	-10.4118
▁yeah	-10.412
▁Ken	-10.4121
▁DO	-10.413
Ch	-10.4134
ograph	-10.4144
▁England	-10.4159
▁Spanish	-10.4159
▁offensive	-10.4159
▁gross	-10.4162
▁event	-10.4166
▁Power	-10.417
▁print	-10.4174
How	-10.4175
long	-10.419
▁entertained	-10.4193
▁heads	-10.4193
▁returns	-10.4206
▁IN	-10.4206
▁protect	-10.4209
▁depressing	-10.4217
▁horribly	-10.4217
▁ludicrous	-10.4217
▁mountain	-10.4217
▁THAT	-10.4217
▁source	-10.4217
▁stalk	-10.4218
▁involves	-10.4218
▁friendship	-10.422
▁Simon	-10.4222
▁promising	-10.4228
At	-10.4229
▁grown	-10.4233
▁humanity	-10.4234
Ja	-10.4245
rust	-10.4245
▁Je	-10.4261
▁/	-10.4267
▁executed	-10.4274
▁uninteresting	-10.4274
conscious	-10.4274
▁mask	-10.4276
▁forgive	-10.4278
▁loses	-10.4279
▁faith	-10.4302
▁Any	-10.4304
While	-10.4319
▁cars	-10.4326
▁lesbian	-10.4333
▁featur	-10.4333
▁Alan	-10.4333
▁cap	-10.4334
▁MST	-10.4335
▁gain	-10.4335
▁?	-10.4337
▁fare	-10.4339
ened	-10.4345
▁laughter	-10.4353
ks	-10.4355
▁14	-10.4356
point	-10.4377
▁degree	-10.4391
▁festival	-10.4391
▁guard	-10.4391
▁sword	-10.4392
▁naive	-10.4396
▁dislike	-10.4399
▁passed	-10.4401
▁Dick	-10.4407
▁starting	-10.4408
▁Gene	-10.4409
▁lovers	-10.4413
▁heroes	-10.4418
▁quote	-10.442
▁loser	-10.4423
▁Far	-10.4435
▁villains	-10.4435
▁scare	-10.4443
▁advance	-10.445
▁strike	-10.445
▁native	-10.4451
rough	-10.4451
▁Lord	-10.4453
▁Tony	-10.4456
▁helps	-10.446
ero	-10.4461
▁Death	-10.4461
Th	-10.4466
hearted	-10.4466
▁logic	-10.4473
ENT	-10.4479
▁relate	-10.4483
▁ALL	-10.4487
▁unable	-10.4498
▁contrast	-10.4509
▁foreign	-10.4509
▁technique	-10.4509
▁Sta	-10.4509
▁existence	-10.4511
▁inept	-10.4511
▁relief	-10.4512
range	-10.4516
▁Nazi	-10.452
Mi	-10.4523
lam	-10.4523
▁references	-10.4523
gin	-10.4525
▁Hell	-10.4529
rick	-10.4536
▁finale	-10.4538
eat	-10.4541
▁Killer	-10.4544
▁gory	-10.4553
▁insight	-10.4565
▁Washington	-10.4569
▁Wilson	-10.4569
igh	-10.4569
▁news	-10.4569
▁Julie	-10.457
▁tree	-10.4572
▁growing	-10.4572
▁proper	-10.4573
cur	-10.4577
▁rough	-10.4581
▁revealed	-10.4591
▁Rob	-10.4595
actor	-10.46
▁je	-10.4603
▁normally	-10.4614
▁predict	-10.4625
▁delivered	-10.4628
▁MOVIE	-10.4628
▁card	-10.4628
▁ladies	-10.4628
▁punch	-10.463
▁marry	-10.4632
▁uncle	-10.4633
▁Er	-10.4649
▁topic	-10.4666
▁gas	-10.4671
lia	-10.4684
love	-10.4685
▁motivation	-10.4689
▁Anderson	-10.4689
▁Jimmy	-10.469
▁eight	-10.469
Then	-10.4692
▁treatment	-10.4693
TV	-10.4697
▁Lady	-10.4697
▁higher	-10.471
tte	-10.471
▁Parker	-10.4711
▁fights	-10.4717
▁flying	-10.472
▁edited	-10.4727
▁discovered	-10.4734
▁u	-10.4741
▁built	-10.4749
▁numerous	-10.4749
▁colour	-10.4749
▁forgettable	-10.4749
▁command	-10.475
▁reach	-10.4753
nal	-10.4756
▁essentially	-10.4764
▁nicely	-10.4767
▁fate	-10.4768
She	-10.4771
▁protagonist	-10.4771
Mo	-10.4772
▁capable	-10.4774
▁Grant	-10.4781
▁lets	-10.4784
aging	-10.4804
roll	-10.4808
▁results	-10.4809
▁price	-10.4809
▁execution	-10.481
▁ordinary	-10.481
▁surreal	-10.4811
▁lesson	-10.4811
▁saving	-10.4812
ook	-10.4818
ong	-10.4821
▁Wild	-10.4824
▁hits	-10.4829
▁monsters	-10.483
▁segment	-10.4834
cho	-10.484
cle	-10.4849
cast	-10.4859
ara	-10.486
Why	-10.4866
▁evidence	-10.4872
▁spectacular	-10.4872
▁condition	-10.4872
▁Albert	-10.4875
▁cuts	-10.4877
They	-10.4881
▁keeping	-10.4882
▁holds	-10.4882
▁breaks	-10.4882
▁Roy	-10.4885
▁efforts	-10.4887
wan	-10.4889
▁erotic	-10.489
▁originally	-10.4892
▁Dar	-10.4894
style	-10.4896
▁term	-10.4903
▁meeting	-10.4905
▁proved	-10.4906
▁overly	-10.4919
CE	-10.4925
▁contain	-10.493
▁legend	-10.4933
▁Sinatra	-10.4933
▁witch	-10.4938
▁Lugosi	-10.4939
▁African	-10.494
▁Thomas	-10.4945
▁dress	-10.4958
▁Second	-10.4964
▁raise	-10.4967
▁Art	-10.4967
▁asking	-10.4972
▁terror	-10.4982
▁bits	-10.4982
IT	-10.4983
uk	-10.4986
▁progress	-10.4988
▁seek	-10.4989
▁Carl	-10.4994
▁continuity	-10.4995
▁qualities	-10.4995
▁plague	-10.4996
▁switch	-10.4996
▁harsh	-10.4997
▁statement	-10.5002
▁Brian	-10.5012
▁Cinderella	-10.5013
▁ear	-10.5042
▁ST	-10.5043
town	-10.5045
rat	-10.505
Jo	-10.5055
▁exploit	-10.5055
cher	-10.5057
▁Murphy	-10.5058
▁service	-10.5058
▁Gordon	-10.5058
▁jerk	-10.5058
▁risk	-10.506
▁Fox	-10.506
▁rain	-10.506
▁vampires	-10.5062
ford	-10.5062
uous	-10.5063
▁page	-10.5069
hero	-10.507
▁flashbacks	-10.5077
▁Life	-10.5078
rac	-10.5082
▁dressed	-10.5091
▁learned	-10.5098
▁report	-10.5101
▁remembered	-10.5116
▁unconvincing	-10.5121
▁dubbed	-10.5121
▁calls	-10.5124
▁Caine	-10.5127
▁pur	-10.5139
▁deals	-10.5145
▁letter	-10.5151
▁captured	-10.5155
▁IT	-10.5156
▁perform	-10.5157
▁organ	-10.5163
▁rule	-10.5164
▁SO	-10.5166
▁sole	-10.5169
ush	-10.5183
▁Academy	-10.5184
▁combination	-10.5184
▁magnificent	-10.5184
▁veteran	-10.5184
▁section	-10.5184
▁cur	-10.5184
▁Edward	-10.5186
▁magical	-10.519
stein	-10.5191
key	-10.5192
▁table	-10.5192
ison	-10.5198
▁types	-10.5198
bal	-10.52
▁grave	-10.5205
hol	-10.5216
▁realism	-10.5217
▁traditional	-10.5217
▁circumstances	-10.522
cial	-10.5229
writer	-10.5232
▁wave	-10.5232
After	-10.524
ban	-10.5247
▁Broadway	-10.5248
▁environment	-10.5248
▁suffering	-10.525
▁blah	-10.525
rail	-10.5262
ked	-10.5265
▁theaters	-10.5271
ib	-10.5278
▁continues	-10.5287
▁Page	-10.5287
TE	-10.5297
nu	-10.5303
▁teenager	-10.5306
▁earn	-10.5308
▁Last	-10.531
▁Vietnam	-10.5312
▁identity	-10.5312
▁ensu	-10.5312
▁achieve	-10.5313
▁fo	-10.5313
▁Rose	-10.532
▁11	-10.532
▁Carol	-10.5322
▁walked	-10.5327
▁Moon	-10.5328
▁powers	-10.5333
▁Get	-10.5341
▁Kat	-10.5352
▁expression	-10.5356
▁murderer	-10.5362
▁figured	-10.5375
▁accents	-10.5375
▁Lincoln	-10.5376
▁ancient	-10.5376
▁category	-10.5376
▁sympathetic	-10.5376
▁theatrical	-10.5376
▁false	-10.5376
▁morning	-10.5376
▁shape	-10.5378
▁scar	-10.5379
▁feet	-10.538
▁hearing	-10.5385
▁Sadly	-10.539
▁bothered	-10.5394
▁stumbl	-10.5397
▁multi	-10.5399
▁drink	-10.5406
very	-10.5412
face	-10.5412
▁None	-10.5414
▁Ted	-10.5416
▁Germany	-10.5433
▁discuss	-10.5434
dom	-10.5438
▁wound	-10.5441
▁nightmare	-10.5441
▁kiss	-10.5442
▁Andy	-10.5449
200	-10.5452
▁dancer	-10.5463
▁Bra	-10.5482
ax	-10.5484
pan	-10.5502
▁sharp	-10.5507
▁merit	-10.5509
▁cell	-10.5515
▁ham	-10.5531
▁stretch	-10.554
▁discovers	-10.5541
▁exceptional	-10.5559
friend	-10.5562
cat	-10.5567
▁Dur	-10.5571
▁authentic	-10.5572
▁separate	-10.5573
▁prevent	-10.5573
▁crude	-10.5574
▁visuals	-10.5574
▁Freeman	-10.5574
▁nine	-10.5576
too	-10.5579
▁Never	-10.5581
▁humans	-10.5583
▁games	-10.5586
▁finest	-10.5587
▁Anna	-10.5602
▁witness	-10.5603
sci	-10.5604
lot	-10.5605
maker	-10.5608
aged	-10.5612
▁recognize	-10.5614
▁Sh	-10.5618
▁portraying	-10.5619
stand	-10.5625
▁whil	-10.5627
▁caused	-10.563
▁described	-10.5634
▁Europe	-10.5634
With	-10.5635
▁Canadian	-10.5639
▁obnoxious	-10.5639
▁structure	-10.5639
▁lawyer	-10.5639
▁Cage	-10.5647
▁lucky	-10.5665
girl	-10.5667
▁Had	-10.567
▁pity	-10.567
▁convinced	-10.5674
▁delight	-10.568
▁shocked	-10.5703
▁employ	-10.5704
▁neighbor	-10.5705
▁propaganda	-10.5705
▁Bourne	-10.5705
▁Plus	-10.5706
▁subplot	-10.5707
▁nut	-10.571
▁frankly	-10.5711
▁Year	-10.5712
▁Drew	-10.5712
▁Freddy	-10.572
ji	-10.5726
▁portrays	-10.5734
▁king	-10.5741
▁unfortunate	-10.5747
▁Marie	-10.5755
▁sheer	-10.5759
▁hype	-10.5762
▁reflect	-10.5764
▁warn	-10.5764
▁families	-10.5773
▁rival	-10.5773
▁downright	-10.578
▁Apparently	-10.578
zer	-10.5782
▁Saturday	-10.5782
▁resemble	-10.5785
▁Oliver	-10.5785
▁relie	-10.5787
ura	-10.5792
udi	-10.5795
fla	-10.58
Of	-10.5801
▁fool	-10.5808
hr	-10.5813
bot	-10.5821
▁Super	-10.5826
written	-10.5836
fest	-10.5837
▁Up	-10.5837
▁bodies	-10.584
▁peace	-10.584
▁technology	-10.584
▁1930	-10.5841
▁honor	-10.5841
▁bag	-10.5843
▁screenwriter	-10.5843
▁Trek	-10.5844
liners	-10.5846
▁Brad	-10.5849
▁chosen	-10.5849
▁werewolf	-10.5853
▁occasionally	-10.5866
---	-10.5866
ku	-10.5869
▁Ron	-10.5871
▁makeup	-10.5881
▁unlikely	-10.5881
▁ultimate	-10.5883
▁Cap	-10.5883
▁Kim	-10.5897
including	-10.5904
▁har	-10.5905
ese	-10.5907
▁significant	-10.5908
▁balance	-10.5908
▁Seagal	-10.5908
▁multiple	-10.5909
▁inspiration	-10.5909
▁buying	-10.5912
▁Walter	-10.5914
▁Robin	-10.5916
rid	-10.5918
matic	-10.5918
▁Halloween	-10.5924
▁HA	-10.5925
▁scale	-10.5925
US	-10.5929
▁brave	-10.5934
where	-10.5935
▁upset	-10.5938
▁sudden	-10.5952
▁hanging	-10.5954
een	-10.5966
▁dollars	-10.5971
▁sports	-10.5973
▁private	-10.5977
▁Texas	-10.5977
▁photo	-10.5977
▁Captain	-10.5977
▁crying	-10.5978
▁Anyone	-10.5979
!!!!!	-10.598
▁cla	-10.5981
▁sitcom	-10.5981
▁proud	-10.5981
hu	-10.5982
▁North	-10.5983
east	-10.5986
▁Island	-10.5988
ville	-10.5993
LA	-10.5997
▁depend	-10.5998
▁Del	-10.5999
ox	-10.6009
▁reporter	-10.6011
nor	-10.6013
▁ideal	-10.6015
▁Does	-10.602
▁steals	-10.6023
▁base	-10.6023
▁occasional	-10.6026
99	-10.6027
▁bus	-10.6032
▁largely	-10.6041
▁Branagh	-10.6046
▁excitement	-10.6046
▁reputation	-10.6046
▁patient	-10.6046
▁welcome	-10.6046
▁heaven	-10.6046
▁slave	-10.6046
▁accidentally	-10.6048
▁emotionally	-10.6049
▁underrated	-10.6049
▁buff	-10.605
▁broken	-10.6052
▁intellectual	-10.6053
▁Music	-10.6054
▁latest	-10.606
▁Come	-10.6061
sky	-10.6061
ale	-10.6063
▁defend	-10.6066
▁Hard	-10.6071
▁depict	-10.6075
gging	-10.6075
ium	-10.6088
▁initial	-10.609
▁strongly	-10.6094
nar	-10.6102
▁hire	-10.6106
▁Are	-10.6114
▁according	-10.6115
▁struggling	-10.6115
▁unfold	-10.6115
▁cheese	-10.6115
ured	-10.6115
▁Water	-10.6115
2)	-10.6118
▁Baby	-10.6119
▁winner	-10.6119
beat	-10.6122
▁Columbo	-10.6123
▁Grand	-10.6124
▁sentimental	-10.6132
▁sequels	-10.6136
▁mistakes	-10.6145
▁viewed	-10.6147
ella	-10.6152
▁san	-10.616
▁opens	-10.6162
▁renting	-10.6181
▁Dean	-10.6182
▁danger	-10.6183
▁dinosaur	-10.6185
▁ashamed	-10.6185
▁Kid	-10.6187
▁bullet	-10.6189
▁critic	-10.6191
▁virtually	-10.6191
▁obsessed	-10.6194
▁Actually	-10.6198
▁Again	-10.6198
▁UK	-10.6198
▁ya	-10.6198
▁repeated	-10.6203
▁shut	-10.6205
▁solve	-10.621
▁complaint	-10.6217
▁depicted	-10.6218
▁noise	-10.6235
made	-10.6239
▁Sw	-10.6239
Par	-10.6241
class	-10.6254
▁reject	-10.6255
place	-10.6256
▁Kong	-10.6259
▁End	-10.6259
▁preach	-10.6261
bit	-10.6262
▁truck	-10.6263
▁Barbara	-10.6267
▁En	-10.6268
▁Max	-10.6269
▁exploitation	-10.6271
hood	-10.6275
▁Ab	-10.628
▁wear	-10.629
ural	-10.6296
▁handled	-10.6298
▁cartoons	-10.6307
▁Ku	-10.6308
core	-10.6309
any	-10.631
▁ignore	-10.6314
▁chose	-10.6317
▁fly	-10.6325
From	-10.6325
▁department	-10.6326
▁explosion	-10.6326
▁turkey	-10.6326
▁prior	-10.6326
walk	-10.6327
▁miscast	-10.6327
▁mock	-10.6333
▁cares	-10.6337
▁Before	-10.6341
▁satisfying	-10.6342
▁Stan	-10.6349
▁Cro	-10.6349
▁standing	-10.6352
▁heck	-10.6357
▁Much	-10.6361
▁stone	-10.6361
pin	-10.6373
▁Kill	-10.6376
▁believed	-10.638
▁claims	-10.6381
take	-10.6385
ami	-10.6388
▁del	-10.6391
Con	-10.6392
▁VERY	-10.6398
▁associate	-10.6398
▁Evil	-10.6398
▁baseball	-10.6398
Just	-10.6399
▁maintain	-10.6403
▁Space	-10.6403
▁previously	-10.6409
void	-10.641
IL	-10.6414
▁sounded	-10.6415
▁temp	-10.6418
▁Wars	-10.6432
▁burn	-10.6439
▁stink	-10.6444
▁Being	-10.6444
wolf	-10.6459
▁Have	-10.6467
▁YOU	-10.6467
▁sheriff	-10.647
Anyway	-10.647
▁slapstick	-10.647
▁task	-10.647
Star	-10.6471
▁finger	-10.6472
▁weekend	-10.6472
▁worthwhile	-10.6472
▁trial	-10.6472
▁handsome	-10.6474
▁stayed	-10.6479
▁Over	-10.648
▁bond	-10.6483
▁mindless	-10.6496
▁lie	-10.6498
▁stupidity	-10.65
▁Award	-10.6503
hand	-10.651
▁Bur	-10.651
▁spoilers	-10.6512
▁su	-10.6512
called	-10.6524
▁/>*	-10.6525
illian	-10.6526
▁talks	-10.6527
▁seasons	-10.6541
▁Festival	-10.6542
▁contemporary	-10.6542
▁security	-10.6542
▁nominated	-10.6542
▁stereotypical	-10.6542
▁jail	-10.6543
▁screw	-10.6543
grade	-10.6544
watch	-10.6545
▁besides	-10.6546
▁forces	-10.6548
▁required	-10.656
▁trap	-10.6561
▁cu	-10.6572
▁allows	-10.6572
▁pack	-10.6574
ena	-10.658
err	-10.659
▁Roger	-10.6605
▁eating	-10.6606
▁exact	-10.6607
live	-10.6613
▁glimpse	-10.6615
▁politics	-10.6615
▁position	-10.6615
▁Ryan	-10.6615
▁Susan	-10.6615
▁Brando	-10.6616
▁equal	-10.6622
▁stunt	-10.6626
▁birth	-10.6627
Let	-10.6627
▁touches	-10.6632
▁comical	-10.6632
▁poster	-10.6644
▁training	-10.6646
▁faithful	-10.6653
ui	-10.6668
▁originality	-10.6668
▁25	-10.667
yo	-10.6671
▁Brothers	-10.668
▁blatant	-10.6689
▁narration	-10.6689
▁gather	-10.6689
▁Dream	-10.6689
except	-10.6691
▁Wayne	-10.6692
▁invest	-10.6692
▁dirty	-10.6697
hal	-10.6697
▁angles	-10.6698
▁flu	-10.6705
▁About	-10.6707
▁focused	-10.671
▁gal	-10.6732
gue	-10.6743
▁racist	-10.6763
▁funnier	-10.6763
▁General	-10.6763
▁oppos	-10.6763
▁Russell	-10.6763
▁twin	-10.6764
▁sentence	-10.6765
after	-10.6766
▁stolen	-10.6767
ological	-10.6767
▁ironic	-10.6769
▁wake	-10.6769
▁embarrassed	-10.6771
▁depiction	-10.6771
▁mildly	-10.6779
▁anger	-10.6784
▁Sir	-10.679
▁lift	-10.6791
tta	-10.6811
▁Bri	-10.6812
▁den	-10.6814
▁brilliantly	-10.682
▁pin	-10.6822
hop	-10.6822
▁ju	-10.6825
▁relation	-10.6837
▁Widmark	-10.6837
▁frightening	-10.6837
▁Child	-10.6837
▁Holmes	-10.6839
dimensional	-10.684
▁spite	-10.6846
▁halfway	-10.6848
▁Vampire	-10.6848
▁cutting	-10.6851
▁Bud	-10.6855
spiring	-10.6855
▁Hal	-10.6867
▁driver	-10.6882
▁influence	-10.6884
▁India	-10.6886
Go	-10.689
bar	-10.6891
Yes	-10.6891
eb	-10.6893
▁Han	-10.6902
pic	-10.6902
▁strip	-10.6912
▁refreshing	-10.6913
▁stomach	-10.6913
▁swear	-10.6913
▁guest	-10.6913
▁Sometimes	-10.6913
▁blend	-10.6913
▁slap	-10.6913
▁summary	-10.6913
▁outfit	-10.6914
▁criticism	-10.6914
▁Lion	-10.6921
▁amazed	-10.6921
▁settle	-10.6925
fight	-10.6926
▁Yeah	-10.6933
▁Christ	-10.6955
ano	-10.6966
▁bitter	-10.6967
▁sink	-10.6974
▁fits	-10.6984
▁Joseph	-10.6988
▁mainstream	-10.6988
▁understood	-10.6988
▁supernatural	-10.6988
▁landscape	-10.6989
▁preview	-10.6989
▁nude	-10.6991
▁surprises	-10.6991
▁prime	-10.6991
▁fix	-10.6992
▁Australian	-10.6993
name	-10.6997
Who	-10.7006
▁combined	-10.701
▁Lewis	-10.7014
Car	-10.7016
▁dude	-10.702
▁pot	-10.7021
▁speaks	-10.7022
▁format	-10.7024
lace	-10.7032
▁covered	-10.7053
try	-10.7055
▁horrendous	-10.7065
▁interpretation	-10.7065
▁lazy	-10.7065
▁confess	-10.7065
▁surface	-10.7066
▁slip	-10.7067
▁link	-10.7067
▁Sky	-10.7076
▁paying	-10.7078
▁insist	-10.7079
▁sensitive	-10.7079
dding	-10.7084
▁Blue	-10.7086
▁teenagers	-10.7097
▁Gi	-10.71
▁Eva	-10.7101
▁Mol	-10.7103
▁Finally	-10.7113
ending	-10.7117
▁provided	-10.7128
▁insulting	-10.7134
▁succeed	-10.7135
▁Victor	-10.7136
▁bath	-10.7138
▁network	-10.7142
▁Sunday	-10.7142
▁facial	-10.7142
▁virgin	-10.7142
▁BBC	-10.7142
▁Brooks	-10.7142
▁shark	-10.7142
▁afternoon	-10.7142
▁BAD	-10.7142
▁Otherwise	-10.7142
▁chain	-10.7143
▁massive	-10.7144
arian	-10.7149
▁surrounding	-10.7153
▁Howard	-10.7157
losing	-10.716
▁Ned	-10.7164
▁stranger	-10.7167
▁critical	-10.7169
▁via	-10.7177
▁fatal	-10.7181
▁Live	-10.7181
gun	-10.7185
▁BE	-10.721
olog	-10.7211
▁Cusack	-10.7219
▁Hitchcock	-10.7219
▁argument	-10.7219
▁distinct	-10.7219
▁pregnant	-10.7219
▁teeth	-10.7219
▁uniform	-10.7219
▁advise	-10.7219
▁basis	-10.7219
▁competent	-10.7219
▁Your	-10.7219
▁1960	-10.722
▁committed	-10.7222
▁Army	-10.7222
Watch	-10.7225
▁string	-10.7229
▁fictional	-10.723
▁Fay	-10.7233
fire	-10.7242
▁Hardy	-10.7246
MA	-10.7247
▁WW	-10.7251
miss	-10.7251
unch	-10.7254
▁serves	-10.7255
mic	-10.7259
▁weeks	-10.726
urg	-10.7262
▁warned	-10.7263
▁delivery	-10.7267
▁receive	-10.7273
▁connect	-10.7278
Ba	-10.7283
▁offered	-10.7291
▁listening	-10.7293
▁designed	-10.7295
▁Especially	-10.7297
▁retarded	-10.7297
▁Derek	-10.7297
▁States	-10.7298
▁broad	-10.7298
▁Under	-10.7301
▁creatures	-10.7302
q	-10.7303
▁Burton	-10.7303
▁boot	-10.7305
vision	-10.7306
▁terrorist	-10.7309
▁Back	-10.7317
tech	-10.7317
▁experienced	-10.733
▁inner	-10.7341
body	-10.7342
▁Mer	-10.7345
▁flop	-10.7345
AM	-10.7346
nnie	-10.7348
▁indie	-10.7355
ini	-10.7355
▁Hank	-10.7359
▁closer	-10.7367
eck	-10.7373
AY	-10.7375
▁appalling	-10.7376
▁description	-10.7376
▁disbelief	-10.7376
▁sacrifice	-10.7376
▁sympathy	-10.7376
▁trilogy	-10.7376
while	-10.738
▁Old	-10.7381
▁goofy	-10.7387
▁Friday	-10.7388
▁invite	-10.7393
▁Basically	-10.7397
exp	-10.7406
TER	-10.7408
iest	-10.7411
▁twisted	-10.7413
▁pretend	-10.7419
▁Jay	-10.7432
▁17	-10.7436
▁hunter	-10.7436
▁hip	-10.744
▁Lou	-10.744
ani	-10.744
▁directly	-10.7441
▁castle	-10.7445
▁campy	-10.7449
eff	-10.7453
▁introduction	-10.7455
▁treasure	-10.7455
▁evident	-10.7455
▁subtitles	-10.7455
▁Channel	-10.7455
▁neat	-10.7456
▁cave	-10.7457
▁chair	-10.7457
hard	-10.7459
▁10/10	-10.746
▁Way	-10.7464
▁haunted	-10.7466
▁suspenseful	-10.7474
▁USA	-10.7475
▁tear	-10.7477
▁passing	-10.748
▁strict	-10.748
win	-10.748
zing	-10.749
▁trans	-10.7492
▁tradition	-10.7493
▁desperately	-10.7497
▁Woody	-10.75
▁goal	-10.7501
▁char	-10.7509
▁idiotic	-10.7513
thing	-10.7529
▁Picture	-10.7535
▁international	-10.7535
▁jealous	-10.7535
▁Bettie	-10.7535
▁method	-10.7535
▁contact	-10.7536
▁dump	-10.7538
▁hunt	-10.7538
world	-10.7544
▁throwing	-10.755
▁properly	-10.7569
▁Cal	-10.7573
▁Mont	-10.7574
▁affect	-10.7576
▁performed	-10.7577
cal	-10.758
▁plant	-10.7581
ppy	-10.7584
▁Fra	-10.7593
ONE	-10.7595
▁creep	-10.7596
OK	-10.7602
▁SH	-10.7605
▁dare	-10.7606
▁forth	-10.7615
▁Pacino	-10.7616
▁heavily	-10.7616
▁carrie	-10.7616
ification	-10.7617
▁assistant	-10.7617
▁ticket	-10.7617
▁forgot	-10.7618
Another	-10.7625
▁pet	-10.7625
zi	-10.7628
▁Jennifer	-10.7628
SS	-10.7632
▁spoiler	-10.7634
▁Eli	-10.7647
▁rules	-10.7653
▁Die	-10.7666
▁admire	-10.7677
list	-10.7679
▁teens	-10.7681
▁Guy	-10.7688
▁MA	-10.7695
▁hysterical	-10.7697
▁incoherent	-10.7697
▁widow	-10.7697
▁chief	-10.7697
▁Cooper	-10.7697
▁damage	-10.7697
▁alright	-10.7698
▁Cinema	-10.7698
▁minimal	-10.7698
):	-10.7706
▁Reed	-10.7707
mill	-10.7712
▁serve	-10.7714
▁reward	-10.7714
▁streets	-10.7721
▁gag	-10.7732
aries	-10.7732
▁theory	-10.7736
▁pitch	-10.7738
▁16	-10.7739
▁Dog	-10.7745
▁walks	-10.7748
▁explore	-10.7751
▁thrill	-10.7764
ease	-10.7767
▁creates	-10.7769
▁visually	-10.777
▁painting	-10.7772
▁Gun	-10.7773
▁Andrews	-10.7774
▁monkey	-10.778
▁skit	-10.778
▁fond	-10.7781
▁nose	-10.7785
▁learns	-10.779
▁Someone	-10.7791
▁featured	-10.7792
▁guilty	-10.7793
▁captures	-10.7813
▁awards	-10.7827
fall	-10.783
▁fairy	-10.7832
▁Doo	-10.7838
▁0	-10.784
▁Louis	-10.7851
▁Gen	-10.7857
▁Arnold	-10.7862
▁worry	-10.7862
▁plastic	-10.7862
▁United	-10.7862
▁FBI	-10.7862
▁Reeve	-10.7862
▁Falk	-10.7862
▁defeat	-10.7863
ux	-10.7864
▁Devil	-10.7864
▁everywhere	-10.7867
▁Warner	-10.7868
▁cook	-10.787
▁rolling	-10.7878
▁screening	-10.7879
▁EVER	-10.7885
▁cringe	-10.7896
ju	-10.7897
▁hired	-10.7897
▁Lake	-10.7909
itting	-10.7911
OU	-10.7912
▁Val	-10.7914
▁bound	-10.7922
▁wanna	-10.7943
▁mirror	-10.7945
▁tremendous	-10.7945
▁gentle	-10.7945
▁buddy	-10.795
▁boredom	-10.795
▁Sil	-10.7956
something	-10.7958
▁Elizabeth	-10.7958
Although	-10.7958
▁transform	-10.796
▁Wi	-10.796
▁blown	-10.7965
▁Besides	-10.7965
▁Later	-10.7965
▁plans	-10.7966
..."	-10.7978
▁Add	-10.798
▁vs	-10.7984
▁mentally	-10.7993
▁calling	-10.7994
▁naturally	-10.8006
▁metal	-10.8012
▁occasion	-10.8021
▁Bond	-10.8026
cept	-10.8026
▁Bollywood	-10.8029
▁credibility	-10.8029
▁disagree	-10.8029
▁horrific	-10.8029
▁spark	-10.8029
▁Jessica	-10.803
▁cliche	-10.8032
▁resist	-10.8032
▁Play	-10.8036
avi	-10.8041
▁wreck	-10.8045
▁escapes	-10.8059
▁auto	-10.8061
▁Ever	-10.807
▁Take	-10.8071
nie	-10.8086
shot	-10.8094
ching	-10.8109
▁melodrama	-10.8112
▁Curtis	-10.8114
▁virus	-10.8114
▁status	-10.8114
▁changing	-10.8114
▁corpse	-10.8114
▁Ritter	-10.8114
▁REALLY	-10.8114
▁health	-10.8114
▁1990	-10.8115
▁crush	-10.8115
▁Chuck	-10.8115
▁trite	-10.8116
horror	-10.8127
▁Jon	-10.8127
▁presentation	-10.8128
▁Hunter	-10.8135
▁attacked	-10.8142
raw	-10.8143
▁HE	-10.8143
▁Movies	-10.8143
▁criminals	-10.8146
Un	-10.8149
load	-10.8152
Pro	-10.8154
▁mass	-10.8155
▁shower	-10.8159
▁related	-10.8159
▁Home	-10.8164
ppe	-10.8169
▁leg	-10.817
▁flashback	-10.8175
▁core	-10.8181
▁Jar	-10.8183
fect	-10.8187
▁Africa	-10.819
▁scares	-10.8191
▁corrupt	-10.8196
▁cruel	-10.8197
▁LOVE	-10.8199
▁fabulous	-10.8199
▁guarantee	-10.8199
▁holiday	-10.8199
▁contract	-10.82
▁pulls	-10.82
▁football	-10.82
▁uncomfortable	-10.8201
▁Pitt	-10.8201
▁1/10	-10.8204
ology	-10.8205
▁Long	-10.8206
▁overcome	-10.8206
▁nail	-10.8211
Com	-10.8211
▁Master	-10.8211
▁Ball	-10.8212
▁Patrick	-10.8214
▁caring	-10.8224
▁myth	-10.8228
▁carried	-10.823
▁compar	-10.823
Me	-10.8237
▁lab	-10.824
▁destroyed	-10.8255
pac	-10.8256
uh	-10.8262
▁stereotype	-10.8262
▁spa	-10.8263
starred	-10.8268
▁establish	-10.827
▁**	-10.8271
▁:)	-10.8274
ched	-10.8275
▁collect	-10.8279
▁California	-10.8286
▁queen	-10.8286
▁vast	-10.8286
▁neighborhood	-10.8286
▁Vega	-10.8286
▁Satan	-10.8288
▁lust	-10.8289
▁hack	-10.8289
▁address	-10.829
▁Alice	-10.829
▁laid	-10.8294
stone	-10.8296
known	-10.83
▁Rogers	-10.83
▁throws	-10.8303
▁appreciated	-10.8307
▁hill	-10.8309
▁decades	-10.832
▁sur	-10.8324
▁Boll	-10.833
signed	-10.8334
▁drinking	-10.8334
story	-10.8342
▁capital	-10.8346
▁reference	-10.8354
▁reveal	-10.837
▁Scooby	-10.8373
▁Simpson	-10.8373
▁Stanwyck	-10.8373
▁Universal	-10.8373
▁universe	-10.8373
▁President	-10.8373
▁Irish	-10.8374
▁closing	-10.8374
▁ripped	-10.8375
▁Actor	-10.8376
▁stiff	-10.8376
▁spoken	-10.8378
▁toilet	-10.8379
ith	-10.8383
▁abandoned	-10.8392
wing	-10.8393
▁poke	-10.8396
▁sleeping	-10.8397
▁prepared	-10.8404
▁fur	-10.8406
ished	-10.8417
▁Fl	-10.8421
▁wander	-10.8425
19	-10.8442
▁tit	-10.8443
coming	-10.8443
▁placed	-10.8445
▁nation	-10.8451
vic	-10.8452
▁realise	-10.8455
▁MAN	-10.846
▁principal	-10.846
▁storytelling	-10.846
▁credible	-10.846
▁dubbing	-10.846
▁ANY	-10.846
▁cultural	-10.8461
▁specific	-10.8462
▁China	-10.8462
▁shout	-10.8469
▁meaningful	-10.847
▁lip	-10.8475
▁reminiscen	-10.8476
▁Miller	-10.8478
▁Leon	-10.8478
▁Seriously	-10.8484
scene	-10.8485
look	-10.8495
dragged	-10.8496
▁connected	-10.8497
60	-10.8512
SH	-10.8517
▁introduce	-10.852
Sha	-10.8521
▁refer	-10.8523
▁weapons	-10.8524
utter	-10.8532
▁extras	-10.8533
▁Land	-10.8539
▁confront	-10.8546
▁confusion	-10.8549
▁gruesome	-10.8549
▁MGM	-10.8549
▁steam	-10.8549
▁Phillip	-10.8549
▁Karloff	-10.8549
era	-10.855
▁trapped	-10.855
▁Stanley	-10.855
▁angel	-10.8552
fan	-10.8557
▁interaction	-10.8558
▁Jan	-10.8563
▁moon	-10.8571
▁replaced	-10.8575
▁bug	-10.8582
acted	-10.8584
itz	-10.8584
▁Rod	-10.8586
▁redeem	-10.8586
▁Raj	-10.8596
▁Mann	-10.8613
By	-10.8618
▁learning	-10.8622
bie	-10.8628
▁Cole	-10.8632
▁proceed	-10.8637
▁advantage	-10.8638
▁franchise	-10.8638
▁caricature	-10.8638
Spoiler	-10.8638
▁resort	-10.8638
▁mature	-10.8638
▁Kurt	-10.8638
▁measure	-10.8639
▁threaten	-10.864
▁alter	-10.8641
▁3/10	-10.8643
▁Blair	-10.8643
▁aliens	-10.8653
▁annoyed	-10.8654
▁drivel	-10.866
▁focuses	-10.8664
▁Three	-10.8665
▁limit	-10.8695
▁paced	-10.8697
▁feed	-10.8702
▁enjoying	-10.8708
▁Fer	-10.8717
Dr	-10.8718
▁angle	-10.872
▁purely	-10.872
▁explains	-10.8721
▁extent	-10.8728
▁parent	-10.8729
▁anime	-10.8729
▁legendary	-10.873
▁Baker	-10.8731
▁Cuba	-10.8731
▁complicated	-10.8732
▁imagery	-10.8732
▁2000	-10.8732
▁River	-10.8733
agon	-10.8733
▁render	-10.8736
comedy	-10.8743
pel	-10.8746
▁endure	-10.8753
▁Fan	-10.8758
▁Real	-10.8761
gged	-10.8762
▁Jess	-10.8769
▁raised	-10.877
▁clips	-10.8774
▁sin	-10.8777
▁rid	-10.8791
Ne	-10.8791
Li	-10.8792
▁hundred	-10.881
▁Mexican	-10.8819
▁Spielberg	-10.8819
▁benefit	-10.8819
▁exercise	-10.8819
▁pseudo	-10.8819
▁timing	-10.8819
▁ABC	-10.8819
▁Winter	-10.8819
▁medical	-10.8821
▁Sorry	-10.883
▁ego	-10.8831
▁press	-10.8841
▁useless	-10.8847
▁served	-10.8851
▁bla	-10.8853
▁lying	-10.8854
▁craft	-10.8856
▁Ren	-10.8862
human	-10.8862
▁cheer	-10.8866
See	-10.8874
▁effectively	-10.8891
▁Bla	-10.8891
▁torn	-10.8893
▁broke	-10.8904
▁Astaire	-10.8911
▁expensive	-10.8911
▁guide	-10.8911
▁beloved	-10.8911
▁transfer	-10.8911
▁tiny	-10.892
direct	-10.8923
▁lit	-10.8926
▁thru	-10.8929
Michael	-10.8931
▁homeless	-10.894
80	-10.8941
▁incident	-10.8946
kh	-10.8948
▁stinker	-10.8949
▁Dad	-10.8953
Final	-10.8961
▁hole	-10.8966
▁gift	-10.8971
▁Mil	-10.8986
▁successfully	-10.8989
▁triumph	-10.9003
▁striking	-10.9003
▁variety	-10.9003
▁Summer	-10.9003
▁outrageous	-10.9004
▁neck	-10.9004
▁marvelous	-10.9004
▁freedom	-10.9005
▁Jewish	-10.9005
▁Something	-10.9005
▁Heston	-10.9006
▁attempting	-10.9009
▁Fair	-10.9013
▁curse	-10.9014
▁Burt	-10.9017
▁guts	-10.9025
craft	-10.9026
▁ice	-10.9033
▁enjoyment	-10.9036
▁driven	-10.9037
▁define	-10.9043
▁causes	-10.9052
▁miles	-10.9057
Mr	-10.9061
verse	-10.9062
▁Son	-10.9067
▁deeper	-10.9067
▁Prince	-10.9078
▁bone	-10.9086
▁tie	-10.909
▁weight	-10.9092
boo	-10.9093
30	-10.9094
▁gritty	-10.9097
▁knife	-10.9097
▁necessarily	-10.9097
▁obsession	-10.9097
▁sketch	-10.9097
▁throat	-10.9097
▁courage	-10.9097
▁chuckle	-10.9097
▁Heaven	-10.9097
▁disguise	-10.9097
▁ultra	-10.9097
▁Elvis	-10.9097
▁river	-10.9097
▁tongue	-10.9097
▁Navy	-10.9099
▁Shaw	-10.91
▁remark	-10.9101
▁Candy	-10.9102
▁nomination	-10.9108
END	-10.9111
power	-10.9119
▁Nu	-10.9126
▁tied	-10.9127
why	-10.913
worthy	-10.9135
▁Acting	-10.9135
▁demonstrate	-10.9146
▁Poor	-10.9153
▁arch	-10.9155
▁unre	-10.916
elli	-10.9161
▁Law	-10.9162
▁severe	-10.9173
IE	-10.9176
▁hoped	-10.9182
▁Brosnan	-10.9191
▁Catholic	-10.9191
▁encourage	-10.9191
▁enhance	-10.9191
▁magazine	-10.9191
▁WWII	-10.9191
▁promote	-10.9192
▁profound	-10.9192
▁touched	-10.9193
▁East	-10.9193
▁hideous	-10.9194
▁flip	-10.9196
▁Pan	-10.9197
▁Hugh	-10.9198
▁Bell	-10.9202
▁revolves	-10.9203
▁pit	-10.9203
▁fade	-10.9204
▁everyday	-10.9208
▁Bat	-10.9209
▁AT	-10.9212
▁Sar	-10.9213
video	-10.9214
▁national	-10.9217
▁deadly	-10.9224
▁border	-10.9233
▁Give	-10.9235
▁Make	-10.9236
▁size	-10.924
other	-10.9247
▁possess	-10.9247
▁Mill	-10.925
▁sold	-10.9268
▁amazingly	-10.9276
▁wh	-10.9285
*1/2	-10.9286
▁Carpenter	-10.9286
▁Verhoeven	-10.9286
▁executive	-10.9286
▁poignant	-10.9286
▁cannibal	-10.9286
▁official	-10.9287
glo	-10.9287
▁Sarah	-10.9287
▁month	-10.9291
▁sport	-10.9299
▁Ghost	-10.9301
▁lonely	-10.9302
▁Definitely	-10.9305
pol	-10.9307
Maybe	-10.931
▁locked	-10.9313
▁Johnson	-10.9314
▁ghosts	-10.9324
▁Sal	-10.9334
▁Cook	-10.9349
uri	-10.9363
▁***	-10.9367
▁guessing	-10.9372
▁performers	-10.9374
▁Bel	-10.9376
▁dynamic	-10.9383
▁puppet	-10.9383
▁quirky	-10.9383
▁sleazy	-10.9383
▁Family	-10.9383
▁Police	-10.9383
▁consequence	-10.9383
▁miserably	-10.9383
▁Goldberg	-10.9383
▁devil	-10.9383
▁tele	-10.9383
▁Burns	-10.9383
▁uninspired	-10.9384
▁melodramatic	-10.9385
▁basement	-10.9386
▁achievement	-10.9387
▁Julia	-10.9388
lee	-10.939
▁dollar	-10.939
▁nerd	-10.9395
▁beast	-10.9396
▁haunting	-10.9397
▁dear	-10.9401
ify	-10.9402
▁emerge	-10.9408
Paul	-10.9408
▁interviews	-10.9412
lous	-10.9414
▁worthless	-10.9419
▁Bon	-10.9423
dead	-10.9428
RY	-10.9429
▁Kar	-10.9434
▁wishes	-10.9439
did	-10.9443
40	-10.9443
▁engage	-10.9451
▁replace	-10.9459
▁carrying	-10.9461
▁helping	-10.9475
▁quest	-10.9476
▁Chaplin	-10.948
▁adequate	-10.948
▁Nelson	-10.948
▁cousin	-10.948
▁smoke	-10.948
▁endearing	-10.948
hour	-10.948
▁fortune	-10.948
▁bridge	-10.9481
▁wannabe	-10.9482
▁Jew	-10.9484
▁Italy	-10.9488
▁pool	-10.9488
▁breaking	-10.9489
▁Phil	-10.9491
▁storm	-10.9501
from	-10.9506
zzy	-10.9527
▁cameos	-10.9528
▁harm	-10.9533
▁Sen	-10.9534
▁opened	-10.9537
▁SPOILERS	-10.9541
own	-10.9542
▁spy	-10.9548
only	-10.955
▁practice	-10.9559
kov	-10.9561
▁generous	-10.9578
▁thumb	-10.9578
▁Fonda	-10.9578
▁investigate	-10.9578
▁library	-10.9578
▁pursue	-10.9578
▁trauma	-10.9578
▁adopt	-10.9578
▁behave	-10.9578
▁blank	-10.9578
▁Walken	-10.9579
▁countries	-10.9579
▁4/10	-10.9581
▁fianc	-10.9581
▁wears	-10.9582
▁countless	-10.9585
▁Witch	-10.9586
▁mate	-10.9587
▁Whatever	-10.9602
oooo	-10.9604
▁Helen	-10.9608
▁pee	-10.9616
handed	-10.9616
minded	-10.9616
eth	-10.9617
done	-10.9622
going	-10.9623
▁PG	-10.9636
▁lessons	-10.9641
pressed	-10.9648
▁intent	-10.9672
▁Dennis	-10.9677
▁Probably	-10.9677
▁backdrop	-10.9677
▁imaginative	-10.9677
▁slaughter	-10.9677
▁relax	-10.9677
▁cowboy	-10.9677
▁argue	-10.9677
▁cardboard	-10.9677
▁shoe	-10.9678
▁Dragon	-10.9678
▁personalities	-10.9679
▁Morris	-10.968
▁pray	-10.9682
▁Rain	-10.9682
▁block	-10.9683
▁lake	-10.9684
▁Hong	-10.9685
etti	-10.9698
▁Rick	-10.9701
▁disappoint	-10.9705
minute	-10.9707
version	-10.9708
▁drags	-10.9721
▁Flo	-10.9727
▁Ram	-10.9728
▁Age	-10.9733
▁Maria	-10.9758
▁stunts	-10.9762
ogue	-10.9763
▁nu	-10.9765
▁90'	-10.9767
▁charisma	-10.9775
conceived	-10.9777
▁Mexico	-10.9777
▁Rachel	-10.9777
▁sidekick	-10.9777
▁superficial	-10.9777
▁School	-10.9777
▁scratch	-10.9777
▁vivid	-10.9777
▁Laurel	-10.9777
▁identify	-10.9777
▁Altman	-10.9777
▁broadcast	-10.9777
▁Philip	-10.9778
▁daily	-10.9779
▁Soon	-10.9779
▁Think	-10.9779
▁flee	-10.9781
▁Knight	-10.9781
▁proof	-10.9784
▁determined	-10.9786
▁cabin	-10.9786
▁trade	-10.9787
▁Hat	-10.9787
▁height	-10.9788
▁wealthy	-10.9792
▁thousand	-10.9796
▁reveals	-10.9801
▁Grade	-10.9804
bound	-10.9805
▁expressions	-10.9816
▁thrilling	-10.9821
ique	-10.9826
pass	-10.9828
NO	-10.9828
▁tense	-10.9834
make	-10.9838
gal	-10.984
▁impress	-10.9841
▁bucks	-10.9841
▁user	-10.9841
une	-10.9846
▁Pie	-10.9848
▁combine	-10.9849
▁Cho	-10.9858
▁tea	-10.9864
▁spending	-10.9866
▁addict	-10.9872
▁contribute	-10.9878
▁curiosity	-10.9878
▁fifteen	-10.9878
▁underground	-10.9878
▁unwatchable	-10.9878
▁Kirk	-10.9878
▁firm	-10.9878
▁shift	-10.9878
▁drown	-10.9878
▁Science	-10.988
▁Powell	-10.9882
▁shake	-10.9882
▁arrives	-10.9884
▁Rome	-10.9885
▁overdone	-10.9887
▁bin	-10.9888
▁cynical	-10.9889
▁breasts	-10.9893
▁fallen	-10.99
aka	-10.9902
▁teach	-10.9902
when	-10.9908
acting	-10.991
▁beating	-10.9915
motion	-10.9918
▁grim	-10.9929
count	-10.9937
▁succeeds	-10.9945
▁accomplish	-10.9947
▁dire	-10.9958
kill	-10.9963
stead	-10.9969
characterization	-10.9971
▁revolution	-10.9979
▁abysmal	-10.998
▁companion	-10.998
▁invisible	-10.998
▁response	-10.998
▁splendid	-10.998
▁stylish	-10.998
▁intensity	-10.998
▁attached	-10.998
▁president	-10.998
▁homosexual	-10.998
▁sneak	-10.998
▁Consider	-10.998
▁Donald	-10.998
▁Hartley	-10.9981
▁Strange	-10.9982
lated	-10.9985
▁Khan	-10.9985
▁Check	-10.9986
▁mob	-10.9988
▁Duke	-10.9989
▁sky	-10.9989
▁childish	-10.9996
eur	-11.0001
!!!!!!	-11.0005
▁corner	-11.0006
▁Laura	-11.0007
▁Fall	-11.0014
▁Ye	-11.0023
▁Stiller	-11.0029
hoo	-11.0037
▁distract	-11.0039
▁adapt	-11.0047
Here	-11.0057
rich	-11.0061
▁split	-11.0061
▁aired	-11.0064
▁origin	-11.0075
▁checking	-11.0076
▁Ten	-11.0079
pot	-11.0079
▁oil	-11.0081
▁blockbuster	-11.0083
▁horrid	-11.0083
▁narrator	-11.0083
▁breathtaking	-11.0083
▁homage	-11.0083
▁function	-11.0083
▁racism	-11.0083
▁Lucas	-11.0083
▁irony	-11.0083
▁CIA	-11.0083
▁hiding	-11.0083
▁portion	-11.0083
▁abrupt	-11.0083
jack	-11.0084
▁disease	-11.0085
▁Korean	-11.0086
▁True	-11.0086
▁Arab	-11.0087
▁hundreds	-11.0093
▁Kris	-11.0094
▁Hope	-11.0094
▁surrounded	-11.0096
title	-11.0098
▁sexually	-11.0102
▁60'	-11.0106
▁Hamlet	-11.0107
▁Ve	-11.0108
▁weapon	-11.0112
RU	-11.0113
Unfortunately	-11.0115
bird	-11.0117
▁rob	-11.0118
▁urge	-11.0118
▁Our	-11.0118
▁Run	-11.0125
95	-11.0128
cop	-11.0135
rise	-11.0137
▁Lin	-11.0145
▁segments	-11.0147
▁appearing	-11.0147
▁protagonists	-11.015
▁cup	-11.0154
▁attempted	-11.0162
▁thousands	-11.0167
▁favour	-11.0187
▁climb	-11.0187
▁atmospheric	-11.0187
▁enormous	-11.0187
▁happily	-11.0187
▁installment	-11.0187
▁subsequent	-11.0187
▁tribute	-11.0187
▁unpleasant	-11.0187
▁Claire	-11.0187
▁Dawson	-11.0187
▁dinner	-11.0187
▁nurse	-11.0187
▁fulfill	-11.0188
▁kidnapped	-11.0188
▁superhero	-11.0188
▁entry	-11.0189
▁snow	-11.0189
▁resemblance	-11.019
▁drum	-11.0192
▁Saw	-11.0192
ada	-11.0192
▁Lauren	-11.0194
▁madness	-11.0199
▁Obviously	-11.0201
▁sexuality	-11.0201
vid	-11.0203
▁fired	-11.0206
▁belongs	-11.0211
now	-11.0215
▁brand	-11.0219
▁swi	-11.0222
▁refuses	-11.0229
▁buck	-11.0234
▁row	-11.024
▁listed	-11.0247
nia	-11.0267
▁spare	-11.0269
▁wondered	-11.0275
▁glass	-11.0285
▁drawing	-11.0291
▁accepted	-11.0292
▁Franco	-11.0292
▁believing	-11.0292
▁thirty	-11.0292
▁clown	-11.0292
▁Could	-11.0292
▁afford	-11.0292
▁Farrell	-11.0292
▁slug	-11.0293
▁prostitute	-11.0293
▁1940	-11.0293
▁Michelle	-11.0295
▁mansion	-11.0296
ANT	-11.0297
▁Unlike	-11.0297
uction	-11.0298
▁editor	-11.0299
new	-11.03
▁pla	-11.03
▁Murder	-11.0309
▁frequently	-11.0309
▁handful	-11.0311
▁unintentionally	-11.0314
▁react	-11.032
▁Return	-11.0321
▁rushed	-11.0323
drama	-11.0325
▁legs	-11.0327
▁letting	-11.0327
▁Such	-11.0328
▁beach	-11.0332
ific	-11.0335
book	-11.0358
▁essential	-11.0374
ept	-11.0374
wait	-11.0388
▁league	-11.0399
▁Foster	-11.0399
▁Ralph	-11.0399
▁enemy	-11.0399
▁wrap	-11.0399
▁1/2	-11.0399
▁urban	-11.0399
▁Ginger	-11.04
▁ridiculously	-11.0401
▁spiritual	-11.0401
▁Club	-11.0401
▁psychotic	-11.0402
▁slightest	-11.0402
▁offering	-11.0402
▁showcase	-11.0403
▁dragon	-11.0409
▁Ang	-11.0411
▁Tarzan	-11.0412
▁Four	-11.0417
▁persona	-11.0418
▁Dee	-11.0419
▁Next	-11.042
▁Along	-11.0421
▁melt	-11.0424
▁hook	-11.0425
▁upper	-11.0425
▁pat	-11.043
David	-11.0434
script	-11.0435
Where	-11.0436
▁musician	-11.0443
urb	-11.0443
▁friendly	-11.0445
▁physically	-11.0457
▁meat	-11.046
▁farce	-11.0461
▁sale	-11.0463
cock	-11.0464
▁Beat	-11.0476
▁intrigue	-11.0478
eta	-11.0483
Pol	-11.049
▁Josh	-11.0494
El	-11.0502
▁document	-11.0505
▁divorce	-11.0506
▁happiness	-11.0506
▁Muslim	-11.0506
▁announce	-11.0506
▁explicit	-11.0506
▁lovable	-11.0506
▁sinister	-11.0506
▁Vincent	-11.0507
▁45	-11.0507
▁moron	-11.0507
▁Alien	-11.051
▁swing	-11.051
▁Larry	-11.0511
▁attraction	-11.0512
imed	-11.0515
▁stress	-11.0515
▁flaw	-11.0518
hole	-11.0519
Ar	-11.0524
▁weakness	-11.053
▁chill	-11.0533
▁hall	-11.0536
▁24	-11.0536
horn	-11.0536
▁rave	-11.0539
cap	-11.054
▁chilling	-11.0543
▁tame	-11.0545
nda	-11.0548
▁requires	-11.0551
▁2)	-11.0563
▁Cru	-11.0567
90	-11.0576
▁vague	-11.059
▁slight	-11.0595
▁Tur	-11.0595
▁lacked	-11.0599
defin	-11.061
▁assassin	-11.0612
self	-11.0613
▁Russ	-11.0615
▁Stooge	-11.0615
▁concert	-11.0615
▁electric	-11.0615
▁obscure	-11.0615
▁parallel	-11.0615
▁repetitive	-11.0615
▁Gabriel	-11.0615
▁Worst	-11.0615
▁Woman	-11.0615
▁medium	-11.0615
▁chasing	-11.0615
▁blur	-11.0616
▁RE	-11.0617
▁thread	-11.0617
▁hammer	-11.0617
▁revelation	-11.0617
▁elsewhere	-11.0619
▁Blake	-11.062
ility	-11.0622
▁Akshay	-11.0626
▁selfish	-11.0632
▁lesser	-11.0634
▁Pretty	-11.0634
▁Lang	-11.0637
eller	-11.064
▁bitch	-11.0642
▁improv	-11.0645
▁stated	-11.0646
▁III	-11.0649
lash	-11.065
▁senseless	-11.066
awful	-11.0671
▁Mul	-11.0674
type	-11.0674
▁pushed	-11.0679
break	-11.0683
▁disgust	-11.0689
▁Kay	-11.0698
▁counter	-11.0703
▁logical	-11.0709
view	-11.0709
▁raw	-11.0712
hum	-11.0714
▁suffered	-11.0718
>	-11.0724
▁Video	-11.0725
▁Olivier	-11.0725
▁circle	-11.0725
▁convoluted	-11.0725
▁elaborate	-11.0725
▁ensemble	-11.0725
▁resolution	-11.0725
▁buried	-11.0725
▁smooth	-11.0725
▁alternate	-11.0725
▁creation	-11.0725
▁liberal	-11.0725
▁NEVER	-11.0725
▁Leonard	-11.0727
▁unbearable	-11.0728
▁Monster	-11.0728
▁Perry	-11.0732
▁label	-11.0733
▁acceptable	-11.0736
▁troubled	-11.0737
▁discussion	-11.0738
▁Doctor	-11.0738
▁maid	-11.0738
▁Lost	-11.074
▁Latin	-11.0741
▁coach	-11.0742
▁chop	-11.0745
▁ver	-11.0746
▁darkness	-11.0755
▁Ph	-11.0757
▁photographer	-11.0758
▁Yo	-11.0761
wash	-11.0763
▁established	-11.0767
▁riding	-11.0769
▁Sand	-11.077
▁Hart	-11.077
▁creators	-11.0787
▁dealt	-11.0787
▁Shi	-11.0794
posed	-11.0794
▁failing	-11.0809
▁picking	-11.0813
▁searching	-11.0817
▁button	-11.082
▁Cast	-11.0824
▁conclude	-11.0836
▁conspiracy	-11.0836
▁metaphor	-11.0836
▁precious	-11.0836
▁professor	-11.0836
▁Ruth	-11.0836
▁Fool	-11.0836
▁shelf	-11.0836
▁Claus	-11.0837
▁Maggie	-11.0837
▁Britain	-11.0837
▁Point	-11.0837
▁dropped	-11.0838
▁Comedy	-11.0839
▁increasingly	-11.0841
▁overwhelming	-11.0852
▁uneven	-11.0852
aud	-11.0853
llusion	-11.0853
▁Anton	-11.0855
▁reasonably	-11.0857
formed	-11.0862
bell	-11.0866
member	-11.0869
piece	-11.0875
▁awake	-11.092
▁pun	-11.0934
▁Cher	-11.094
▁Dracula	-11.0948
▁controversial	-11.0948
▁extraordinary	-11.0948
▁jungle	-11.0948
▁relevant	-11.0948
▁Spike	-11.0948
▁reduced	-11.0948
▁Glover	-11.0948
▁SNL	-11.0948
▁casual	-11.0948
▁WAS	-11.0949
▁transition	-11.0949
▁assault	-11.0949
▁chew	-11.095
▁McC	-11.0951
▁hopefully	-11.0954
▁beaten	-11.0962
▁Would	-11.0968
▁Nightmare	-11.0968
▁shines	-11.0971
▁hooked	-11.0983
▁farm	-11.0987
thriller	-11.099
Good	-11.0991
about	-11.0999
▁packed	-11.0999
IR	-11.1005
▁shy	-11.1007
mie	-11.1016
▁unit	-11.1016
▁duo	-11.1023
▁wing	-11.1026
▁Penn	-11.1031
▁rush	-11.1031
▁mild	-11.1037
also	-11.1048
▁convict	-11.1056
▁enthusiast	-11.1062
▁nowadays	-11.1062
▁nuclear	-11.1062
▁vulgar	-11.1062
Scream	-11.1062
▁Davies	-11.1062
▁custom	-11.1062
▁troop	-11.1062
▁recover	-11.1062
▁popcorn	-11.1062
▁grandmother	-11.1062
▁nerve	-11.1063
▁Canada	-11.1063
▁Todd	-11.1063
▁Almost	-11.1064
▁torment	-11.1064
▁tax	-11.1066
▁foul	-11.1067
▁meaningless	-11.1071
agger	-11.1074
▁drunken	-11.1078
▁Cut	-11.1085
▁overrated	-11.1087
▁Meanwhile	-11.1091
▁busy	-11.1096
▁larger	-11.1098
▁misses	-11.1099
ional	-11.1102
▁slo	-11.1104
Robert	-11.1105
▁Fire	-11.1105
claim	-11.1106
than	-11.1118
mann	-11.1126
master	-11.1126
▁refuse	-11.1132
Finally	-11.1135
▁briefly	-11.1142
ACT	-11.1164
▁Gro	-11.1176
▁NOTHING	-11.1177
▁Polanski	-11.1177
▁bargain	-11.1177
▁exaggerated	-11.1177
▁financial	-11.1177
▁ingredient	-11.1177
▁ourselves	-11.1177
▁Soldier	-11.1177
▁pound	-11.1177
▁Fisher	-11.1177
▁wicked	-11.1177
▁Matrix	-11.1178
▁embarrassment	-11.1178
▁smash	-11.1178
▁slim	-11.1178
▁Catherine	-11.1179
hether	-11.1182
▁secretary	-11.1183
▁trend	-11.1184
▁Price	-11.1184
▁Emily	-11.1186
IVE	-11.119
▁Personally	-11.1191
▁gap	-11.1193
▁Camp	-11.1194
▁Game	-11.1195
▁colorful	-11.1196
▁blast	-11.1199
ika	-11.1209
▁flawed	-11.1212
▁cancel	-11.1213
▁Iraq	-11.1215
▁thrills	-11.1218
▁crafted	-11.1219
Richard	-11.1221
foot	-11.1221
▁maker	-11.1242
▁watches	-11.1243
▁summ	-11.1247
▁cow	-11.1254
▁dust	-11.126
uite	-11.1262
mart	-11.1264
▁butcher	-11.1266
PO	-11.1278
▁comfort	-11.129
▁Grinch	-11.1293
▁aforementioned	-11.1293
▁restaurant	-11.1293
▁suspicious	-11.1293
▁unbelievably	-11.1293
▁Legend	-11.1293
▁scheme	-11.1293
▁digital	-11.1293
▁distance	-11.1293
▁cared	-11.1294
▁captain	-11.1294
▁kidding	-11.1294
▁charismatic	-11.1295
▁contestant	-11.1295
▁snake	-11.1295
▁Silver	-11.1295
▁Bobby	-11.1296
****	-11.1299
empt	-11.13
▁fitting	-11.1307
▁Bush	-11.1312
▁pig	-11.1323
▁offended	-11.1324
▁diver	-11.1325
▁Lane	-11.1327
▁adapted	-11.133
▁require	-11.1334
▁pleased	-11.1336
▁icon	-11.1338
respect	-11.134
mobile	-11.1341
woman	-11.1352
▁technically	-11.1355
▁strangely	-11.1363
▁faced	-11.137
Eye	-11.137
▁Marc	-11.1379
▁Shin	-11.1393
▁kidnap	-11.1409
▁Count	-11.141
▁Church	-11.1411
▁artificial	-11.1411
▁confirm	-11.1411
▁disjointed	-11.1411
▁easier	-11.1411
▁frustrated	-11.1411
▁portrait	-11.1411
▁prequel	-11.1411
▁survivor	-11.1411
▁suspend	-11.1411
▁illogical	-11.1411
▁Gadget	-11.1411
▁eager	-11.1411
▁warrior	-11.1411
▁milk	-11.1411
▁Sellers	-11.1411
▁jazz	-11.1411
▁Jamie	-11.1411
▁Face	-11.1411
▁launch	-11.1412
▁Barb	-11.1412
▁nuance	-11.1412
▁excessive	-11.1412
▁involvement	-11.1413
▁grip	-11.1414
▁bride	-11.1416
▁manager	-11.1423
▁Right	-11.1423
▁tag	-11.1425
▁Try	-11.1429
▁chest	-11.1431
▁UN	-11.1432
▁Sound	-11.1439
▁fourth	-11.144
▁intrigued	-11.1442
▁justify	-11.1445
▁Unless	-11.1452
▁initially	-11.1454
bin	-11.1455
▁Roll	-11.1457
▁ought	-11.1457
Director	-11.1458
special	-11.1458
school	-11.1458
because	-11.1459
20	-11.1462
Most	-11.1462
corp	-11.1467
▁dud	-11.1479
▁threat	-11.148
▁masterful	-11.1481
▁Macy	-11.1489
▁noble	-11.149
▁tons	-11.1493
▁Friend	-11.1502
▁Hunt	-11.1503
▁remaining	-11.1507
▁ON	-11.1509
here	-11.151
▁lock	-11.151
▁sentiment	-11.1514
avo	-11.1516
▁Gal	-11.1525
▁Kenneth	-11.153
▁Nicholson	-11.153
▁excruciating	-11.153
▁gimmick	-11.153
▁investigation	-11.153
▁population	-11.153
▁servant	-11.153
▁terrifying	-11.153
▁unforgettable	-11.153
▁dignity	-11.153
▁nonetheless	-11.153
▁struck	-11.153
▁Office	-11.153
▁essence	-11.153
▁Tracy	-11.153
▁absence	-11.153
▁reunion	-11.153
▁sloppy	-11.153
▁competition	-11.153
▁Father	-11.153
▁aunt	-11.1531
▁chess	-11.1532
▁8/10	-11.1532
▁flawless	-11.1532
▁Rather	-11.1534
▁Mother	-11.1536
▁Living	-11.1537
▁grasp	-11.1538
▁accused	-11.1539
▁Grace	-11.1539
▁2/10	-11.1539
▁National	-11.155
▁Cris	-11.1557
tention	-11.1557
▁errors	-11.1559
comprehensible	-11.1564
ifying	-11.1566
▁reel	-11.1567
then	-11.1569
▁distracting	-11.1572
▁affected	-11.1579
▁succeeded	-11.1581
▁raped	-11.1582
▁Lily	-11.1584
▁hunting	-11.1584
rock	-11.1586
▁gotta	-11.1586
▁tender	-11.1587
chy	-11.1598
▁closely	-11.1606
▁folk	-11.1609
▁Mom	-11.1617
▁whoever	-11.1622
Rating	-11.1633
▁pose	-11.1646
▁bottle	-11.165
▁conduct	-11.165
▁disgrace	-11.165
▁montage	-11.165
▁newspaper	-11.165
▁spooky	-11.165
▁website	-11.165
▁2006	-11.165
▁censor	-11.165
Brazil	-11.165
▁menacing	-11.165
▁combat	-11.165
▁documentaries	-11.1651
▁audio	-11.1651
fetched	-11.1651
▁gripping	-11.1651
▁Kumar	-11.1652
▁occurred	-11.1652
▁Romero	-11.1654
▁Tommy	-11.1656
▁fox	-11.1658
▁talked	-11.1658
▁seeking	-11.1666
▁Demon	-11.1669
▁Mystery	-11.1678
▁prisoner	-11.168
▁Buck	-11.168
▁improve	-11.1682
▁riot	-11.1691
ERS	-11.1693
paced	-11.1696
▁invent	-11.1697
funny	-11.1698
▁Boo	-11.1699
ibly	-11.17
▁Full	-11.17
▁bare	-11.1704
▁mile	-11.1707
▁Sea	-11.1711
▁Save	-11.1712
phone	-11.1717
▁continued	-11.1719
▁dish	-11.172
▁loosely	-11.1723
▁attract	-11.1731
rite	-11.1733
▁spoiled	-11.1736
▁bird	-11.1737
road	-11.1738
▁disco	-11.1741
▁unintentional	-11.175
come	-11.1751
▁Cold	-11.1763
▁Luci	-11.1765
▁Julian	-11.1767
▁scr	-11.1771
convenient	-11.1772
▁Lawrence	-11.1772
▁Margaret	-11.1772
▁Sutherland	-11.1772
▁ambitious	-11.1772
▁clumsy	-11.1772
▁futuristic	-11.1772
▁helicopter	-11.1772
▁infamous	-11.1772
▁juvenile	-11.1772
▁detract	-11.1772
▁concentrate	-11.1772
▁BUT	-11.1772
▁inherit	-11.1773
▁estate	-11.1773
▁Except	-11.1773
▁eerie	-11.1773
▁Diana	-11.1774
▁Lucy	-11.1775
▁thick	-11.1778
▁sadistic	-11.178
▁Beautiful	-11.1784
▁FOR	-11.1793
▁outcome	-11.1795
▁Barry	-11.1797
worth	-11.1803
▁journalist	-11.1804
▁typically	-11.1809
▁lend	-11.1814
maybe	-11.1824
Like	-11.1825
▁fighter	-11.183
fri	-11.1835
think	-11.1839
▁surf	-11.1839
esque	-11.1852
▁Set	-11.1856
▁update	-11.1859
wind	-11.1862
▁stealing	-11.1862
▁inane	-11.1872
▁Neil	-11.1874
▁guilt	-11.1875
Can	-11.1878
late	-11.1883
▁Kapoor	-11.1896
▁Scrooge	-11.1896
▁brilliance	-11.1896
▁explode	-11.1896
▁inevitable	-11.1896
▁synopsis	-11.1896
▁Bergman	-11.1896
▁Dixon	-11.1896
▁silence	-11.1896
▁staff	-11.1896
▁ambition	-11.1896
▁bleak	-11.1896
▁choreography	-11.1896
Bottom	-11.1896
▁internet	-11.1896
▁Season	-11.1898
▁flame	-11.1899
▁daring	-11.1901
▁hood	-11.1902
▁Down	-11.1902
▁Clint	-11.1903
▁rebel	-11.1904
Sleep	-11.1906
▁extended	-11.1907
▁bang	-11.191
▁offend	-11.1913
▁Code	-11.1914
▁Annie	-11.1922
▁porno	-11.1926
▁removed	-11.1926
▁Roth	-11.193
▁surfing	-11.1932
▁DE	-11.1937
▁feat	-11.1947
Despite	-11.1948
▁Dance	-11.195
▁importantly	-11.1956
vern	-11.1959
Ka	-11.1968
leg	-11.1993
▁Air	-11.2002
path	-11.2007
▁Hamilton	-11.2021
▁Lloyd	-11.2021
▁Mitchell	-11.2021
▁coherent	-11.2021
▁descend	-11.2021
▁innocence	-11.2021
▁poverty	-11.2021
▁vacation	-11.2021
▁crisis	-11.2021
▁Greek	-11.2021
▁inject	-11.2021
▁Uncle	-11.2022
▁fanatic	-11.2022
▁fluff	-11.2022
▁7/10	-11.2024
▁Bridge	-11.2026
▁exec	-11.2026
▁flight	-11.2032
▁affection	-11.2032
▁fancy	-11.204
▁Din	-11.2043
▁Earl	-11.2046
▁shirt	-11.2051
▁irre	-11.2053
▁Skip	-11.2068
such	-11.2078
Jack	-11.2081
SPOILERS	-11.2081
▁Myers	-11.2082
▁lifetime	-11.2087
▁improved	-11.2088
▁Ross	-11.2111
▁selling	-11.2117
▁tall	-11.2125
11	-11.2132
▁Va	-11.2135
Ju	-11.2137
▁celluloid	-11.2147
▁implausible	-11.2147
▁silver	-11.2147
▁Gothic	-11.2147
▁observe	-11.2147
▁racial	-11.2147
▁burst	-11.2147
▁tiresome	-11.2148
▁ONLY	-11.2148
▁proceedings	-11.2149
▁Lisa	-11.215
▁planning	-11.215
▁unoriginal	-11.2151
ATE	-11.2154
▁Uwe	-11.216
▁bold	-11.2163
▁returning	-11.2164
fun	-11.2172
iller	-11.2182
▁topless	-11.2182
evil	-11.2186
▁hum	-11.2192
▁convention	-11.2193
▁belong	-11.2198
scape	-11.222
AKE	-11.2224
box	-11.2226
egard	-11.2229
▁alcohol	-11.2241
ius	-11.2242
▁dimension	-11.2243
▁detailed	-11.2245
▁Bow	-11.2267
▁shine	-11.227
▁BO	-11.2273
▁Secret	-11.2276
▁coincidence	-11.2276
▁philosophy	-11.2276
▁Connery	-11.2276
▁downhill	-11.2276
▁spread	-11.2277
▁Golden	-11.2279
▁Whoopi	-11.2282
▁antics	-11.2284
▁tail	-11.2285
▁formulaic	-11.2287
▁Band	-11.2294
▁Donna	-11.23
▁Heart	-11.2305
▁notorious	-11.2305
▁photographed	-11.2308
▁mistaken	-11.2315
▁accomplished	-11.2317
▁needless	-11.2317
▁Bela	-11.2319
dance	-11.2322
▁staying	-11.2323
▁mall	-11.2333
Please	-11.2333
▁classes	-11.2336
▁fooled	-11.2338
▁tap	-11.2339
▁factory	-11.2339
▁dim	-11.2352
▁span	-11.2374
▁candy	-11.239
isation	-11.2392
▁Jet	-11.2395
▁quit	-11.2396
▁wretched	-11.2405
▁Ustinov	-11.2405
▁boast	-11.2405
▁frustration	-11.2405
▁inappropriate	-11.2405
▁politician	-11.2405
▁destruction	-11.2405
▁illegal	-11.2405
▁tribe	-11.2405
▁causing	-11.2405
▁dreary	-11.2405
▁garden	-11.2405
▁generic	-11.2405
▁stood	-11.2405
▁hippie	-11.2405
▁Glenn	-11.2406
▁acclaim	-11.2406
▁cried	-11.2406
▁trademark	-11.2406
▁exchange	-11.2406
▁ignorant	-11.2406
▁Jenny	-11.2406
▁afterwards	-11.2407
▁poison	-11.2407
▁returned	-11.2408
...........	-11.2408
▁chased	-11.2409
▁Plot	-11.2413
▁existed	-11.2426
▁legal	-11.2427
▁jumping	-11.2427
▁carefully	-11.243
EM	-11.2432
will	-11.2433
OST	-11.2439
▁photograph	-11.2445
Tom	-11.2448
ography	-11.2451
▁repeatedly	-11.2453
▁resolve	-11.2453
▁edit	-11.2462
mination	-11.2463
white	-11.2465
ridden	-11.2466
Chris	-11.2467
weight	-11.247
▁gut	-11.2473
worker	-11.2476
▁reached	-11.2476
▁Line	-11.2479
AME	-11.2481
GH	-11.2485
dropping	-11.25
born	-11.2502
▁purchase	-11.2508
mother	-11.2512
▁pulling	-11.2524
▁Brit	-11.2525
▁escaped	-11.2529
▁inhabit	-11.2537
clusive	-11.2537
▁Egypt	-11.2537
▁captivating	-11.2537
▁nephew	-11.2537
▁nervous	-11.2537
▁ninja	-11.2537
▁psychic	-11.2537
▁sophisticated	-11.2537
▁Swedish	-11.2537
▁Damme	-11.2537
▁Amanda	-11.2537
▁clothing	-11.2537
▁habit	-11.2538
▁Spock	-11.2538
▁Thunder	-11.2539
▁Know	-11.254
▁Grey	-11.2541
TION	-11.2543
▁babe	-11.2543
▁objective	-11.2543
▁ONE	-11.2543
▁transformation	-11.2544
▁devoted	-11.2546
▁elderly	-11.2548
▁stronger	-11.2551
▁reaches	-11.2553
▁insert	-11.2557
▁ram	-11.2563
▁pause	-11.257
▁engaged	-11.2576
▁Song	-11.2577
?!?	-11.2579
▁lowest	-11.2594
Movie	-11.2598
▁ignored	-11.2603
Look	-11.2603
AND	-11.2608
▁Granted	-11.2608
word	-11.2613
▁bust	-11.2615
free	-11.262
▁tortured	-11.262
Still	-11.2624
stick	-11.2631
hang	-11.2638
▁rot	-11.2645
▁wealth	-11.265
▁Hero	-11.2654
▁education	-11.2664
▁select	-11.2664
▁Baldwin	-11.267
▁Cassidy	-11.267
▁Griffith	-11.267
▁Jonathan	-11.267
▁Miike	-11.267
▁abilities	-11.267
▁innovative	-11.267
▁kitchen	-11.267
▁producing	-11.267
▁splatter	-11.267
▁translation	-11.267
▁prompt	-11.267
▁premiere	-11.267
▁sweat	-11.267
▁Leslie	-11.267
▁Emma	-11.2671
▁banal	-11.2671
▁Francisco	-11.2672
▁Terry	-11.2673
▁Ash	-11.2673
▁mouse	-11.2674
Third	-11.2675
▁Jake	-11.2679
▁Niro	-11.2679
▁helm	-11.2683
▁Turner	-11.2684
▁Town	-11.2686
▁punk	-11.2688
▁cheated	-11.2691
▁Kane	-11.2692
▁consistently	-11.2694
▁hitting	-11.2695
▁workers	-11.2704
stage	-11.2707
▁explaining	-11.2707
▁Chase	-11.2709
ronic	-11.2711
▁Shah	-11.2713
▁burned	-11.2732
character	-11.2733
▁avoided	-11.2743
Avoid	-11.2745
Ex	-11.2765
Ben	-11.2782
▁Bull	-11.2782
▁bump	-11.2786
▁Sally	-11.2789
force	-11.2795
God	-11.2799
enchant	-11.2799
▁alas	-11.2801
▁CD	-11.2802
uinn	-11.2804
▁Inspector	-11.2805
▁Matthau	-11.2805
▁celebrate	-11.2805
▁chapter	-11.2805
▁citizen	-11.2805
▁eccentric	-11.2805
▁psychiatrist	-11.2805
▁recruit	-11.2805
▁relentless	-11.2805
▁rifle	-11.2805
▁sibling	-11.2805
▁smoking	-11.2805
▁abusive	-11.2805
▁exotic	-11.2805
▁evoke	-11.2805
▁2001	-11.2805
▁miserable	-11.2805
▁slick	-11.2805
uaid	-11.2806
▁geek	-11.2806
▁Posey	-11.2806
▁funeral	-11.2806
▁bathroom	-11.2806
▁Wallace	-11.2806
▁transport	-11.2807
▁rubber	-11.2807
▁Sandler	-11.2807
▁Graham	-11.2807
▁Hawk	-11.2807
▁commented	-11.2813
▁Palma	-11.2813
▁Nice	-11.282
▁Lots	-11.2824
▁Honestly	-11.2831
▁Gore	-11.2843
▁perfection	-11.2845
talk	-11.2846
▁Para	-11.2856
flo	-11.2872
child	-11.2872
Other	-11.2881
▁staged	-11.2888
▁reasonable	-11.2891
▁yell	-11.2906
▁arrive	-11.2906
IDE	-11.2926
▁cure	-11.2929
▁fist	-11.2931
lip	-11.2932
▁corn	-11.2933
▁loyal	-11.294
▁Abraham	-11.2942
▁arrogant	-11.2942
▁importance	-11.2942
▁predecessor	-11.2942
▁puzzle	-11.2942
▁redemption	-11.2942
▁simplistic	-11.2942
▁valuable	-11.2942
▁exhibit	-11.2942
▁piano	-11.2942
▁mixture	-11.2942
▁micro	-11.2942
▁Gerard	-11.2942
▁politically	-11.2943
▁Southern	-11.2943
▁flies	-11.2943
▁Classic	-11.2943
▁Neither	-11.2943
▁dreck	-11.2943
▁south	-11.2943
▁birthday	-11.2944
▁shove	-11.2944
▁Walker	-11.2945
▁inventive	-11.2945
THE	-11.2948
▁maniac	-11.2949
▁Damon	-11.2949
▁gear	-11.2953
▁disturbed	-11.2955
▁Carter	-11.2957
▁Angeles	-11.296
▁dating	-11.2962
▁oddly	-11.2973
Che	-11.2975
▁attracted	-11.298
Or	-11.298
▁programme	-11.2994
▁wig	-11.2996
▁arc	-11.2998
great	-11.3009
▁Charl	-11.3019
▁prize	-11.3019
▁performing	-11.3022
▁21	-11.303
▁conventional	-11.3032
▁owe	-11.3038
▁involve	-11.3046
lack	-11.307
▁Australia	-11.3072
▁Francis	-11.3079
▁mill	-11.3079
▁contest	-11.308
According	-11.3081
▁Dorothy	-11.3081
▁Elliot	-11.3081
▁frustrating	-11.3081
▁french	-11.3081
▁2005	-11.3081
▁Ranger	-11.3082
▁Wolf	-11.3082
▁Downey	-11.3083
▁jaw	-11.3083
▁slice	-11.3083
▁Dutch	-11.3084
▁Linda	-11.3084
▁wipe	-11.3085
▁Grim	-11.3087
▁wow	-11.3089
▁option	-11.309
▁bash	-11.3091
▁Eve	-11.3091
▁morality	-11.3095
15	-11.3095
▁murderous	-11.3098
▁Willis	-11.3098
▁exposed	-11.3101
▁Special	-11.3102
▁tip	-11.3104
▁instantly	-11.3104
▁Cox	-11.3106
▁Angela	-11.3108
▁Plan	-11.3108
▁Apart	-11.3115
▁Danes	-11.3117
▁Brady	-11.3127
▁possessed	-11.3129
series	-11.3137
▁characteristic	-11.314
▁Sex	-11.314
oid	-11.3141
▁SPOILER	-11.3143
▁spit	-11.3143
mpet	-11.3144
▁Care	-11.3145
forward	-11.3156
▁west	-11.3168
▁farmer	-11.3186
▁definite	-11.3197
disc	-11.3201
▁ME	-11.3201
numbing	-11.3202
▁compassion	-11.3222
▁rendition	-11.3222
▁travesty	-11.3222
▁yesterday	-11.3222
▁Craig	-11.3222
▁dedicate	-11.3222
▁Kubrick	-11.3222
▁Campbell	-11.3222
▁Indeed	-11.3222
▁boom	-11.3223
▁Greg	-11.3224
▁Dickens	-11.3224
▁liking	-11.3224
▁rude	-11.3226
▁trio	-11.3227
▁3000	-11.3227
▁access	-11.3229
www	-11.3229
▁countryside	-11.323
▁Cary	-11.3231
indulgent	-11.3234
▁snap	-11.3245
Dress	-11.3248
▁arrested	-11.3248
▁overlooked	-11.3251
▁scrap	-11.3255
▁sadness	-11.3258
▁alcoholic	-11.3261
▁Force	-11.3275
▁influenced	-11.3276
▁interact	-11.3283
▁fest	-11.329
▁witnessed	-11.3293
▁tripe	-11.3297
▁contained	-11.3298
relatively	-11.33
▁survived	-11.3301
▁Made	-11.3319
MAN	-11.3327
▁Call	-11.3337
▁Timon	-11.3358
▁bog	-11.336
▁Fulci	-11.3365
▁Soviet	-11.3365
▁Usually	-11.3365
▁WHY	-11.3365
▁WORST	-11.3365
▁possibilities	-11.3365
▁resources	-11.3365
▁ruthless	-11.3365
▁schlock	-11.3365
▁square	-11.3365
▁swallow	-11.3365
▁territory	-11.3365
▁wrestling	-11.3365
▁Hyde	-11.3365
▁southern	-11.3365
▁advertising	-11.3365
▁trait	-11.3365
▁buddies	-11.3366
▁boob	-11.3367
▁pride	-11.3367
▁Theater	-11.3369
▁operation	-11.337
▁Drake	-11.337
▁wire	-11.337
beth	-11.3372
▁hardcore	-11.3372
▁deliberately	-11.3374
▁Norman	-11.3375
liss	-11.3377
▁pressure	-11.3377
▁peak	-11.338
▁composed	-11.338
▁provid	-11.3381
▁Gold	-11.3386
▁suitable	-11.3387
▁Woo	-11.3392
▁Princess	-11.3396
▁purchased	-11.3396
▁Rich	-11.3398
▁coup	-11.3401
▁phrase	-11.3406
▁sand	-11.3413
▁Christy	-11.3414
▁teaching	-11.3417
▁tack	-11.3424
▁wandering	-11.3425
▁Carr	-11.3429
▁Read	-11.3431
guy	-11.3432
UM	-11.3434
Second	-11.3437
James	-11.3438
father	-11.3439
moral	-11.3443
▁Spa	-11.3455
ille	-11.3458
▁Berlin	-11.3458
EY	-11.3466
quin	-11.3468
▁abandon	-11.3477
▁code	-11.3491
▁qua	-11.3492
▁consistent	-11.3493
▁spoke	-11.3502
▁dose	-11.3505
▁inform	-11.3506
Absolutely	-11.351
▁Crawford	-11.351
▁Reynolds	-11.351
▁albeit	-11.351
▁album	-11.351
▁applaud	-11.351
▁astonishing	-11.351
▁fundamental	-11.351
▁lackluster	-11.351
▁mutant	-11.351
▁neglect	-11.351
▁patience	-11.351
▁scientific	-11.351
▁minimum	-11.351
▁vicious	-11.351
▁HBO	-11.351
▁Brenda	-11.351
▁inferior	-11.351
▁Owen	-11.351
▁distant	-11.351
▁Speed	-11.351
▁trace	-11.3511
▁Characters	-11.3512
▁motives	-11.3512
▁9/10	-11.3512
▁depressed	-11.3514
▁stale	-11.3514
suit	-11.3515
▁vein	-11.3515
▁spring	-11.3516
▁Shu	-11.3517
▁nearby	-11.352
▁SEE	-11.3522
motive	-11.3524
▁tasteless	-11.3524
▁laughably	-11.3526
▁kicked	-11.3527
▁Char	-11.3528
▁Bart	-11.353
▁symbol	-11.3534
▁heroic	-11.3536
▁Case	-11.3542
▁dimensional	-11.3542
ologist	-11.3544
▁active	-11.3545
ridge	-11.3546
▁Andrew	-11.3555
▁revealing	-11.3571
▁highest	-11.3575
SPOILER	-11.3577
▁recognized	-11.358
Perhaps	-11.3585
▁achieved	-11.3586
Hey	-11.3601
having	-11.3611
ucker	-11.3613
▁destroying	-11.3615
▁thoughtful	-11.3617
▁compell	-11.3621
▁CAN	-11.3636
▁Bakshi	-11.3657
▁Denzel	-11.3657
▁Orleans	-11.3657
▁emphasis	-11.3657
▁equipment	-11.3657
▁imitation	-11.3657
▁insipid	-11.3657
▁muddled	-11.3657
▁prejudice	-11.3657
▁presumably	-11.3657
▁register	-11.3657
▁respond	-11.3657
▁resurrect	-11.3657
▁scarecrow	-11.3657
▁silliness	-11.3657
▁sympathize	-11.3657
▁LOT	-11.3657
▁banned	-11.3657
▁stilted	-11.3657
▁2004	-11.3657
▁victor	-11.3657
▁Certainly	-11.3657
▁nevertheless	-11.3657
▁swimming	-11.3657
▁manipulate	-11.3657
▁strain	-11.3657
▁Ramones	-11.3657
▁absent	-11.3657
▁altogether	-11.3657
▁audition	-11.3657
▁Barrymore	-11.3657
▁resident	-11.3657
▁drain	-11.3658
▁whale	-11.3659
▁Rambo	-11.3659
▁magn	-11.3659
▁crook	-11.3659
▁Dawn	-11.3659
▁kung	-11.3659
▁tank	-11.366
▁lord	-11.3661
▁mud	-11.3664
▁suited	-11.3666
▁subtlety	-11.3668
laugh	-11.3668
Scene	-11.3675
▁rapist	-11.3678
▁Excellent	-11.3679
▁Seven	-11.3693
▁passes	-11.3697
llowing	-11.3701
▁exit	-11.3712
▁22	-11.3713
Psycho	-11.3724
burn	-11.3725
destruct	-11.3734
▁threatening	-11.3734
▁Fat	-11.3735
sign	-11.3735
Every	-11.374
▁desired	-11.3752
midst	-11.3754
je	-11.3763
12	-11.3764
▁catchy	-11.3769
▁Yu	-11.3771
INE	-11.3772
▁displayed	-11.3783
▁trashy	-11.3785
▁ease	-11.3789
▁flirt	-11.3806
▁Carradine	-11.3806
▁GOOD	-11.3806
▁Matthew	-11.3806
▁Paxton	-11.3806
▁Shirley	-11.3806
▁cinematographer	-11.3806
▁coffee	-11.3806
▁equivalent	-11.3806
▁global	-11.3806
▁immigrant	-11.3806
▁immortal	-11.3806
▁incompetent	-11.3806
▁mundane	-11.3806
▁nostalgic	-11.3806
▁Civil	-11.3806
▁pitiful	-11.3806
▁publish	-11.3806
▁unfair	-11.3806
Beyond	-11.3806
▁Harvey	-11.3806
▁psychopath	-11.3807
▁Wait	-11.3807
▁sappy	-11.3807
▁faster	-11.3808
▁seventies	-11.3808
▁symbolism	-11.3808
▁tourist	-11.3809
Sweet	-11.381
▁Wind	-11.3811
▁Robinson	-11.3811
▁linger	-11.3812
▁clock	-11.3812
▁WAY	-11.3812
▁authority	-11.3816
ARD	-11.3817
▁Gil	-11.3818
▁illness	-11.3819
▁overacting	-11.382
▁Bette	-11.382
▁Nevertheless	-11.3823
▁lifestyle	-11.3824
▁Brain	-11.3826
▁Brother	-11.3826
▁realizing	-11.3828
▁cheating	-11.3831
▁questionable	-11.3833
▁weakest	-11.3837
▁Free	-11.384
▁awaken	-11.3845
▁Oz	-11.3846
▁goof	-11.3846
▁mole	-11.3848
door	-11.3853
▁assist	-11.3854
▁explored	-11.3859
iac	-11.3869
big	-11.3878
interest	-11.3886
Arthur	-11.3886
front	-11.3891
kar	-11.3894
▁reaching	-11.3897
▁promised	-11.3898
▁CG	-11.3905
▁Say	-11.3909
Enter	-11.3914
itive	-11.3927
▁instant	-11.3933
EST	-11.3933
▁rub	-11.3944
▁Amy	-11.3946
faced	-11.395
aught	-11.3955
▁smug	-11.3957
climactic	-11.3958
▁Godzilla	-11.3958
▁Hopkins	-11.3958
▁gradually	-11.3958
▁irrelevant	-11.3958
▁phony	-11.3958
▁worried	-11.3958
▁defense	-11.3958
▁glorious	-11.3958
▁philosophical	-11.3958
▁McCoy	-11.3958
▁statue	-11.3958
▁filth	-11.3958
▁Field	-11.3958
▁Sissy	-11.3958
▁Jeffrey	-11.3958
▁orphan	-11.3958
-13	-11.3958
▁blew	-11.3958
▁demented	-11.3958
Titanic	-11.3958
▁Through	-11.3958
▁Terrible	-11.3958
▁rational	-11.3958
▁hung	-11.3958
▁Nathan	-11.3959
▁Carrey	-11.3959
▁punishment	-11.396
▁Planet	-11.3961
▁roommate	-11.3961
▁property	-11.3965
▁developing	-11.3965
▁moronic	-11.3965
▁mute	-11.3965
▁passionate	-11.3965
▁shall	-11.3966
▁jumped	-11.3966
▁Shame	-11.3967
*****	-11.3969
Basic	-11.3975
▁rocket	-11.3977
▁cake	-11.398
▁unreal	-11.3986
▁sync	-11.3986
aunt	-11.3988
▁Dumb	-11.3992
▁swim	-11.3993
▁Fear	-11.3997
Happy	-11.4001
▁map	-11.4003
47	-11.4009
▁provoking	-11.4012
▁performer	-11.402
▁pretending	-11.4028
▁Justin	-11.4028
Girl	-11.4039
probably	-11.4039
▁mono	-11.404
again	-11.4043
▁tad	-11.405
▁illustrate	-11.4053
▁represented	-11.4059
▁Aside	-11.4071
▁Barr	-11.4071
▁gam	-11.4102
▁designer	-11.4108
▁Brooklyn	-11.4112
▁International	-11.4112
▁colleague	-11.4112
▁evolve	-11.4112
▁plausible	-11.4112
▁primary	-11.4112
▁rehash	-11.4112
▁Palance	-11.4112
▁deaf	-11.4112
▁profit	-11.4112
▁gloss	-11.4112
▁humble	-11.4113
▁Talk	-11.4113
▁sugar	-11.4113
▁Series	-11.4113
▁ponder	-11.4114
▁construction	-11.4114
▁monk	-11.4114
▁locate	-11.4114
▁wore	-11.4115
▁35	-11.4116
▁Mormon	-11.4118
▁Thorn	-11.4118
▁selection	-11.4119
▁Somehow	-11.4119
▁Meg	-11.4119
▁reverse	-11.412
▁tick	-11.4121
▁pants	-11.4123
▁golden	-11.4123
VE	-11.4126
▁copies	-11.4127
▁progresses	-11.413
▁Fuller	-11.4133
▁*****	-11.4135
▁Willie	-11.4139
▁Louise	-11.414
ifies	-11.4141
▁adore	-11.4152
▁yelling	-11.4153
▁Alas	-11.4162
▁DON	-11.4162
▁jewel	-11.4163
▁cab	-11.4169
ctur	-11.4169
▁blond	-11.4173
▁deny	-11.4173
recognizable	-11.4187
▁burning	-11.4191
original	-11.4191
▁quo	-11.4192
George	-11.4196
Black	-11.4199
▁stare	-11.4206
▁intend	-11.4209
▁pour	-11.421
War	-11.4212
▁mish	-11.4219
▁marketing	-11.422
▁trail	-11.4234
▁vet	-11.4235
▁painted	-11.4237
ucci	-11.4245
▁betray	-11.4263
▁Top	-11.4263
▁Century	-11.4268
▁WATCH	-11.4268
▁conservative	-11.4268
▁miracle	-11.4268
▁monologue	-11.4268
▁nostalgia	-11.4268
▁Alfred	-11.4268
▁Sidney	-11.4268
▁Studio	-11.4268
▁horrifying	-11.4268
▁reluctant	-11.4268
▁vomit	-11.4268
▁seduce	-11.4268
▁Amazing	-11.4268
▁Hudson	-11.4268
▁Major	-11.4268
▁2003	-11.4268
▁Writer	-11.4268
▁reunite	-11.4268
▁intimate	-11.4268
▁restrain	-11.4268
▁Worth	-11.4268
▁drift	-11.4268
▁April	-11.4268
▁doomed	-11.4268
▁Hurt	-11.4269
▁calm	-11.4269
▁Gere	-11.4269
▁Remember	-11.427
▁employee	-11.4271
▁Diane	-11.4271
▁institution	-11.4271
▁decor	-11.4272
▁leap	-11.4272
▁foolish	-11.4272
▁comfortable	-11.4272
▁Alvin	-11.4273
▁Hood	-11.4275
▁REAL	-11.4279
▁hopeless	-11.428
▁gro	-11.428
▁Ok	-11.4284
▁Given	-11.4285
▁tho	-11.4285
▁Imagine	-11.4288
▁Richardson	-11.4288
▁Amitabh	-11.4289
TING	-11.429
▁catches	-11.431
OUS	-11.4312
▁cheek	-11.4316
▁stretched	-11.4347
▁brutally	-11.4351
different	-11.4354
▁prepar	-11.4355
▁bon	-11.4361
▁disappeared	-11.4361
▁claimed	-11.4374
Once	-11.4374
▁sucker	-11.4378
▁rage	-11.4391
▁borrow	-11.4394
▁frequent	-11.4401
▁bike	-11.4418
▁Bear	-11.4424
▁Preminger	-11.4427
▁Tierney	-11.4427
▁adolescent	-11.4427
▁choreographed	-11.4427
▁contradict	-11.4427
▁diamond	-11.4427
▁enemies	-11.4427
▁irritate	-11.4427
▁primarily	-11.4427
▁quarter	-11.4427
▁stellar	-11.4427
▁undoubtedly	-11.4427
▁Madonna	-11.4427
▁Gandhi	-11.4427
▁Puerto	-11.4427
▁Alexander	-11.4427
▁Pierce	-11.4427
▁session	-11.4427
▁examine	-11.4427
▁alleged	-11.4427
▁Monkey	-11.4427
▁compete	-11.4428
▁Dominic	-11.4428
▁alarm	-11.4428
▁bedroom	-11.4429
enlighten	-11.4429
▁indication	-11.443
▁hatred	-11.443
ACK	-11.443
▁similarities	-11.4432
interpret	-11.4435
▁homo	-11.4437
▁immensely	-11.4437
▁eaten	-11.444
▁shameless	-11.4444
▁passable	-11.4446
orious	-11.4447
▁hopelessly	-11.4452
nnel	-11.4454
▁belt	-11.4458
▁Tale	-11.4458
▁package	-11.4459
▁overlook	-11.4461
▁rag	-11.4467
Follow	-11.4477
▁RO	-11.4489
▁boil	-11.4491
▁Came	-11.4498
▁realised	-11.4498
▁correctly	-11.451
sexual	-11.4516
based	-11.4526
Two	-11.4533
▁bowl	-11.4583
▁Enjoy	-11.4588
▁Lundgren	-11.4588
▁Othello	-11.4588
▁Spirit	-11.4588
▁compliment	-11.4588
▁creativity	-11.4588
▁lyrics	-11.4588
▁nonsensical	-11.4588
▁possibility	-11.4588
▁preposterous	-11.4588
▁principle	-11.4588
▁simplicity	-11.4588
▁unsettling	-11.4588
▁wisdom	-11.4588
▁decline	-11.4588
▁solution	-11.4588
▁glory	-11.4588
▁distort	-11.4588
▁radical	-11.4588
Stupid	-11.4589
▁rotten	-11.4589
▁remarkably	-11.459
▁thankfully	-11.459
▁Beatles	-11.459
▁revolutionary	-11.459
▁bonus	-11.4592
▁'70	-11.4593
▁intentionally	-11.4594
▁neo	-11.4594
▁Blade	-11.4596
Attack	-11.4597
▁fright	-11.4597
cio	-11.46
▁complexity	-11.46
▁Scottish	-11.4601
▁lean	-11.4606
▁Thus	-11.4607
▁floating	-11.4611
acious	-11.4615
▁Scary	-11.4621
mount	-11.4621
▁grind	-11.4644
othy	-11.4647
▁understandable	-11.4658
▁discovery	-11.4665
▁recommendation	-11.4669
▁Less	-11.4678
Hollywood	-11.468
Great	-11.468
production	-11.4681
High	-11.4686
▁Corn	-11.4688
▁honesty	-11.4694
17	-11.4697
▁hence	-11.4703
▁receiv	-11.4709
▁lone	-11.4714
▁pie	-11.4715
▁satisfy	-11.4715
▁Luis	-11.4717
▁indicate	-11.4726
▁cram	-11.4738
▁lure	-11.4744
▁coast	-11.4745
▁remove	-11.4746
▁stole	-11.4749
▁Virgin	-11.475
▁Blockbuster	-11.4752
▁DeNiro	-11.4752
▁Jeremy	-11.4752
▁Rukh	-11.4752
▁Scotland	-11.4752
▁acknowledge	-11.4752
▁attorney	-11.4752
▁condemn	-11.4752
▁distribution	-11.4752
▁exploration	-11.4752
▁giggle	-11.4752
▁grotesque	-11.4752
▁insomnia	-11.4752
▁instinct	-11.4752
▁misguided	-11.4752
▁observation	-11.4752
▁opportunities	-11.4752
▁ritual	-11.4752
▁satisfied	-11.4752
▁savage	-11.4752
▁universal	-11.4752
wilight	-11.4752
▁Basinger	-11.4752
▁pattern	-11.4752
▁Carlito	-11.4752
▁Either	-11.4752
▁shaky	-11.4752
▁wheel	-11.4752
▁snob	-11.4752
▁Hammer	-11.4752
▁Ollie	-11.4752
▁granted	-11.4752
▁Sabrina	-11.4752
▁commend	-11.4752
▁Martian	-11.4752
▁asylum	-11.4752
▁poetic	-11.4752
▁taught	-11.4752
▁Godfather	-11.4753
▁Funny	-11.4753
▁wrapped	-11.4753
▁Logan	-11.4757
▁confrontation	-11.4759
▁safety	-11.476
▁Karen	-11.4763
▁Omen	-11.4767
▁Fortunately	-11.4768
▁composer	-11.477
▁Alone	-11.4772
▁reflection	-11.4772
▁pale	-11.4779
▁grin	-11.478
▁Reid	-11.4782
▁arrived	-11.4786
▁vaguely	-11.479
▁stir	-11.4794
▁invented	-11.4796
▁/>1.	-11.4811
▁Boyer	-11.4816
▁flower	-11.4831
▁stark	-11.4837
Peter	-11.4847
Frank	-11.4847
▁march	-11.4852
▁Hand	-11.4855
▁Cop	-11.4856
Last	-11.4857
perfect	-11.4864
16	-11.4876
▁slash	-11.4897
▁Elm	-11.4908
▁marvel	-11.4917
▁Original	-11.4918
▁Timberlake	-11.4918
▁empathy	-11.4918
▁ethnic	-11.4918
▁interrupt	-11.4918
▁morbid	-11.4918
▁paranoia	-11.4918
▁skull	-11.4918
▁variation	-11.4918
▁volume	-11.4918
▁Chavez	-11.4918
▁capturing	-11.4918
▁riveting	-11.4918
▁Dolph	-11.4919
▁adorable	-11.4919
▁buffalo	-11.4919
▁Pearl	-11.4919
▁blackmail	-11.4919
▁choppy	-11.4919
▁fetish	-11.4919
▁Lukas	-11.4919
▁warrant	-11.4919
▁Alicia	-11.4919
▁mummy	-11.4919
▁Everybody	-11.492
▁planned	-11.4921
▁yard	-11.4922
▁groan	-11.4924
▁Buster	-11.4925
store	-11.4931
▁pill	-11.4937
▁Leigh	-11.4938
▁communicate	-11.4938
▁considerable	-11.4942
ALL	-11.4945
▁Vance	-11.4947
▁MY	-11.4948
▁Cool	-11.4952
▁sung	-11.4956
▁policeman	-11.4964
▁cue	-11.4967
▁helpless	-11.4972
▁labor	-11.4978
▁Sim	-11.498
▁lengthy	-11.499
▁Israel	-11.4998
ROM	-11.5
▁useful	-11.501
ambi	-11.5013
William	-11.5015
▁filler	-11.5022
▁distinguish	-11.5037
▁inspire	-11.506
▁generate	-11.506
IST	-11.5062
▁Spring	-11.5077
intentional	-11.5078
nice	-11.5079
liance	-11.5081
▁Antwone	-11.5088
▁Charlotte	-11.5088
▁Eventually	-11.5088
▁Project	-11.5088
▁Streisand	-11.5088
▁beneath	-11.5088
▁contemplat	-11.5088
▁corporate	-11.5088
▁desperation	-11.5088
▁guitar	-11.5088
▁hackneyed	-11.5088
▁inexplicably	-11.5088
▁manipulative	-11.5088
▁shoddy	-11.5088
▁unlikable	-11.5088
▁anticipate	-11.5088
▁appreciation	-11.5088
▁celebration	-11.5088
▁inconsistent	-11.5088
▁integrity	-11.5088
▁misleading	-11.5088
▁revolt	-11.5088
▁Women	-11.5088
▁uncover	-11.5088
▁Canyon	-11.5088
▁romp	-11.5088
▁/>4/10	-11.5088
▁expand	-11.5088
▁darn	-11.5088
▁cattle	-11.5088
▁pursuit	-11.5088
▁Isabel	-11.5088
▁pervert	-11.5088
▁clone	-11.5088
▁grandfather	-11.5089
▁scope	-11.5089
▁Cameron	-11.5089
▁yawn	-11.5089
inducing	-11.509
▁1999	-11.509
▁centre	-11.509
▁fascinated	-11.5093
▁Half	-11.5097
▁slum	-11.5097
▁conviction	-11.5097
▁duty	-11.5099
▁Spain	-11.51
▁amused	-11.5102
▁witnesses	-11.5107
ought	-11.5122
28	-11.5134
▁von	-11.5136
▁Spacey	-11.5137
solved	-11.5141
▁lib	-11.5144
▁mum	-11.5144
notch	-11.5145
▁Tro	-11.5158
daughter	-11.5188
both	-11.5195
▁Crow	-11.5203
Luc	-11.5229
loud	-11.5234
▁communicat	-11.5251
heart	-11.5254
▁Loretta	-11.526
▁fantasies	-11.526
▁increase	-11.526
▁poetry	-11.526
▁unravel	-11.526
▁worship	-11.526
▁Creep	-11.526
▁Straight	-11.526
▁declare	-11.526
▁giallo	-11.526
▁thief	-11.526
▁Bronson	-11.526
▁glance	-11.526
▁wacky	-11.526
▁Simmons	-11.526
▁graduate	-11.526
▁valid	-11.526
▁roof	-11.5261
▁misery	-11.5261
▁Betty	-11.5261
▁crawl	-11.5261
▁isolated	-11.5261
▁Court	-11.5261
▁visible	-11.5261
▁Vader	-11.5262
▁Train	-11.5263
▁Fast	-11.5263
▁specifically	-11.5264
▁improvement	-11.5264
▁echo	-11.5264
▁Garbo	-11.5265
▁Harold	-11.5266
▁Loren	-11.5266
▁Wedding	-11.5267
▁cities	-11.5267
▁dismal	-11.5268
▁shred	-11.527
▁Forget	-11.5271
▁rope	-11.5272
▁glasses	-11.5272
▁STAR	-11.5275
versus	-11.5278
▁Nicholas	-11.528
fashioned	-11.5285
▁tacky	-11.5285
▁Fight	-11.5286
▁businessman	-11.5289
▁gifted	-11.5322
length	-11.5363
blood	-11.5364
normal	-11.5367
stitute	-11.5373
Jim	-11.5379
▁Pop	-11.5381
▁Whit	-11.5423
▁Book	-11.5432
▁excess	-11.5434
Character	-11.5434
Ultimately	-11.5436
▁GREAT	-11.5436
▁Horrible	-11.5436
▁Murray	-11.5436
▁Tarantino	-11.5436
▁attribute	-11.5436
▁camcorder	-11.5436
▁champion	-11.5436
▁delicious	-11.5436
▁immature	-11.5436
▁responsibility	-11.5436
▁sleaze	-11.5436
▁unaware	-11.5436
▁vulnerable	-11.5436
▁profanity	-11.5436
▁2007	-11.5436
▁Grayson	-11.5436
▁venture	-11.5436
▁acquire	-11.5436
▁narrow	-11.5436
▁mysteries	-11.5436
▁barrel	-11.5436
Valentine	-11.5436
▁Boston	-11.5437
▁Keith	-11.5437
▁History	-11.5437
▁Middle	-11.5437
▁Ireland	-11.5437
▁species	-11.5437
▁Meyer	-11.5438
▁obtain	-11.5438
▁fought	-11.5438
▁Action	-11.5438
▁Close	-11.5438
▁steel	-11.5438
▁cancer	-11.5439
▁Foxx	-11.544
▁saga	-11.544
▁Sharon	-11.544
▁apply	-11.5441
▁Christine	-11.5441
▁eighties	-11.5441
▁MTV	-11.5442
quaint	-11.5442
▁Sister	-11.5443
▁accompanied	-11.5443
▁Based	-11.5444
▁earnest	-11.5444
▁Snow	-11.5446
Title	-11.5451
▁retain	-11.546
▁vis	-11.5461
▁borrowed	-11.5472
▁Carla	-11.549
▁Name	-11.5493
▁hitch	-11.5496
▁mode	-11.55
true	-11.5513
zzie	-11.5516
▁criticize	-11.5528
particularly	-11.5542
▁Lowe	-11.5542
twist	-11.5544
House	-11.5544
nothing	-11.5547
another	-11.5552
▁coat	-11.5575
Bad	-11.5577
▁arrest	-11.5582
Bill	-11.5586
▁civil	-11.5612
▁Republic	-11.5614
▁Mickey	-11.5614
▁Miyazaki	-11.5614
▁Nicola	-11.5614
▁accuracy	-11.5614
▁alternative	-11.5614
▁campaign	-11.5614
▁celebrity	-11.5614
▁contrary	-11.5614
▁crocodile	-11.5614
▁exposition	-11.5614
▁fascination	-11.5614
▁misfortune	-11.5614
▁unimaginative	-11.5614
▁understated	-11.5614
▁Sheriff	-11.5614
▁Spider	-11.5614
▁demise	-11.5614
▁glowing	-11.5614
▁Cohen	-11.5614
▁biased	-11.5614
▁Shelley	-11.5614
▁ingenious	-11.5614
▁grainy	-11.5615
▁BSG	-11.5615
▁Therefore	-11.5615
▁headache	-11.5615
▁gender	-11.5615
▁Small	-11.5615
▁debate	-11.5616
▁cloud	-11.5616
▁Throughout	-11.5616
▁behold	-11.5616
▁internal	-11.5617
▁whip	-11.5617
▁compensate	-11.5621
▁loop	-11.5623
▁infant	-11.5623
▁flag	-11.5624
▁passage	-11.5624
▁minus	-11.5624
▁tv	-11.5624
▁June	-11.5632
▁Human	-11.5632
▁popularity	-11.5633
▁Kline	-11.5639
▁GO	-11.5641
▁Six	-11.5642
▁Uma	-11.5645
▁fog	-11.5646
▁Color	-11.5652
▁tease	-11.5653
vyn	-11.566
▁severely	-11.5663
▁/>2.	-11.5668
▁patch	-11.5675
▁Sox	-11.5685
▁creator	-11.5694
▁Bach	-11.5699
cross	-11.5702
Bar	-11.5705
lik	-11.5705
Love	-11.5708
migr	-11.5715
sound	-11.5724
▁annoy	-11.5727
plete	-11.5732
▁demean	-11.5741
▁dirt	-11.578
Direction	-11.5781
▁Peck	-11.5783
Beowulf	-11.5796
▁1983	-11.5796
▁Manhattan	-11.5796
▁Scarlet	-11.5796
▁automatically	-11.5796
▁challenging	-11.5796
▁exquisite	-11.5796
▁feminist	-11.5796
▁imaginable	-11.5796
▁prominent	-11.5796
▁soccer	-11.5796
▁squad	-11.5796
▁unexplained	-11.5796
▁vengeance	-11.5796
▁Believe	-11.5796
▁Duvall	-11.5796
▁Kazan	-11.5796
▁gesture	-11.5796
▁orchestra	-11.5796
▁recognis	-11.5796
▁Watson	-11.5796
Phantom	-11.5796
▁edgy	-11.5796
▁niece	-11.5796
▁glaring	-11.5796
▁2002	-11.5796
▁vital	-11.5796
▁mankind	-11.5796
▁faint	-11.5796
▁BIG	-11.5796
▁Truly	-11.5796
▁inherent	-11.5797
▁presume	-11.5797
▁region	-11.5798
▁patron	-11.5798
▁angst	-11.5798
▁menace	-11.5798
▁Ariel	-11.5799
▁unhappy	-11.5799
▁dismiss	-11.58
▁dominate	-11.58
throp	-11.58
▁harmless	-11.5801
Dir	-11.5802
▁plight	-11.5806
immer	-11.5807
▁pub	-11.5809
▁greedy	-11.5811
▁Corman	-11.5813
▁sec	-11.5813
▁'80	-11.5815
▁prepare	-11.5819
erior	-11.5821
▁constructed	-11.5824
▁Gang	-11.5824
▁generated	-11.5827
▁hyper	-11.5828
▁mechanical	-11.5829
▁opt	-11.583
▁closest	-11.5842
ault	-11.5852
▁Needle	-11.5854
▁egg	-11.5874
▁bum	-11.588
titude	-11.5887
cause	-11.5892
game	-11.5893
Okay	-11.5909
Dark	-11.5909
half	-11.5919
thank	-11.5922
▁profession	-11.5927
▁dread	-11.5955
▁prince	-11.5956
▁robber	-11.5963
▁bush	-11.5968
Citizen	-11.5981
Producer	-11.5981
▁Gilliam	-11.5981
▁IMDB	-11.5981
▁Interesting	-11.5981
▁Kansas	-11.5981
▁Kinnear	-11.5981
▁Sunshine	-11.5981
▁caliber	-11.5981
▁critique	-11.5981
▁elegant	-11.5981
▁examination	-11.5981
▁literature	-11.5981
▁participate	-11.5981
▁pocket	-11.5981
▁primitive	-11.5981
▁recognition	-11.5981
▁simultaneously	-11.5981
▁surgery	-11.5981
▁Pamela	-11.5981
▁insurance	-11.5981
▁smiling	-11.5981
▁woeful	-11.5981
▁Fiction	-11.5981
▁Naschy	-11.5981
▁Several	-11.5981
▁drove	-11.5981
▁despise	-11.5981
▁exceed	-11.5982
▁sickening	-11.5982
▁basketball	-11.5982
▁Michel	-11.5982
▁vocal	-11.5982
▁discern	-11.5982
▁Casper	-11.5982
▁protest	-11.5982
▁Randy	-11.5982
▁whack	-11.5983
▁straightforward	-11.5983
▁tube	-11.5983
▁Running	-11.5983
▁housewife	-11.5983
▁NYC	-11.5984
▁sixties	-11.5984
▁shopping	-11.5984
▁Burke	-11.5985
▁EVERY	-11.5985
▁Deanna	-11.5987
▁Marlon	-11.5988
▁Warren	-11.5988
▁waitress	-11.599
▁Wonderful	-11.6009
▁winter	-11.6011
▁bow	-11.6014
▁handling	-11.6022
placing	-11.6033
▁Von	-11.6037
▁suggestion	-11.6042
▁demonstrat	-11.6071
▁clip	-11.6078
ombi	-11.6086
spoiler	-11.6097
modern	-11.6098
writing	-11.6098
Though	-11.6099
AVE	-11.6104
▁Dana	-11.6108
keep	-11.6132
cool	-11.6144
cult	-11.6154
edited	-11.6157
oiled	-11.6165
▁stab	-11.6169
▁incorrect	-11.617
▁twelve	-11.617
▁Adrian	-11.617
▁Detective	-11.617
▁Lennon	-11.617
▁Stuart	-11.617
▁academy	-11.617
▁aesthetic	-11.617
▁behaviour	-11.617
▁candidate	-11.617
▁contribution	-11.617
▁domestic	-11.617
▁expedition	-11.617
▁flimsy	-11.617
▁investigating	-11.617
▁surviving	-11.617
▁tunnel	-11.617
▁unpredictable	-11.617
Invisible	-11.617
▁Vanessa	-11.617
▁definition	-11.617
▁embrace	-11.617
▁prank	-11.617
▁sustain	-11.617
▁couch	-11.617
▁flair	-11.617
oshi	-11.617
▁Frost	-11.617
▁composition	-11.617
▁Curly	-11.617
▁biography	-11.6171
▁wives	-11.6171
▁integra	-11.6171
▁Eastwood	-11.6171
▁tendenc	-11.6171
AGE	-11.6171
▁breed	-11.6172
▁enlist	-11.6172
▁hokey	-11.6172
▁hammy	-11.6173
▁Niven	-11.6174
▁tempted	-11.6175
▁corruption	-11.6177
hhh	-11.6178
▁Justice	-11.618
▁Whoever	-11.6183
▁poem	-11.6183
▁Laugh	-11.6183
▁Million	-11.6184
▁shootout	-11.6184
▁Raines	-11.6185
▁Beast	-11.6185
▁Harrison	-11.6189
▁robbery	-11.6191
▁translated	-11.6196
▁Lena	-11.6205
▁Vol	-11.622
▁UP	-11.6222
▁vain	-11.6228
▁substitut	-11.6237
▁lion	-11.626
▁hooker	-11.626
wife	-11.6288
Very	-11.6291
Having	-11.6294
Dead	-11.6297
found	-11.6302
Naked	-11.6302
▁temper	-11.6335
▁Sub	-11.6336
nglish	-11.636
▁Pokemon	-11.6362
▁Production	-11.6362
▁Soderbergh	-11.6362
▁activities	-11.6362
▁ambiguous	-11.6362
▁aristocrat	-11.6362
▁cliff	-11.6362
▁derivative	-11.6362
▁exposure	-11.6362
▁instrument	-11.6362
▁muscle	-11.6362
▁recycled	-11.6362
▁sufficient	-11.6362
▁amusement	-11.6362
▁crazed	-11.6362
▁entitled	-11.6362
▁exhaust	-11.6362
▁grief	-11.6362
▁literary	-11.6362
▁retired	-11.6362
▁strangl	-11.6362
▁virtue	-11.6362
▁Capote	-11.6362
▁Thurman	-11.6362
▁duration	-11.6362
▁millionaire	-11.6362
▁Naturally	-11.6363
▁agency	-11.6363
▁slut	-11.6363
▁newcomer	-11.6363
▁smell	-11.6363
▁confine	-11.6363
▁Storm	-11.6363
▁counterpart	-11.6363
▁backwards	-11.6364
▁civilian	-11.6365
▁submit	-11.6365
▁Edgar	-11.6365
▁dictator	-11.6367
▁Castle	-11.6372
▁Sanders	-11.6372
▁educational	-11.6372
▁MAD	-11.6372
▁Curr	-11.6373
▁clueless	-11.6374
▁cartoonish	-11.6377
▁mug	-11.6378
▁representation	-11.638
▁warmth	-11.6381
▁polished	-11.6382
▁lens	-11.6383
▁standout	-11.6384
Panic	-11.6386
▁chat	-11.6395
lbert	-11.6438
▁Pia	-11.6439
vig	-11.6439
▁Wonder	-11.6447
▁Turn	-11.6453
know	-11.6456
Steve	-11.6458
▁Israeli	-11.6466
Thank	-11.6486
DVD	-11.6486
serious	-11.6491
Cabin	-11.6491
▁Karl	-11.6508
▁Royal	-11.6508
▁kit	-11.6508
▁tin	-11.6508
▁Amazon	-11.6558
▁Fishburne	-11.6558
▁Mitchum	-11.6558
▁analysis	-11.6558
▁hallucination	-11.6558
▁inexplicable	-11.6558
▁museum	-11.6558
▁obstacle	-11.6558
▁passenger	-11.6558
▁repulsive	-11.6558
▁transcend	-11.6558
▁vignette	-11.6558
▁Chief	-11.6558
▁judging	-11.6558
▁ocean	-11.6558
▁WITH	-11.6558
▁contempt	-11.6558
▁deranged	-11.6559
▁royal	-11.6559
▁chaos	-11.6559
▁Crosby	-11.6559
▁weather	-11.6559
▁Kitty	-11.6559
▁advertised	-11.6559
populated	-11.6559
▁resume	-11.6559
▁outdated	-11.656
▁pirate	-11.656
▁Keep	-11.656
▁hunk	-11.6561
▁bleed	-11.6561
▁restrict	-11.6563
▁viewpoint	-11.6563
▁fluid	-11.6564
▁Gamera	-11.6565
▁Bride	-11.6567
▁Better	-11.657
▁Borg	-11.657
▁precisely	-11.6572
▁careful	-11.6573
▁scriptwriter	-11.6573
▁unlikeable	-11.6574
▁jam	-11.6575
▁difficulties	-11.6577
▁nun	-11.6578
▁engineer	-11.6578
▁spec	-11.6581
▁secondary	-11.6589
▁overlong	-11.6589
▁absorb	-11.6591
▁chicken	-11.6592
▁Bible	-11.6595
bility	-11.6598
▁Jill	-11.6608
▁Marion	-11.6609
▁Mira	-11.6609
▁historic	-11.6635
▁foil	-11.6655
moving	-11.666
Doo	-11.6685
Super	-11.6686
complete	-11.6687
MM	-11.6707
raj	-11.6712
▁Belushi	-11.6758
▁FILM	-11.6758
▁Gerald	-11.6758
▁Instinct	-11.6758
▁Luckily	-11.6758
▁University	-11.6758
▁anticipation	-11.6758
▁companies	-11.6758
▁conscience	-11.6758
▁dilemma	-11.6758
▁dysfunctional	-11.6758
▁elevate	-11.6758
▁eliminate	-11.6758
▁enthusiasm	-11.6758
▁flavor	-11.6758
▁heartfelt	-11.6758
▁inaccurate	-11.6758
▁psychology	-11.6758
▁rambling	-11.6758
▁transplant	-11.6758
▁zoom	-11.6758
▁Hepburn	-11.6758
▁Normally	-11.6758
▁heartbreaking	-11.6758
▁rampage	-11.6758
▁Craven	-11.6758
▁Jordan	-11.6758
▁Dudley	-11.6758
▁household	-11.6758
▁slide	-11.6759
▁Hoffman	-11.6759
▁turd	-11.6759
▁Simply	-11.6759
▁Reiser	-11.6759
▁meandering	-11.6759
▁lurk	-11.6759
▁Gilbert	-11.6759
▁excel	-11.6759
▁Preston	-11.6759
▁frightened	-11.6759
▁motor	-11.6759
▁Apple	-11.6759
▁verbal	-11.6759
▁lush	-11.676
▁Darren	-11.676
ashi	-11.6761
▁Virginia	-11.6761
▁Madsen	-11.6761
▁agenda	-11.6761
▁Lifetime	-11.6763
▁modest	-11.6765
▁Sandra	-11.6765
▁hostage	-11.6765
▁Native	-11.6766
▁Salman	-11.6767
▁Bacon	-11.6767
▁vile	-11.6771
▁Room	-11.6771
▁regardless	-11.6773
▁witches	-11.6782
▁princess	-11.6786
▁biker	-11.6786
▁peril	-11.6791
▁tossed	-11.681
▁pole	-11.6832
▁Miles	-11.6842
lift	-11.6846
held	-11.6869
provoking	-11.689
perhaps	-11.689
release	-11.6892
wick	-11.6905
Will	-11.6909
wept	-11.6941
Creature	-11.6963
▁Arquette	-11.6963
▁Cecil	-11.6963
▁Diamond	-11.6963
▁Fairbanks	-11.6963
▁Gielgud	-11.6963
▁Marshall	-11.6963
▁continuous	-11.6963
▁describing	-11.6963
▁despicable	-11.6963
▁hilarity	-11.6963
▁miraculous	-11.6963
▁schedule	-11.6963
▁stunned	-11.6963
▁sweep	-11.6963
▁unsuspecting	-11.6963
▁perceive	-11.6963
▁Hackman	-11.6963
▁WHO	-11.6963
▁sailor	-11.6963
▁Evelyn	-11.6963
▁smack	-11.6963
▁Antonioni	-11.6963
▁admittedly	-11.6963
▁stroke	-11.6963
▁mistress	-11.6963
▁stream	-11.6963
▁worn	-11.6963
▁grateful	-11.6963
▁imitate	-11.6963
▁unrelated	-11.6963
▁sincerely	-11.6964
▁Bunny	-11.6965
Eastern	-11.6967
aaaa	-11.6969
▁Nobody	-11.6969
▁petty	-11.6969
▁plate	-11.697
▁priceless	-11.697
▁Left	-11.6971
▁Levin	-11.6971
▁vice	-11.6972
▁Light	-11.6977
▁absurdity	-11.698
▁Road	-11.698
▁Union	-11.698
▁Christianity	-11.698
ANG	-11.698
▁Springer	-11.6982
▁masses	-11.6984
▁dresses	-11.6987
▁Gina	-11.6992
▁Clive	-11.6997
▁showdown	-11.6998
post	-11.7008
▁dub	-11.701
▁sensational	-11.7021
ipul	-11.7048
▁cage	-11.7067
EAR	-11.7078
case	-11.7079
little	-11.71
▁Nolan	-11.7105
capable	-11.7105
hib	-11.7107
▁resembl	-11.7132
▁translate	-11.7143
▁judgment	-11.7149
▁ranch	-11.7166
Admittedly	-11.7171
▁1968	-11.7171
▁1973	-11.7171
▁Affleck	-11.7171
▁Attenborough	-11.7171
▁Blunt	-11.7171
▁Cassavetes	-11.7171
▁Eugene	-11.7171
▁Georgia	-11.7171
▁Kathryn	-11.7171
▁Wizard	-11.7171
▁arrival	-11.7171
▁despair	-11.7171
▁elevator	-11.7171
▁exploring	-11.7171
▁gambling	-11.7171
▁obligatory	-11.7171
▁pedestrian	-11.7171
▁provocative	-11.7171
▁redneck	-11.7171
▁samurai	-11.7171
▁significance	-11.7171
▁wrestler	-11.7171
▁bikini	-11.7171
▁massacre	-11.7171
▁spiral	-11.7171
▁supply	-11.7171
▁reliable	-11.7171
▁whiny	-11.7171
▁Bogart	-11.7171
▁Twist	-11.7171
▁inhabitants	-11.7171
▁deleted	-11.7171
▁facing	-11.7171
▁surpasse	-11.7171
▁firing	-11.7171
▁abduct	-11.7171
▁tolerable	-11.7172
▁dubious	-11.7172
▁quant	-11.7172
▁aimless	-11.7172
▁Among	-11.7172
▁Blonde	-11.7172
▁Cruise	-11.7172
▁DOES	-11.7173
▁Work	-11.7173
▁spray	-11.7174
▁Judge	-11.7174
▁Valley	-11.7174
▁Vince	-11.7174
▁Mario	-11.7175
▁Pete	-11.7176
▁Giant	-11.7177
OUR	-11.7177
▁Polly	-11.7178
▁considerably	-11.718
▁Holly	-11.7181
▁brutality	-11.7184
▁distraction	-11.7185
▁remade	-11.7186
▁bible	-11.719
ivity	-11.719
▁Lois	-11.7212
▁admirer	-11.7224
Wonderland	-11.726
step	-11.7261
*********	-11.7262
▁tackle	-11.7277
proving	-11.7296
▁demonic	-11.73
developed	-11.7309
Lewis	-11.7311
fiction	-11.7311
typical	-11.7312
mash	-11.7317
high	-11.7319
sorry	-11.7326
Night	-11.7329
Mad	-11.7352
▁Mack	-11.736
▁Lili	-11.7375
voca	-11.7376
Technically	-11.7384
▁1996	-11.7384
▁Adventure	-11.7384
▁Chicago	-11.7384
▁Dreyfus	-11.7384
▁Paltrow	-11.7384
▁arguably	-11.7384
▁astounding	-11.7384
▁collaboration	-11.7384
▁deserving	-11.7384
▁eternity	-11.7384
▁inevitably	-11.7384
▁intricate	-11.7384
▁investigator	-11.7384
▁loneliness	-11.7384
▁physics	-11.7384
▁salvage	-11.7384
▁suspension	-11.7384
▁suspicion	-11.7384
▁unattractive	-11.7384
▁unleash	-11.7384
▁Laurie	-11.7384
▁Tokyo	-11.7384
▁arguing	-11.7384
▁proportion	-11.7384
▁scandal	-11.7384
▁static	-11.7384
▁Should	-11.7384
▁Until	-11.7384
▁View	-11.7384
▁blink	-11.7384
▁cigarette	-11.7384
▁banter	-11.7384
▁crisp	-11.7384
▁spree	-11.7384
▁culminat	-11.7384
▁Ebert	-11.7384
▁convert	-11.7384
Rosemary	-11.7384
UCK	-11.7385
▁paycheck	-11.7385
▁fruit	-11.7385
▁bumbling	-11.7385
▁chopped	-11.7385
▁unsure	-11.7386
▁Chong	-11.7387
▁Word	-11.7387
▁glee	-11.7388
▁shaking	-11.7388
▁chore	-11.7389
▁cruelty	-11.739
▁slam	-11.7392
▁Rush	-11.7393
▁wax	-11.7394
▁Judy	-11.7394
▁edition	-11.7395
▁Danish	-11.7396
▁cents	-11.7398
▁Order	-11.7398
▁stake	-11.7403
▁NY	-11.7403
riot	-11.7409
▁Lester	-11.741
▁punches	-11.741
ggie	-11.742
▁insightful	-11.742
▁regime	-11.7423
▁Paz	-11.7426
▁punish	-11.7434
▁Suz	-11.7449
christ	-11.7455
▁tolerate	-11.7465
People	-11.7529
family	-11.7529
▁Alba	-11.7532
▁cheat	-11.7536
▁expose	-11.7573
▁tire	-11.7577
▁Behind	-11.7601
▁Brashear	-11.7601
▁Clooney	-11.7601
▁Emperor	-11.7601
▁Furthermore	-11.7601
▁Lindsay	-11.7601
▁MUCH	-11.7601
▁architect	-11.7601
▁comprehend	-11.7601
▁crucial	-11.7601
▁cyborg	-11.7601
▁deceased	-11.7601
▁departure	-11.7601
▁disastrous	-11.7601
▁elephant	-11.7601
▁estranged	-11.7601
▁eternal	-11.7601
▁naughty	-11.7601
▁participant	-11.7601
▁pleasing	-11.7601
▁rhythm	-11.7601
▁skeptic	-11.7601
▁survival	-11.7601
▁Toronto	-11.7601
▁delicate	-11.7601
▁disregard	-11.7601
▁permanent	-11.7601
▁mafia	-11.7601
▁mortal	-11.7601
▁joking	-11.7601
▁marginal	-11.7601
▁Hooper	-11.7601
▁cream	-11.7601
▁assuming	-11.7601
▁bulk	-11.7601
▁Paramount	-11.7601
▁DID	-11.7601
▁Wendy	-11.7601
calcul	-11.7601
▁Worse	-11.7601
▁mannerisms	-11.7601
://	-11.7602
▁ignorance	-11.7602
▁infected	-11.7602
▁neurotic	-11.7602
▁preced	-11.7602
▁nauseating	-11.7602
▁Runner	-11.7604
▁Troma	-11.7604
▁loyalty	-11.7605
▁trivial	-11.7606
▁Carmen	-11.7606
▁rising	-11.7608
▁shade	-11.7609
▁Flash	-11.7609
▁YOUR	-11.761
▁subway	-11.7614
▁mentality	-11.7615
▁teaches	-11.7617
▁Carell	-11.7618
▁avenge	-11.7628
▁Clay	-11.763
htt	-11.7632
▁Christie	-11.7637
▁file	-11.7648
▁Lex	-11.7652
▁defie	-11.7655
centered	-11.7663
▁Robot	-11.7722
▁incidental	-11.7738
present	-11.7746
Which	-11.7751
Blood	-11.7751
Since	-11.7751
Charl	-11.7752
▁clan	-11.7761
shock	-11.7761
speak	-11.7784
▁symbolic	-11.7785
▁construct	-11.7787
▁immediate	-11.7798
opera	-11.7815
▁Russia	-11.7818
NIGHT	-11.7823
▁1939	-11.7823
▁1972	-11.7823
▁1993	-11.7823
▁Beckham	-11.7823
▁Central	-11.7823
▁Streep	-11.7823
▁accompany	-11.7823
▁aggressive	-11.7823
▁corporation	-11.7823
▁emphasize	-11.7823
▁energetic	-11.7823
▁explosive	-11.7823
▁extensive	-11.7823
▁industrial	-11.7823
▁masturbat	-11.7823
▁monitor	-11.7823
▁perception	-11.7823
▁rabbit	-11.7823
▁redundant	-11.7823
▁ridicule	-11.7823
▁suffice	-11.7823
▁terrified	-11.7823
▁tomatoes	-11.7823
▁turtle	-11.7823
▁feeble	-11.7823
▁recreate	-11.7823
▁utilize	-11.7823
▁Bernard	-11.7823
▁Bloom	-11.7823
▁Giallo	-11.7823
▁assignment	-11.7823
▁Strong	-11.7823
▁TCM	-11.7823
▁cruise	-11.7823
Pakistan	-11.7823
▁click	-11.7823
esquire	-11.7823
▁abortion	-11.7823
▁tactic	-11.7823
▁stairs	-11.7824
▁steady	-11.7824
▁Wayans	-11.7824
▁civilization	-11.7824
▁Otto	-11.7824
▁steer	-11.7824
▁Saint	-11.7824
▁Hopefully	-11.7824
▁interior	-11.7824
▁midnight	-11.7825
▁midget	-11.7826
▁macho	-11.7827
▁Wave	-11.7827
▁stripper	-11.7827
▁parade	-11.7828
ITY	-11.7829
▁recit	-11.783
▁Mouse	-11.783
▁genetic	-11.783
▁Mask	-11.7831
▁posing	-11.7833
▁pump	-11.7834
▁commitment	-11.7834
scribe	-11.7835
▁spout	-11.7837
▁spies	-11.7837
▁Wong	-11.7837
▁possession	-11.7838
▁Wright	-11.7841
▁assert	-11.7846
super	-11.7952
Rob	-11.7958
produced	-11.7959
filled	-11.7978
adventure	-11.7978
producer	-11.7978
Little	-11.7978
experience	-11.7978
▁error	-11.7996
iki	-11.7999
▁Revolution	-11.8017
Sullivan	-11.8051
▁1986	-11.8051
▁1989	-11.8051
▁Armstrong	-11.8051
▁DEAD	-11.8051
▁PLEASE	-11.8051
▁Professor	-11.8051
▁Vonnegut	-11.8051
▁advertisement	-11.8051
▁cripple	-11.8051
▁depression	-11.8051
▁hybrid	-11.8051
▁traffic	-11.8051
▁1997	-11.8051
▁Cagney	-11.8051
▁Rohmer	-11.8051
▁Support	-11.8051
▁WRONG	-11.8051
▁historian	-11.8051
▁leather	-11.8051
▁antagonist	-11.8051
▁warehouse	-11.8051
▁Hindi	-11.8051
▁disorder	-11.8051
▁underwear	-11.8051
▁anxious	-11.8051
▁filter	-11.8051
▁Nolte	-11.8051
▁Sweden	-11.8051
▁plodding	-11.8051
▁Shepard	-11.8051
▁Potter	-11.8051
▁mercy	-11.8051
▁Huston	-11.8051
▁meteor	-11.8051
▁contend	-11.8052
▁lunch	-11.8052
▁debt	-11.8052
nalyze	-11.8052
▁promotion	-11.8053
▁mush	-11.8054
▁brush	-11.8054
▁befriends	-11.8054
▁unnatural	-11.8054
▁salt	-11.8054
▁Aunt	-11.8056
▁Masterson	-11.8056
▁ripping	-11.8056
▁Stella	-11.8056
▁Odd	-11.8057
▁Stock	-11.8057
▁OUT	-11.8058
▁betrayal	-11.806
delusion	-11.8063
▁stopping	-11.8065
▁aiming	-11.8072
▁indicat	-11.8084
▁Carrie	-11.8119
oriented	-11.8145
blade	-11.8171
strict	-11.8206
number	-11.8211
yeah	-11.8211
depend	-11.8211
Life	-11.8212
second	-11.8213
▁rod	-11.8227
check	-11.8276
▁approx	-11.8283
▁August	-11.8283
▁Crystal	-11.8283
▁Kurosawa	-11.8283
▁Olivia	-11.8283
▁Pumbaa	-11.8283
▁Schneider	-11.8283
▁Scorsese	-11.8283
▁TIME	-11.8283
▁airplane	-11.8283
▁dwarf	-11.8283
▁jarring	-11.8283
▁kudos	-11.8283
▁prospect	-11.8283
▁rebellious	-11.8283
▁sarcastic	-11.8283
▁scholar	-11.8283
▁seductive	-11.8283
▁unappealing	-11.8283
▁vibrant	-11.8283
▁Blandings	-11.8283
▁Faith	-11.8283
▁fifty	-11.8283
▁frantic	-11.8283
▁hapless	-11.8283
▁supreme	-11.8283
▁WILL	-11.8283
▁Bacall	-11.8283
▁stabbed	-11.8283
▁hollow	-11.8283
▁educate	-11.8283
▁Cushing	-11.8283
▁Meryl	-11.8283
▁revive	-11.8283
▁destine	-11.8283
▁buzz	-11.8283
▁mayhem	-11.8283
▁Miranda	-11.8283
▁shortcomings	-11.8283
HEAD	-11.8283
▁Gackt	-11.8283
▁identical	-11.8283
▁Aaron	-11.8283
▁raid	-11.8284
▁Fried	-11.8284
▁1920	-11.8285
▁divide	-11.8285
▁activity	-11.8285
OCK	-11.8285
▁Jagger	-11.8286
▁Country	-11.8287
▁preferred	-11.8289
▁Harron	-11.8289
▁assassination	-11.829
▁collective	-11.829
▁Rule	-11.8291
▁mice	-11.8292
▁spice	-11.8298
▁Chill	-11.8315
▁shameful	-11.8333
▁Finn	-11.8364
BLE	-11.8394
▁croc	-11.8446
Three	-11.8449
before	-11.8449
Charles	-11.8457
cheek	-11.8457
New	-11.8458
Directed	-11.8468
UGH	-11.8474
FUL	-11.8477
voice	-11.8479
EVER	-11.848
fortunately	-11.8481
▁cynic	-11.8495
ggle	-11.8501
▁Errol	-11.8502
corn	-11.8516
▁1959	-11.8521
▁1971	-11.8521
▁Bachchan	-11.8521
▁Dafoe	-11.8521
▁Dietrich	-11.8521
▁Enterprise	-11.8521
▁Florida	-11.8521
▁Massacre	-11.8521
▁Venezuela	-11.8521
▁admirable	-11.8521
▁astronaut	-11.8521
▁collapse	-11.8521
▁denouement	-11.8521
▁distributor	-11.8521
▁entrance	-11.8521
▁fabric	-11.8521
▁fifties	-11.8521
▁legitimate	-11.8521
▁pioneer	-11.8521
▁prosecut	-11.8521
▁trigger	-11.8521
▁turmoil	-11.8521
wrenching	-11.8521
▁Gibson	-11.8521
▁Speaking	-11.8521
▁caretaker	-11.8521
▁senior	-11.8521
▁Bruno	-11.8521
▁abomination	-11.8521
▁babies	-11.8521
▁coffin	-11.8521
▁Warrior	-11.8521
▁provoke	-11.8521
▁uplifting	-11.8521
▁Ronald	-11.8521
▁Porter	-11.8521
▁conquer	-11.8521
▁Collins	-11.8521
▁Horse	-11.8521
choosing	-11.8521
▁Martha	-11.8521
▁horny	-11.8522
▁copied	-11.8522
▁zone	-11.8522
▁descent	-11.8522
▁route	-11.8522
▁clinic	-11.8522
▁frog	-11.8522
▁Bryan	-11.8523
▁arrow	-11.8523
▁yellow	-11.8523
▁keen	-11.8523
▁Ashley	-11.8523
▁Bugs	-11.8524
▁hungry	-11.8524
▁slapped	-11.8524
▁referring	-11.8524
▁mobster	-11.8525
Lucille	-11.8525
▁Jedi	-11.8526
▁drab	-11.8526
▁Tenant	-11.8526
▁funding	-11.8526
▁moderate	-11.8527
▁Ethan	-11.8527
▁ripoff	-11.8528
▁theories	-11.853
▁snowman	-11.853
▁iconic	-11.853
▁rose	-11.8532
▁whim	-11.8533
▁Money	-11.8534
▁Boris	-11.8534
▁outrage	-11.8535
▁HOW	-11.8536
▁Alec	-11.8541
▁billion	-11.8553
nzo	-11.8565
▁HAVE	-11.8566
Daniel	-11.8693
spirited	-11.8697
erotic	-11.87
reason	-11.8705
▁breast	-11.8731
▁eventual	-11.8744
▁Emil	-11.8754
atrix	-11.8764
▁1984	-11.8765
▁AIDS	-11.8765
▁Austin	-11.8765
▁Austria	-11.8765
▁Fitzgerald	-11.8765
▁Galactica	-11.8765
▁Lampoon	-11.8765
▁Melissa	-11.8765
▁Pacific	-11.8765
▁Parsons	-11.8765
▁Randolph	-11.8765
▁Technicolor	-11.8765
▁blunt	-11.8765
▁captivate	-11.8765
▁confidence	-11.8765
▁expense	-11.8765
▁nightclub	-11.8765
▁spectacle	-11.8765
▁triangle	-11.8765
▁undeniably	-11.8765
▁wardrobe	-11.8765
atherine	-11.8765
▁Detroit	-11.8765
▁Wagner	-11.8765
▁draft	-11.8765
▁legacy	-11.8765
▁Robbins	-11.8765
▁finance	-11.8765
▁mystical	-11.8765
▁wilderness	-11.8765
▁jacket	-11.8765
▁Brett	-11.8765
▁Dylan	-11.8765
▁Tyler	-11.8765
▁qualifie	-11.8765
▁Anchor	-11.8765
▁violat	-11.8765
▁distress	-11.8765
▁lecture	-11.8765
▁LOL	-11.8765
▁partially	-11.8765
▁shining	-11.8766
▁derive	-11.8766
▁crank	-11.8766
▁revel	-11.8766
ealand	-11.8766
▁Montana	-11.8766
▁racing	-11.8766
▁knee	-11.8767
▁sleepwalk	-11.8767
OLD	-11.8767
▁slack	-11.8769
▁tramp	-11.8771
▁pathos	-11.8771
▁percent	-11.8771
▁minister	-11.8772
▁gene	-11.8774
▁candle	-11.8775
▁Damn	-11.8776
▁dwell	-11.8777
▁addiction	-11.8781
▁whine	-11.8783
▁marrie	-11.8793
▁Egg	-11.8798
▁Must	-11.88
cloth	-11.8816
referred	-11.8854
▁operate	-11.8878
▁cheerful	-11.889
▁figur	-11.8929
ALLY	-11.8936
▁Terri	-11.8937
Cinderella	-11.8943
documentary	-11.8943
phrase	-11.8943
▁haunt	-11.8946
▁surround	-11.8947
please	-11.8957
▁Kind	-11.8968
▁revolve	-11.8984
▁amaze	-11.8987
Add	-11.8989
piration	-11.9012
Casablanca	-11.9015
phobia	-11.9015
▁Goldblum	-11.9015
▁Hannah	-11.9015
▁KNOW	-11.9015
▁Phoenix	-11.9015
▁Renaissance	-11.9015
▁Sebastian	-11.9015
▁Soylent	-11.9015
▁Tomatoes	-11.9015
▁cerebral	-11.9015
▁electronic	-11.9015
▁engrossing	-11.9015
▁experiencing	-11.9015
▁ghetto	-11.9015
▁introducing	-11.9015
▁lunatic	-11.9015
▁monotonous	-11.9015
▁nutshell	-11.9015
▁opponent	-11.9015
▁overblown	-11.9015
▁relevance	-11.9015
▁seldom	-11.9015
▁studies	-11.9015
▁unsatisfying	-11.9015
▁unsympathetic	-11.9015
▁Kilmer	-11.9015
▁Kinski	-11.9015
▁League	-11.9015
▁Temple	-11.9015
▁Urban	-11.9015
▁client	-11.9015
▁embark	-11.9015
▁puppy	-11.9015
▁refuge	-11.9015
▁shrink	-11.9015
▁NBC	-11.9015
▁exterior	-11.9015
▁chorus	-11.9015
▁2008	-11.9015
▁femme	-11.9015
▁morph	-11.9015
▁Truman	-11.9015
▁baffle	-11.9015
▁choir	-11.9015
▁/>3/10	-11.9015
▁Denise	-11.9015
▁dentist	-11.9015
▁worm	-11.9015
▁synth	-11.9016
▁taboo	-11.9016
▁accessible	-11.9016
▁skate	-11.9017
▁jock	-11.9017
▁gunfight	-11.9018
▁limp	-11.9018
▁skinny	-11.9018
▁wimp	-11.9019
▁Debra	-11.902
▁GOD	-11.9021
oogie	-11.9023
▁Goldie	-11.9023
▁/>1)	-11.9024
▁Rider	-11.9025
▁Franklin	-11.9025
▁stray	-11.9026
▁Muni	-11.9026
▁crop	-11.903
▁duck	-11.9034
▁drill	-11.904
close	-11.9166
change	-11.9193
Blue	-11.9199
Everything	-11.92
touch	-11.9202
Unless	-11.9206
shoot	-11.9228
▁overwhelm	-11.9235
▁float	-11.9236
▁confuse	-11.9243
▁Act	-11.9247
▁greed	-11.9253
Hobgoblins	-11.9272
imagining	-11.9272
▁1933	-11.9272
▁1969	-11.9272
▁Audrey	-11.9272
▁DeMille	-11.9272
▁Fontaine	-11.9272
▁LIKE	-11.9272
▁Meadows	-11.9272
▁Python	-11.9272
▁Sundance	-11.9272
▁assembled	-11.9272
▁brooding	-11.9272
▁controversy	-11.9272
▁destiny	-11.9272
▁heartwarming	-11.9272
▁inaccuracies	-11.9272
▁inclusion	-11.9272
▁obsessive	-11.9272
▁peculiar	-11.9272
▁rhyme	-11.9272
▁substantial	-11.9272
▁transparent	-11.9272
▁unanswered	-11.9272
▁vapid	-11.9272
▁Savage	-11.9272
▁underwater	-11.9272
▁Clearly	-11.9272
▁Jenna	-11.9272
▁Voyager	-11.9272
▁polite	-11.9272
▁pulp	-11.9272
▁jaded	-11.9272
▁chemical	-11.9272
▁comprise	-11.9272
affirm	-11.9272
▁whining	-11.9272
▁Cindy	-11.9272
▁quasi	-11.9272
▁Foot	-11.9272
▁glamorous	-11.9272
▁scariest	-11.9273
OTHER	-11.9273
alvation	-11.9273
▁splash	-11.9273
▁idol	-11.9273
▁Rodney	-11.9273
▁Guess	-11.9273
▁annoyance	-11.9273
▁immerse	-11.9274
▁Arnie	-11.9274
▁hoot	-11.9275
BTW	-11.9276
▁Throw	-11.9279
righteous	-11.9283
▁washed	-11.9288
▁clash	-11.9295
▁dorm	-11.9304
▁verge	-11.9311
▁slop	-11.9329
OLL	-11.9338
umbling	-11.9365
Neill	-11.9376
witted	-11.9435
Seriously	-11.9462
connect	-11.9462
important	-11.9462
flick	-11.9462
people	-11.9462
Film	-11.9463
Jones	-11.9465
winning	-11.9466
happy	-11.9468
▁evolution	-11.9478
▁revere	-11.9479
absorbed	-11.9491
▁engine	-11.9509
▁societ	-11.9515
▁gymnast	-11.9535
Script	-11.9535
▁1978	-11.9535
▁1988	-11.9535
▁1991	-11.9535
▁Bogdanovich	-11.9535
▁Columbia	-11.9535
▁Grendel	-11.9535
▁Kusturica	-11.9535
▁MUST	-11.9535
▁MacMurray	-11.9535
▁Netflix	-11.9535
▁Rowlands	-11.9535
▁Seattle	-11.9535
▁Shepherd	-11.9535
▁Snipes	-11.9535
▁Turkish	-11.9535
▁cemetery	-11.9535
▁claustrophobic	-11.9535
▁definitive	-11.9535
▁devastating	-11.9535
▁macabre	-11.9535
▁platform	-11.9535
▁pretension	-11.9535
▁releasing	-11.9535
▁sensual	-11.9535
▁underneath	-11.9535
▁werewolves	-11.9535
▁Ritchie	-11.9535
▁Sarandon	-11.9535
▁lavish	-11.9535
▁reinforce	-11.9535
▁rewrite	-11.9535
▁clerk	-11.9535
▁flood	-11.9535
▁Ferrell	-11.9535
▁faux	-11.9535
Braveheart	-11.9535
▁Creek	-11.9535
▁Dunne	-11.9535
Visually	-11.9535
▁Shatner	-11.9535
▁karate	-11.9535
▁Mabel	-11.9535
▁CBS	-11.9535
▁sincerity	-11.9535
▁article	-11.9535
▁Ajay	-11.9535
▁Doyle	-11.9535
▁disabled	-11.9535
▁Shaggy	-11.9535
▁spew	-11.9535
uentin	-11.9536
▁Britney	-11.9536
▁limitations	-11.9536
▁curtain	-11.9537
▁Segal	-11.9537
Natural	-11.9537
▁Kathy	-11.9537
▁furious	-11.9537
▁spill	-11.9539
▁Bonnie	-11.9539
▁Garden	-11.954
▁chock	-11.954
▁Hawn	-11.9542
john	-11.9553
▁undermine	-11.9554
▁secure	-11.9558
coaster	-11.9559
▁Palm	-11.9561
lapse	-11.9565
arriage	-11.9591
▁axe	-11.9606
quality	-11.9615
▁invad	-11.9618
▁illustr	-11.9636
lisha	-11.9717
natural	-11.9728
70	-11.9731
Return	-11.9732
Yeah	-11.9732
Acting	-11.9733
professional	-11.9733
girlfriend	-11.9734
Basically	-11.9735
plus	-11.9736
culture	-11.9741
print	-11.9761
media	-11.9779
▁virtual	-11.978
▁Euro	-11.9803
▁1944	-11.9805
▁1979	-11.9805
▁1981	-11.9805
▁1985	-11.9805
▁Amrita	-11.9805
▁Dukakis	-11.9805
▁Englund	-11.9805
▁Farnsworth	-11.9805
▁Lubitsch	-11.9805
▁Oprah	-11.9805
▁Together	-11.9805
▁Vaughn	-11.9805
▁atrocity	-11.9805
▁compromise	-11.9805
▁degenerate	-11.9805
▁exploding	-11.9805
▁fiasco	-11.9805
▁horrified	-11.9805
▁optimistic	-11.9805
▁phenomenon	-11.9805
▁privilege	-11.9805
▁sensible	-11.9805
▁submarine	-11.9805
▁subtext	-11.9805
▁suburban	-11.9805
▁Dangerous	-11.9805
▁Spencer	-11.9805
▁bastard	-11.9805
▁junior	-11.9805
▁psyche	-11.9805
▁squander	-11.9805
▁fraud	-11.9805
▁satirical	-11.9805
▁Granger	-11.9805
▁Machine	-11.9805
▁anthology	-11.9805
▁Ingrid	-11.9805
▁Wrong	-11.9805
▁insanity	-11.9805
▁Owl	-11.9805
▁garner	-11.9805
climatic	-11.9805
Stardust	-11.9805
▁sharing	-11.9805
▁salesman	-11.9805
▁pollut	-11.9805
▁strive	-11.9805
▁saint	-11.9806
▁unseen	-11.9806
▁Esther	-11.9806
▁Actress	-11.9806
▁informative	-11.9806
▁Simple	-11.9806
▁pornography	-11.9806
▁organization	-11.9806
▁Irving	-11.9806
▁kidnapping	-11.9807
▁Theatre	-11.9807
▁brown	-11.9808
▁underdeveloped	-11.9808
▁beef	-11.9808
▁Kingdom	-11.9809
▁churn	-11.9811
▁bald	-11.9812
Pecker	-11.9853
▁inflict	-11.994
llied	-11.998
Much	-12.001
White	-12.001
Batman	-12.0011
Because	-12.0011
Nothing	-12.0012
dramatic	-12.0014
control	-12.0026
rapy	-12.0044
rotting	-12.0049
semblance	-12.0078
occupied	-12.0083
▁Communist	-12.0083
▁Hawaii	-12.0083
▁Kathleen	-12.0083
▁Lansbury	-12.0083
▁Lombard	-12.0083
▁McCarthy	-12.0083
▁McDermott	-12.0083
▁Rochester	-12.0083
▁Rosario	-12.0083
▁Thompson	-12.0083
▁Travolta	-12.0083
▁ambiguity	-12.0083
▁centuries	-12.0083
▁component	-12.0083
▁compound	-12.0083
▁continuing	-12.0083
▁distributed	-12.0083
▁epitom	-12.0083
▁innuendo	-12.0083
▁manipulation	-12.0083
▁motorcycle	-12.0083
▁parodies	-12.0083
▁psychedelic	-12.0083
▁psychologist	-12.0083
▁surgeon	-12.0083
▁thirties	-12.0083
▁uncanny	-12.0083
▁understatement	-12.0083
▁university	-12.0083
▁Company	-12.0083
▁Keitel	-12.0083
▁Longoria	-12.0083
▁Marilyn	-12.0083
▁Plenty	-12.0083
▁SOME	-12.0083
▁Sophia	-12.0083
▁sublime	-12.0083
▁voyeur	-12.0083
▁MORE	-12.0083
▁bimbo	-12.0083
▁bloke	-12.0083
▁invasion	-12.0083
▁unwilling	-12.0083
▁Malden	-12.0083
▁Reagan	-12.0083
▁bubble	-12.0083
▁Northern	-12.0083
▁implied	-12.0083
▁sorrow	-12.0083
▁auteur	-12.0083
▁mythology	-12.0083
▁palace	-12.0084
▁stepmother	-12.0084
▁:-)	-12.0084
▁plug	-12.0085
▁hallway	-12.0085
▁Gunga	-12.0086
▁Archer	-12.0086
▁Barney	-12.0086
▁orange	-12.0087
▁snuff	-12.0088
▁halt	-12.0096
meaning	-12.0097
▁IMO	-12.0116
Class	-12.0163
▁capitalize	-12.017
Meanwhile	-12.0296
together	-12.0296
believe	-12.0297
Angel	-12.0298
▁frank	-12.0343
▁literal	-12.0343
WARNING	-12.0368
volunteer	-12.0368
▁Christensen	-12.0368
▁Edmund	-12.0368
▁Fellini	-12.0368
▁Redgrave	-12.0368
▁acquaintance	-12.0368
▁bittersweet	-12.0368
▁caution	-12.0368
▁facility	-12.0368
▁gigantic	-12.0368
▁havoc	-12.0368
▁incestuous	-12.0368
▁instructor	-12.0368
▁neighbour	-12.0368
▁ominous	-12.0368
▁qualify	-12.0368
▁sergeant	-12.0368
▁stylized	-12.0368
▁supermarket	-12.0368
▁thieves	-12.0368
▁unnecessarily	-12.0368
▁Cowboy	-12.0368
▁Crenna	-12.0368
▁Sykes	-12.0368
▁simulat	-12.0368
▁spontaneous	-12.0368
▁Lopez	-12.0368
▁VCR	-12.0368
▁fifth	-12.0368
▁imprison	-12.0368
▁librarian	-12.0368
▁Hilton	-12.0368
▁stabbing	-12.0368
▁Brazilian	-12.0368
▁tedium	-12.0368
▁unstable	-12.0368
▁diminish	-12.0368
▁injured	-12.0368
▁robbed	-12.0368
▁garage	-12.0369
▁Slater	-12.0369
▁summarize	-12.0369
▁buffoon	-12.0369
▁plod	-12.0369
▁Ironically	-12.0369
▁Izzard	-12.0369
▁serum	-12.0369
▁spouse	-12.0369
▁misfit	-12.0369
▁wrist	-12.0369
Welcome	-12.0369
▁shelter	-12.0369
▁Tibet	-12.0369
▁Jacob	-12.0369
▁Seuss	-12.0369
▁Durbin	-12.0369
▁isolation	-12.037
▁Anything	-12.037
▁forbidden	-12.037
▁vault	-12.037
▁boost	-12.037
▁cringing	-12.037
▁screwball	-12.037
▁Redford	-12.037
▁weave	-12.0371
▁Christina	-12.0371
▁mustache	-12.0371
▁harass	-12.0372
▁authorities	-12.0372
▁subtly	-12.0372
▁Barker	-12.0373
▁dork	-12.0388
▁weep	-12.0393
protective	-12.0408
▁mumbl	-12.0423
▁Direct	-12.0448
nivers	-12.0509
aggy	-12.0548
▁sensation	-12.0579
political	-12.059
pathetic	-12.059
▁embarrass	-12.0591
build	-12.0591
Story	-12.0592
▁Spade	-12.0596
bomb	-12.0605
actually	-12.0609
▁mechanic	-12.061
▁elder	-12.0638
Scarecrow	-12.0663
Surprisingly	-12.0663
Survivor	-12.0663
apocalyptic	-12.0663
▁1976	-12.0663
▁1998	-12.0663
▁Aiello	-12.0663
▁Aussie	-12.0663
▁Bennett	-12.0663
▁Cunningham	-12.0663
▁Express	-12.0663
▁Flynn	-12.0663
▁Govinda	-12.0663
▁Grudge	-12.0663
▁Journey	-12.0663
▁Marjorie	-12.0663
▁Rodriguez	-12.0663
▁STILL	-12.0663
▁ancestor	-12.0663
▁assumption	-12.0663
▁biblical	-12.0663
▁biopic	-12.0663
▁ceiling	-12.0663
▁clunky	-12.0663
▁discipline	-12.0663
▁escaping	-12.0663
▁glorifie	-12.0663
▁handicapped	-12.0663
▁improbable	-12.0663
▁inspector	-12.0663
▁mediocrity	-12.0663
▁mesmerizing	-12.0663
▁misunderstood	-12.0663
▁perpetrat	-12.0663
▁preserve	-12.0663
▁sarcasm	-12.0663
▁slept	-12.0663
▁smirk	-12.0663
▁squeeze	-12.0663
▁stylistic	-12.0663
▁succumb	-12.0663
▁unconventional	-12.0663
▁Lommel	-12.0663
▁fragment	-12.0663
▁playwright	-12.0663
▁fodder	-12.0663
▁Chiba	-12.0663
▁Colonel	-12.0663
▁Harriet	-12.0663
▁Myrna	-12.0663
▁Takashi	-12.0663
▁suppress	-12.0663
▁hypo	-12.0663
▁implies	-12.0663
▁Ledger	-12.0663
▁raising	-12.0663
▁Sergi	-12.0663
▁Beverly	-12.0663
▁offense	-12.0663
▁videotape	-12.0663
▁anguish	-12.0663
▁miniseries	-12.0663
▁dopey	-12.0663
odiac	-12.0664
▁padding	-12.0664
▁1995	-12.0665
▁branch	-12.0665
LESS	-12.0666
▁Agent	-12.0666
▁Born	-12.0669
▁versa	-12.0672
petition	-12.0708
▁Tak	-12.0737
Battle	-12.0815
haired	-12.0826
iddle	-12.0866
Sound	-12.0893
Halloween	-12.0893
Christopher	-12.0893
Besides	-12.0893
frame	-12.0893
wrote	-12.0893
dancing	-12.0893
effects	-12.0893
shirt	-12.0894
first	-12.0894
much	-12.0894
personal	-12.0894
cessi	-12.0909
music	-12.0928
logical	-12.0946
hunt	-12.0948
▁differ	-12.0962
Airplane	-12.0966
Fantastic	-12.0966
Moonstruck	-12.0966
Olympia	-12.0966
congratulat	-12.0966
▁1936	-12.0966
▁1977	-12.0966
▁Azumi	-12.0966
▁BLOOD	-12.0966
▁Bolivia	-12.0966
▁Dillinger	-12.0966
▁Episode	-12.0966
▁Fantasy	-12.0966
▁Gretchen	-12.0966
▁Liotta	-12.0966
▁Minnelli	-12.0966
▁Portuguese	-12.0966
▁Possibly	-12.0966
▁Shannon	-12.0966
▁Sorvino	-12.0966
▁Sydney	-12.0966
▁Witherspoon	-12.0966
▁complement	-12.0966
▁earliest	-12.0966
▁incarnation	-12.0966
▁murky	-12.0966
▁overbearing	-12.0966
▁perpetual	-12.0966
▁rehearsal	-12.0966
▁retrospect	-12.0966
▁revolving	-12.0966
▁spaghetti	-12.0966
▁sprinkl	-12.0966
▁voodoo	-12.0966
▁Fritz	-12.0966
▁Jabba	-12.0966
▁Kennedy	-12.0966
▁chronicle	-12.0966
▁prevail	-12.0966
▁razor	-12.0966
▁saloon	-12.0966
▁ambiance	-12.0966
▁policy	-12.0966
▁uninspiring	-12.0966
▁studied	-12.0966
▁/>10/10	-12.0966
▁Hopper	-12.0966
▁Terror	-12.0966
▁shrill	-12.0966
▁outlandish	-12.0966
▁Network	-12.0966
▁casino	-12.0966
▁/>7/10	-12.0966
▁Iturbi	-12.0966
▁Holland	-12.0966
▁spider	-12.0966
▁captive	-12.0966
▁phase	-12.0966
▁tiger	-12.0966
▁sparse	-12.0966
▁eyebrow	-12.0966
▁Irwin	-12.0966
▁elite	-12.0966
▁Judd	-12.0966
▁Gregory	-12.0966
▁twit	-12.0966
▁roam	-12.0966
▁Europa	-12.0966
▁Winston	-12.0967
Midnight	-12.0967
▁0/10	-12.0967
▁Combs	-12.0967
▁cancelled	-12.0968
▁crown	-12.0968
Crash	-12.0972
▁sheep	-12.0981
▁fortunate	-12.101
▁suitabl	-12.1021
OTT	-12.1066
▁Opera	-12.1069
▁PRI	-12.1073
Mystery	-12.1205
Hamlet	-12.1205
About	-12.1206
Henry	-12.1206
better	-12.1207
dream	-12.1207
figure	-12.1207
▁determine	-12.125
▁Holm	-12.1271
▁trivia	-12.1272
Stephanie	-12.1278
Trelkovsky	-12.1278
misunderstanding	-12.1278
reservation	-12.1278
▁1967	-12.1278
▁1974	-12.1278
▁ANYTHING	-12.1278
▁COULD	-12.1278
▁Chamberlain	-12.1278
▁Fawcett	-12.1278
▁Floriane	-12.1278
▁HUGE	-12.1278
▁Jacques	-12.1278
▁Kristofferson	-12.1278
▁Mastroianni	-12.1278
▁McDonald	-12.1278
▁McDowell	-12.1278
▁McLaglen	-12.1278
▁Plummer	-12.1278
▁applies	-12.1278
▁approve	-12.1278
▁bounce	-12.1278
▁brunette	-12.1278
▁capacity	-12.1278
▁complications	-12.1278
▁conniving	-12.1278
▁continent	-12.1278
▁exaggeration	-12.1278
▁fragile	-12.1278
▁gadget	-12.1278
▁ghastly	-12.1278
▁haphazard	-12.1278
▁laboratory	-12.1278
▁mutual	-12.1278
▁obscurity	-12.1278
▁overwrought	-12.1278
▁retrieve	-12.1278
▁revisit	-12.1278
▁superfluous	-12.1278
Written	-12.1278
▁AWAY	-12.1278
▁Farrah	-12.1278
▁Keanu	-12.1278
▁Purple	-12.1278
▁cocaine	-12.1278
▁sleeve	-12.1278
▁Czech	-12.1278
▁Sophie	-12.1278
▁Vivian	-12.1278
▁graveyard	-12.1278
▁henchmen	-12.1278
▁testament	-12.1278
▁varied	-12.1278
▁Caesar	-12.1278
▁Chloe	-12.1278
▁Hostel	-12.1278
▁KILL	-12.1278
▁Melody	-12.1278
▁Hayward	-12.1278
Bonanza	-12.1278
▁existential	-12.1278
▁ladder	-12.1278
▁request	-12.1278
▁predator	-12.1278
▁Neeson	-12.1278
▁injury	-12.1278
▁Buffy	-12.1278
▁aftermath	-12.1278
▁relating	-12.1278
▁Payne	-12.1278
Deathtrap	-12.1278
▁/>1/10	-12.1278
▁whimsical	-12.1278
▁Mountain	-12.1278
▁eleven	-12.1278
▁ordeal	-12.1279
Trouble	-12.1279
▁Ladies	-12.1279
▁hijack	-12.1279
▁kingdom	-12.1279
Taxi	-12.128
▁Wesley	-12.128
▁riddle	-12.1281
▁Forrest	-12.129
▁Locke	-12.1304
▁Lorn	-12.1365
Making	-12.1365
scale	-12.1392
▁CHA	-12.1406
Review	-12.1415
▁practic	-12.144
digger	-12.1496
Those	-12.1528
secret	-12.1528
Corky	-12.1532
either	-12.1538
▁compos	-12.1544
taste	-12.1562
▁polish	-12.1568
plain	-12.1579
▁Korea	-12.1592
▁advert	-12.16
Phantasm	-12.1601
▁Battlestar	-12.1601
▁Benjamin	-12.1601
▁Brennan	-12.1601
▁Duryea	-12.1601
▁Exorcist	-12.1601
▁Internet	-12.1601
▁MacDonald	-12.1601
▁Modesty	-12.1601
▁Palestinian	-12.1601
▁Peckinpah	-12.1601
▁Pickford	-12.1601
▁Samurai	-12.1601
▁Service	-12.1601
▁Sheridan	-12.1601
▁Switzerland	-12.1601
▁Television	-12.1601
▁Ursula	-12.1601
▁arrogance	-12.1601
▁chaotic	-12.1601
▁corridor	-12.1601
▁destination	-12.1601
▁detached	-12.1601
▁elected	-12.1601
▁frozen	-12.1601
▁hollywood	-12.1601
▁humiliate	-12.1601
▁imaginary	-12.1601
▁license	-12.1601
▁oblivious	-12.1601
▁sophistication	-12.1601
▁telegraph	-12.1601
▁vacuous	-12.1601
▁Dickinson	-12.1601
▁Hilliard	-12.1601
▁Public	-12.1601
▁Stallone	-12.1601
▁Swayze	-12.1601
▁concoct	-12.1601
▁medieval	-12.1601
▁revival	-12.1601
▁stubborn	-12.1601
▁swamp	-12.1601
▁Double	-12.1601
▁implement	-12.1601
▁tattoo	-12.1601
▁essay	-12.1601
▁cycle	-12.1601
▁honour	-12.1601
▁Truth	-12.1601
▁Rooney	-12.1601
▁Weaver	-12.1601
▁Steele	-12.1601
▁Rudd	-12.1601
HOUSE	-12.1601
▁Extras	-12.1601
▁Tashan	-12.1601
▁mimic	-12.1601
▁Conrad	-12.1601
▁shiny	-12.1601
▁Busey	-12.1601
▁Cheech	-12.1601
▁Lorre	-12.1601
▁whisk	-12.1602
▁Blank	-12.1602
▁cherish	-12.1602
▁array	-12.1602
▁pipe	-12.1604
▁loot	-12.1605
literate	-12.1606
▁apple	-12.1606
▁stride	-12.1662
deemed	-12.1694
characterisation	-12.1701
Walking	-12.1707
Denis	-12.1714
Broken	-12.1792
▁ignor	-12.182
▁impose	-12.183
Grade	-12.1861
despite	-12.1862
Eddie	-12.1862
color	-12.1907
storm	-12.1913
▁masquerad	-12.1934
Executive	-12.1934
phobic	-12.1934
▁1945	-12.1934
▁1975	-12.1934
▁1987	-12.1934
▁Additionally	-12.1934
▁Cartwright	-12.1934
▁Chainsaw	-12.1934
▁Entertainment	-12.1934
▁Glenda	-12.1934
▁Guevara	-12.1934
▁McIntire	-12.1934
▁Olympic	-12.1934
▁Pertwee	-12.1934
▁Rabbit	-12.1934
▁Screenplay	-12.1934
▁abstract	-12.1934
▁admission	-12.1934
▁applause	-12.1934
▁blossom	-12.1934
▁cohesive	-12.1934
▁constraints	-12.1934
▁counsel	-12.1934
▁dazzling	-12.1934
▁dispatch	-12.1934
▁eloquen	-12.1934
▁enigmatic	-12.1934
▁escort	-12.1934
▁homicidal	-12.1934
▁incessant	-12.1934
▁infinitely	-12.1934
▁kibbutz	-12.1934
▁monstrosity	-12.1934
▁nemesis	-12.1934
▁occult	-12.1934
▁padded	-12.1934
▁paranoid	-12.1934
▁skimp	-12.1934
▁stalwart	-12.1934
▁surrender	-12.1934
▁trumpet	-12.1934
▁uneasy	-12.1934
▁vintage	-12.1934
▁wheelchair	-12.1934
▁1982	-12.1934
▁Cinematography	-12.1934
▁Daisies	-12.1934
▁Orlando	-12.1934
▁Problem	-12.1934
▁Samantha	-12.1934
▁Square	-12.1934
▁elicit	-12.1934
▁irrational	-12.1934
▁radiation	-12.1934
Gloria	-12.1934
▁Costner	-12.1934
▁Valerie	-12.1934
▁cunning	-12.1934
▁fierce	-12.1934
▁Luthor	-12.1934
▁fairytale	-12.1934
▁rampant	-12.1934
▁strung	-12.1934
▁Mummy	-12.1934
▁Samuel	-12.1934
▁deputy	-12.1934
▁escalat	-12.1934
▁refund	-12.1934
▁conceal	-12.1934
▁shelves	-12.1934
▁injustice	-12.1934
▁Travis	-12.1934
▁dvd	-12.1934
▁regain	-12.1934
▁/>2/10	-12.1934
▁Lumet	-12.1934
▁staple	-12.1934
▁vibe	-12.1934
▁programming	-12.1934
▁upbringing	-12.1935
▁roar	-12.1935
▁Stefan	-12.1935
▁golf	-12.1936
▁Tower	-12.1936
Munchie	-12.1939
▁Frye	-12.1943
Hello	-12.1967
▁emergenc	-12.219
Before	-12.2206
deserved	-12.2206
literally	-12.2207
obvious	-12.2207
worst	-12.2207
▁disturb	-12.221
▁extend	-12.2249
Yugoslav	-12.2279
▁ALERT	-12.2279
Napoleon	-12.2279
▁Ashraf	-12.2279
▁Aztec	-12.2279
▁Bathsheba	-12.2279
▁Melbourne	-12.2279
▁Pfeiffer	-12.2279
▁Schwarzenegger	-12.2279
▁Tomlinson	-12.2279
▁abundance	-12.2279
▁appalled	-12.2279
▁bankrupt	-12.2279
▁cheesiness	-12.2279
▁cinematographic	-12.2279
▁circus	-12.2279
▁impersonation	-12.2279
▁motivated	-12.2279
▁neutral	-12.2279
▁persuade	-12.2279
▁prehistoric	-12.2279
▁squirm	-12.2279
▁tomorrow	-12.2279
Surprise	-12.2279
▁Jersey	-12.2279
▁Kareena	-12.2279
▁OVER	-12.2279
▁jumble	-12.2279
▁Muriel	-12.2279
▁athletic	-12.2279
▁clarity	-12.2279
▁gallery	-12.2279
▁inclined	-12.2279
▁Apollo	-12.2279
▁ounce	-12.2279
▁conceit	-12.2279
▁suave	-12.2279
▁foreshadow	-12.2279
▁Future	-12.2279
▁varying	-12.2279
▁BTK	-12.2279
▁Daisy	-12.2279
▁decay	-12.2279
Brien	-12.2279
▁Parents	-12.2279
▁drool	-12.2279
▁classmates	-12.2279
▁Raider	-12.2279
▁Bauer	-12.2279
esteem	-12.2279
▁erupt	-12.2279
Similar	-12.2279
▁Tsui	-12.2279
▁foremost	-12.2279
▁mischie	-12.2279
▁Always	-12.2279
▁Barbarian	-12.2279
▁reign	-12.228
▁Thelma	-12.228
▁beware	-12.228
▁puke	-12.2281
▁extract	-12.2281
Jurassi	-12.2281
▁catalog	-12.2289
▁saddle	-12.2294
Pierre	-12.2299
▁Rube	-12.2302
▁Dialog	-12.2304
▁Blanc	-12.2345
Didn	-12.2355
Grease	-12.2399
▁battl	-12.2551
establish	-12.2563
Scary	-12.2563
subtle	-12.2564
drawn	-12.2564
Next	-12.2564
Poor	-12.2564
fresh	-12.2564
Guy	-12.2564
Sadly	-12.2564
Wild	-12.2566
cinema	-12.2569
▁indulge	-12.2587
▁extrem	-12.2602
▁precise	-12.2611
▁dictat	-12.2627
nstitution	-12.2628
Malcolm	-12.2636
▁1963	-12.2636
▁Afghanistan	-12.2636
▁Bruckheimer	-12.2636
▁Crazy	-12.2636
▁Suddenly	-12.2636
▁YouTube	-12.2636
▁bachelor	-12.2636
▁bounty	-12.2636
▁catholic	-12.2636
▁decency	-12.2636
▁efficient	-12.2636
▁espionage	-12.2636
▁happier	-12.2636
▁idiocy	-12.2636
▁inconsistencies	-12.2636
▁manufactur	-12.2636
▁nightmarish	-12.2636
▁paragraph	-12.2636
▁raunchy	-12.2636
▁recipe	-12.2636
▁scheming	-12.2636
▁sensibilities	-12.2636
▁sensibility	-12.2636
▁tepid	-12.2636
thirsty	-12.2636
▁College	-12.2636
▁Debbie	-12.2636
▁combining	-12.2636
▁dodgy	-12.2636
▁lampoon	-12.2636
▁promoting	-12.2636
▁shudder	-12.2636
Twelve	-12.2636
▁BORING	-12.2636
▁identified	-12.2636
▁pluck	-12.2636
▁reception	-12.2636
Natasha	-12.2636
▁Chandler	-12.2636
▁2009	-12.2636
▁Alexandre	-12.2636
▁undercover	-12.2636
▁Schmid	-12.2636
▁reckless	-12.2636
▁yarn	-12.2636
BODY	-12.2636
▁Hindu	-12.2636
▁Shadow	-12.2636
▁burden	-12.2636
▁gorilla	-12.2636
Desperate	-12.2636
▁lurid	-12.2636
▁Passion	-12.2636
▁CBC	-12.2636
Delirious	-12.2636
▁replies	-12.2636
▁Rudy	-12.2636
▁snatch	-12.2636
▁Dyke	-12.2636
▁devour	-12.2636
▁Wanda	-12.2636
▁Ugly	-12.2636
Example	-12.2637
Typical	-12.2637
Pickup	-12.2637
▁hurl	-12.2638
▁Weird	-12.2638
▁Mount	-12.2639
RIP	-12.2647
dolph	-12.2651
▁numb	-12.2668
Friends	-12.2721
Definitely	-12.2934
Oliver	-12.2934
promising	-12.2934
sensitive	-12.2934
Horror	-12.2934
Danny	-12.2934
Stewart	-12.2934
Scott	-12.2934
should	-12.2934
Victor	-12.2934
Such	-12.2934
Power	-12.2934
▁budd	-12.2991
▁stereo	-12.3006
Incidentally	-12.3006
▁Argento	-12.3006
▁Coppola	-12.3006
▁Hickock	-12.3006
▁Holocaust	-12.3006
▁Incredible	-12.3006
▁Kaufman	-12.3006
▁Krueger	-12.3006
▁Madeleine	-12.3006
▁Rathbone	-12.3006
▁Violence	-12.3006
▁academic	-12.3006
▁believability	-12.3006
▁compilation	-12.3006
▁condescending	-12.3006
▁horizon	-12.3006
▁intestines	-12.3006
▁medicine	-12.3006
▁quintessential	-12.3006
▁ravishing	-12.3006
▁smarmy	-12.3006
▁stereotyping	-12.3006
▁visceral	-12.3006
▁Cradle	-12.3006
▁Eleanor	-12.3006
▁Hazzard	-12.3006
▁Krabb	-12.3006
▁Lambert	-12.3006
▁Portman	-12.3006
▁Treasure	-12.3006
▁ceremony	-12.3006
▁concentration	-12.3006
▁implication	-12.3006
▁insufferabl	-12.3006
▁recreation	-12.3006
▁signature	-12.3006
▁syrup	-12.3006
▁Maurice	-12.3006
▁Scorpion	-12.3006
▁interlude	-12.3006
▁intertwine	-12.3006
▁rebellion	-12.3006
▁spectator	-12.3006
▁unnerving	-12.3006
▁Archie	-12.3006
▁pulse	-12.3006
▁agonizing	-12.3006
▁prolonged	-12.3006
▁Furious	-12.3006
▁banana	-12.3006
▁outburst	-12.3006
▁coarse	-12.3006
▁Hulk	-12.3006
▁carnage	-12.3006
▁Corpse	-12.3006
▁Cannon	-12.3006
▁Cylon	-12.3006
▁spoon	-12.3006
▁Mafia	-12.3006
▁Newhart	-12.3006
▁guise	-12.3006
▁henchman	-12.3006
american	-12.3007
▁Ironside	-12.3007
▁overseas	-12.3007
▁gently	-12.3007
▁Ethel	-12.3007
▁hesitate	-12.3007
▁stoop	-12.3007
▁tolerance	-12.3007
McBain	-12.3007
▁gaze	-12.3007
▁divine	-12.3008
▁Eater	-12.3008
athlete	-12.3008
▁Cassel	-12.301
▁Manchu	-12.3011
indulgence	-12.3026
▁quip	-12.3062
Honestly	-12.3318
Actually	-12.3318
exploitation	-12.3318
Thomas	-12.3319
surprising	-12.3319
Stephen	-12.3319
Death	-12.3319
wreck	-12.3319
Again	-12.3319
Christian	-12.3319
street	-12.3319
stupid	-12.3319
death	-12.3319
Edison	-12.3321
▁accuse	-12.3362
▁immense	-12.3366
BASEketball	-12.3391
Crocodile	-12.3391
Humphrey	-12.3391
▁Berkowitz	-12.3391
▁Government	-12.3391
▁Gwyne	-12.3391
▁Hospital	-12.3391
▁LOOK	-12.3391
▁Meredith	-12.3391
▁PEOPLE	-12.3391
▁Phyllis	-12.3391
▁Sergeant	-12.3391
▁Sullavan	-12.3391
▁TERRIBLE	-12.3391
▁arriving	-12.3391
▁autobiography	-12.3391
▁categories	-12.3391
▁celebrities	-12.3391
▁climate	-12.3391
▁crummy	-12.3391
▁demographic	-12.3391
▁endeavor	-12.3391
▁frenetic	-12.3391
▁grandparents	-12.3391
▁histrionic	-12.3391
▁inadvertently	-12.3391
▁incompetence	-12.3391
▁ineffective	-12.3391
▁juxtapos	-12.3391
▁luxury	-12.3391
▁mandatory	-12.3391
▁marathon	-12.3391
▁maximum	-12.3391
▁mercifully	-12.3391
▁oblivion	-12.3391
▁pompous	-12.3391
▁prevalent	-12.3391
▁psychiatric	-12.3391
▁sociopath	-12.3391
▁turgid	-12.3391
▁unimpressive	-12.3391
▁verdict	-12.3391
▁Crypt	-12.3391
▁Daphne	-12.3391
▁Olsen	-12.3391
▁Vacation	-12.3391
▁diabolical	-12.3391
▁fencing	-12.3391
▁flamboyant	-12.3391
▁interminable	-12.3391
▁peasant	-12.3391
▁torturing	-12.3391
▁unsuccessful	-12.3391
▁whisper	-12.3391
Between	-12.3391
▁Abhay	-12.3391
▁Lamarr	-12.3391
▁Maureen	-12.3391
▁intersperse	-12.3391
▁occurrence	-12.3391
▁Cahill	-12.3391
▁booze	-12.3391
▁overshadowed	-12.3391
▁prestig	-12.3391
▁Holden	-12.3391
▁Midler	-12.3391
▁gusto	-12.3391
Yankee	-12.3391
▁globe	-12.3391
▁robbing	-12.3391
▁Feature	-12.3391
▁Malta	-12.3391
▁nominee	-12.3391
▁Dillon	-12.3391
▁Celie	-12.3391
▁Emmy	-12.3391
▁Carlyle	-12.3391
exclud	-12.3391
▁Tomei	-12.3391
▁diversity	-12.3391
▁Fleet	-12.3391
▁solving	-12.3391
▁Claudi	-12.3391
stricken	-12.3391
▁brawl	-12.3391
▁strapp	-12.3391
▁greet	-12.3392
▁satanic	-12.3392
induced	-12.3392
▁fiend	-12.3392
▁terminal	-12.3392
▁recurr	-12.3392
▁kitsch	-12.3393
▁replica	-12.3398
▁interfere	-12.3398
▁stoic	-12.3402
Snake	-12.3402
Clich	-12.3412
addest	-12.3469
Flower	-12.3474
inspired	-12.3714
Freddy	-12.3718
heavy	-12.3719
apparently	-12.3719
Disney	-12.3719
everything	-12.3719
Earth	-12.3719
Brian	-12.3719
▁devote	-12.3762
appointed	-12.379
▁nausea	-12.379
▁intellect	-12.379
Emmanuelle	-12.3791
proverbial	-12.3791
▁1948	-12.3791
▁Berkeley	-12.3791
▁Capshaw	-12.3791
▁Dynamite	-12.3791
▁Fiennes	-12.3791
▁HORRIBLE	-12.3791
▁Palermo	-12.3791
▁Pasolini	-12.3791
▁SCREAM	-12.3791
▁admiration	-12.3791
▁artifact	-12.3791
▁assortment	-12.3791
▁chocolate	-12.3791
▁clunker	-12.3791
▁consummate	-12.3791
▁decapitated	-12.3791
▁determination	-12.3791
▁disservice	-12.3791
▁framing	-12.3791
▁hypnotic	-12.3791
▁innovation	-12.3791
▁intrusive	-12.3791
▁lizard	-12.3791
▁notwithstanding	-12.3791
▁pivotal	-12.3791
▁remorse	-12.3791
▁repertoire	-12.3791
▁satisfactory	-12.3791
▁scattered	-12.3791
▁sponsor	-12.3791
▁technological	-12.3791
▁unlucky	-12.3791
▁vigilante	-12.3791
▁AFTER	-12.3791
▁Devgan	-12.3791
▁Jaffe	-12.3791
▁Melinda	-12.3791
▁Merrill	-12.3791
▁Poirot	-12.3791
▁Rookie	-12.3791
▁SHOULD	-12.3791
▁Savini	-12.3791
▁allegory	-12.3791
▁coherence	-12.3791
▁distasteful	-12.3791
▁feminine	-12.3791
▁harrowing	-12.3791
▁pretense	-12.3791
▁puzzling	-12.3791
▁sabotage	-12.3791
▁stooge	-12.3791
▁uncredited	-12.3791
▁CRAP	-12.3791
▁Jungle	-12.3791
▁Kramer	-12.3791
▁penalty	-12.3791
▁skirt	-12.3791
▁Fleming	-12.3791
▁Gomez	-12.3791
▁crotch	-12.3791
▁pistol	-12.3791
▁'73	-12.3791
▁Bishop	-12.3791
▁pupil	-12.3791
▁Nurse	-12.3791
▁Shield	-12.3791
▁astonished	-12.3791
▁retreat	-12.3791
▁townspeople	-12.3791
▁Domino	-12.3791
▁manifest	-12.3791
▁reckon	-12.3791
▁Fagin	-12.3791
▁Earp	-12.3791
▁Ruby	-12.3791
▁shady	-12.3791
▁effortlessly	-12.3791
▁fiery	-12.3791
Invasion	-12.3791
▁plumb	-12.3791
▁motif	-12.3791
▁chalk	-12.3791
▁Regina	-12.3791
▁jolt	-12.3791
▁wreak	-12.3792
Possible	-12.3792
▁creak	-12.3792
▁grocer	-12.3792
▁archetyp	-12.3792
▁prolif	-12.3799
Envy	-12.3955
▁achiev	-12.3965
formation	-12.4
Nightmare	-12.4135
Would	-12.4135
Pretty	-12.4135
National	-12.4135
birth	-12.4135
murder	-12.4135
beautiful	-12.4135
romantic	-12.4135
▁deliberate	-12.4182
▁neuro	-12.4201
▁glamor	-12.4206
Essentially	-12.4208
Performance	-12.4208
abriski	-12.4208
extraordinarily	-12.4208
▁1938	-12.4208
▁1943	-12.4208
▁AWFUL	-12.4208
▁Chronicles	-12.4208
▁Cleveland	-12.4208
▁Depression	-12.4208
▁FIRST	-12.4208
▁Gannon	-12.4208
▁Luzhin	-12.4208
▁Philadelphia	-12.4208
▁Rosanna	-12.4208
▁Scalise	-12.4208
▁Sybil	-12.4208
▁Syndrome	-12.4208
▁babysitter	-12.4208
▁bartender	-12.4208
▁capsule	-12.4208
▁clumsily	-12.4208
▁desolate	-12.4208
▁envelope	-12.4208
▁foreboding	-12.4208
▁infidelity	-12.4208
▁melancholy	-12.4208
▁necessity	-12.4208
▁obligation	-12.4208
▁oppressive	-12.4208
▁optimism	-12.4208
▁patriarch	-12.4208
▁patriotic	-12.4208
▁puerile	-12.4208
▁reincarnation	-12.4208
▁scantily	-12.4208
▁smitten	-12.4208
▁sporadic	-12.4208
▁tribulation	-12.4208
▁twentie	-12.4208
▁unremarkable	-12.4208
▁urgency	-12.4208
▁vaudeville	-12.4208
▁yourselves	-12.4208
WHERE	-12.4208
▁Champion	-12.4208
▁Tracey	-12.4208
▁disconnected	-12.4208
▁erratic	-12.4208
▁ghoul	-12.4208
▁liquor	-12.4208
▁misplaced	-12.4208
▁versatile	-12.4208
▁Forsythe	-12.4208
▁Number	-12.4208
▁bloom	-12.4208
▁fathom	-12.4208
▁footsteps	-12.4208
▁impulse	-12.4208
▁offspring	-12.4208
▁stature	-12.4208
▁Cortez	-12.4208
▁Monroe	-12.4208
▁staggering	-12.4208
▁Groove	-12.4208
▁Rochon	-12.4208
▁Haunting	-12.4208
▁Hilary	-12.4208
▁balloon	-12.4208
▁Bailey	-12.4208
▁pepper	-12.4208
▁Curse	-12.4208
▁throne	-12.4208
▁alligator	-12.4208
▁rousing	-12.4208
▁Modine	-12.4208
▁Welch	-12.4208
▁thwart	-12.4208
▁sassy	-12.4208
▁Harilal	-12.4208
▁loathe	-12.4208
Certain	-12.4212
Birth	-12.4221
dazzle	-12.4221
Freak	-12.4222
Bomb	-12.4259
splitting	-12.4305
possibly	-12.4344
▁mutt	-12.4398
▁pranc	-12.4512
▁propose	-12.4516
shadow	-12.457
intelligent	-12.457
message	-12.457
featur	-12.4572
▁Slov	-12.4604
▁cigar	-12.4642
▁clutch	-12.4642
!!!!!!!!!!!!!!!!	-12.4642
Seinfeld	-12.4642
▁1932	-12.4642
▁1965	-12.4642
▁Abigail	-12.4642
▁Arizona	-12.4642
▁Blackadder	-12.4642
▁Broderick	-12.4642
▁Hispanic	-12.4642
▁LITTLE	-12.4642
▁September	-12.4642
▁Seymour	-12.4642
▁Stratten	-12.4642
▁THINK	-12.4642
▁Vargas	-12.4642
▁administration	-12.4642
▁bickering	-12.4642
▁bicycle	-12.4642
▁catastrophe	-12.4642
▁cocktail	-12.4642
▁debacle	-12.4642
▁dedication	-12.4642
▁deteriorate	-12.4642
▁disgruntled	-12.4642
▁earthquake	-12.4642
▁excellence	-12.4642
▁forgivable	-12.4642
▁hockey	-12.4642
▁homicide	-12.4642
▁liberties	-12.4642
▁nifty	-12.4642
▁notoriety	-12.4642
▁pinnacle	-12.4642
▁pizza	-12.4642
▁schtick	-12.4642
▁shambles	-12.4642
▁skeleton	-12.4642
▁untalented	-12.4642
atoichi	-12.4642
▁1955	-12.4642
▁HIGH	-12.4642
▁Mirror	-12.4642
▁Voight	-12.4642
▁accusation	-12.4642
▁circa	-12.4642
▁commission	-12.4642
▁deceptive	-12.4642
▁diploma	-12.4642
▁groundbreaking	-12.4642
▁hubby	-12.4642
▁interrogat	-12.4642
▁monstrous	-12.4642
▁predicament	-12.4642
▁transvestite	-12.4642
▁Ernst	-12.4642
